{
  "version": "1.0",
  "truncation": null,
  "padding": null,
  "added_tokens": [
    {
      "id": 0,
      "content": "<|endoftext|>",
      "single_word": false,
      "lstrip": false,
      "rstrip": false,
      "normalized": false,
      "special": true
    }
  ],
  "normalizer": null,
  "pre_tokenizer": {
    "type": "ByteLevel",
    "add_prefix_space": false,
    "trim_offsets": true,
    "use_regex": true
  },
  "post_processor": {
    "type": "ByteLevel",
    "add_prefix_space": true,
    "trim_offsets": false,
    "use_regex": true
  },
  "decoder": {
    "type": "ByteLevel",
    "add_prefix_space": true,
    "trim_offsets": true,
    "use_regex": true
  },
  "model": {
    "type": "BPE",
    "dropout": null,
    "unk_token": null,
    "continuing_subword_prefix": "",
    "end_of_word_suffix": "",
    "fuse_unk": false,
    "byte_fallback": false,
    "vocab": {
      "<|endoftext|>": 0,
      "!": 1,
      "\"": 2,
      "#": 3,
      "$": 4,
      "%": 5,
      "&": 6,
      "'": 7,
      "(": 8,
      ")": 9,
      "*": 10,
      "+": 11,
      ",": 12,
      "-": 13,
      ".": 14,
      "/": 15,
      "0": 16,
      "1": 17,
      "2": 18,
      "3": 19,
      "4": 20,
      "5": 21,
      "6": 22,
      "7": 23,
      "8": 24,
      "9": 25,
      ":": 26,
      ";": 27,
      "<": 28,
      "=": 29,
      ">": 30,
      "?": 31,
      "@": 32,
      "A": 33,
      "B": 34,
      "C": 35,
      "D": 36,
      "E": 37,
      "F": 38,
      "G": 39,
      "H": 40,
      "I": 41,
      "J": 42,
      "K": 43,
      "L": 44,
      "M": 45,
      "N": 46,
      "O": 47,
      "P": 48,
      "Q": 49,
      "R": 50,
      "S": 51,
      "T": 52,
      "U": 53,
      "V": 54,
      "W": 55,
      "X": 56,
      "Y": 57,
      "Z": 58,
      "[": 59,
      "\\": 60,
      "]": 61,
      "^": 62,
      "_": 63,
      "`": 64,
      "a": 65,
      "b": 66,
      "c": 67,
      "d": 68,
      "e": 69,
      "f": 70,
      "g": 71,
      "h": 72,
      "i": 73,
      "j": 74,
      "k": 75,
      "l": 76,
      "m": 77,
      "n": 78,
      "o": 79,
      "p": 80,
      "q": 81,
      "r": 82,
      "s": 83,
      "t": 84,
      "u": 85,
      "v": 86,
      "w": 87,
      "x": 88,
      "y": 89,
      "z": 90,
      "{": 91,
      "|": 92,
      "}": 93,
      "~": 94,
      "¡": 95,
      "¢": 96,
      "£": 97,
      "¤": 98,
      "¥": 99,
      "¦": 100,
      "§": 101,
      "¨": 102,
      "©": 103,
      "ª": 104,
      "«": 105,
      "¬": 106,
      "®": 107,
      "¯": 108,
      "°": 109,
      "±": 110,
      "²": 111,
      "³": 112,
      "´": 113,
      "µ": 114,
      "¶": 115,
      "·": 116,
      "¸": 117,
      "¹": 118,
      "º": 119,
      "»": 120,
      "¼": 121,
      "½": 122,
      "¾": 123,
      "¿": 124,
      "À": 125,
      "Á": 126,
      "Â": 127,
      "Ã": 128,
      "Ä": 129,
      "Å": 130,
      "Æ": 131,
      "Ç": 132,
      "È": 133,
      "É": 134,
      "Ê": 135,
      "Ë": 136,
      "Ì": 137,
      "Í": 138,
      "Î": 139,
      "Ï": 140,
      "Ð": 141,
      "Ñ": 142,
      "Ò": 143,
      "Ó": 144,
      "Ô": 145,
      "Õ": 146,
      "Ö": 147,
      "×": 148,
      "Ø": 149,
      "Ù": 150,
      "Ú": 151,
      "Û": 152,
      "Ü": 153,
      "Ý": 154,
      "Þ": 155,
      "ß": 156,
      "à": 157,
      "á": 158,
      "â": 159,
      "ã": 160,
      "ä": 161,
      "å": 162,
      "æ": 163,
      "ç": 164,
      "è": 165,
      "é": 166,
      "ê": 167,
      "ë": 168,
      "ì": 169,
      "í": 170,
      "î": 171,
      "ï": 172,
      "ð": 173,
      "ñ": 174,
      "ò": 175,
      "ó": 176,
      "ô": 177,
      "õ": 178,
      "ö": 179,
      "÷": 180,
      "ø": 181,
      "ù": 182,
      "ú": 183,
      "û": 184,
      "ü": 185,
      "ý": 186,
      "þ": 187,
      "ÿ": 188,
      "Ā": 189,
      "ā": 190,
      "Ă": 191,
      "ă": 192,
      "Ą": 193,
      "ą": 194,
      "Ć": 195,
      "ć": 196,
      "Ĉ": 197,
      "ĉ": 198,
      "Ċ": 199,
      "ċ": 200,
      "Č": 201,
      "č": 202,
      "Ď": 203,
      "ď": 204,
      "Đ": 205,
      "đ": 206,
      "Ē": 207,
      "ē": 208,
      "Ĕ": 209,
      "ĕ": 210,
      "Ė": 211,
      "ė": 212,
      "Ę": 213,
      "ę": 214,
      "Ě": 215,
      "ě": 216,
      "Ĝ": 217,
      "ĝ": 218,
      "Ğ": 219,
      "ğ": 220,
      "Ġ": 221,
      "ġ": 222,
      "Ģ": 223,
      "ģ": 224,
      "Ĥ": 225,
      "ĥ": 226,
      "Ħ": 227,
      "ħ": 228,
      "Ĩ": 229,
      "ĩ": 230,
      "Ī": 231,
      "ī": 232,
      "Ĭ": 233,
      "ĭ": 234,
      "Į": 235,
      "į": 236,
      "İ": 237,
      "ı": 238,
      "Ĳ": 239,
      "ĳ": 240,
      "Ĵ": 241,
      "ĵ": 242,
      "Ķ": 243,
      "ķ": 244,
      "ĸ": 245,
      "Ĺ": 246,
      "ĺ": 247,
      "Ļ": 248,
      "ļ": 249,
      "Ľ": 250,
      "ľ": 251,
      "Ŀ": 252,
      "ŀ": 253,
      "Ł": 254,
      "ł": 255,
      "Ń": 256,
      "Ġt": 257,
      "he": 258,
      "Ġa": 259,
      "in": 260,
      "er": 261,
      "Ġthe": 262,
      "Ġs": 263,
      "on": 264,
      "re": 265,
      "Ġw": 266,
      "ed": 267,
      "en": 268,
      "Ġc": 269,
      "Ġo": 270,
      "at": 271,
      "Ġb": 272,
      "an": 273,
      "Ġf": 274,
      "or": 275,
      "is": 276,
      "ing": 277,
      "it": 278,
      "Ġh": 279,
      "Ġto": 280,
      "es": 281,
      "ar": 282,
      "Ġp": 283,
      "nd": 284,
      "Ġin": 285,
      "ou": 286,
      "as": 287,
      "al": 288,
      "Ġm": 289,
      "Ġof": 290,
      "Ġd": 291,
      "Ġand": 292,
      "ic": 293,
      "le": 294,
      "om": 295,
      "Ġth": 296,
      "il": 297,
      "id": 298,
      "ion": 299,
      "Ġ.": 300,
      "ent": 301,
      "Ġl": 302,
      "Ġbe": 303,
      "Ġn": 304,
      "ĠT": 305,
      "Ġhe": 306,
      "Ġre": 307,
      "ve": 308,
      "st": 309,
      "ot": 310,
      "ĠS": 311,
      "ay": 312,
      "Ġg": 313,
      "ut": 314,
      "ol": 315,
      "Ġon": 316,
      "ad": 317,
      "ĠA": 318,
      "am": 319,
      "ĠM": 320,
      "ac": 321,
      "Ġe": 322,
      "ow": 323,
      "ly": 324,
      "ur": 325,
      "ĠC": 326,
      "Ġfor": 327,
      "im": 328,
      "ig": 329,
      "ter": 330,
      "Ġwas": 331,
      "ĠI": 332,
      "ir": 333,
      "ver": 334,
      "el": 335,
      "et": 336,
      "Ġthat": 337,
      "Ġst": 338,
      "Ġis": 339,
      "ro": 340,
      "ĠB": 341,
      "Ġwh": 342,
      "us": 343,
      "âĢ": 344,
      "'s": 345,
      "ec": 346,
      "ith": 347,
      "ĠThe": 348,
      "Ġwith": 349,
      "Ġsa": 350,
      "ld": 351,
      "Ġat": 352,
      "ĠH": 353,
      "ill": 354,
      "Ġit": 355,
      "Ġ'": 356,
      "ri": 357,
      "ĠP": 358,
      "Ġas": 359,
      "un": 360,
      "Ġsaid": 361,
      "Ġan": 362,
      "ce": 363,
      "ation": 364,
      "Ġy": 365,
      "Ġal": 366,
      "her": 367,
      "ers": 368,
      "Ġhis": 369,
      "Ġha": 370,
      "ear": 371,
      "os": 372,
      "ra": 373,
      "ch": 374,
      "ĠW": 375,
      "and": 376,
      "ĠD": 377,
      "ul": 378,
      "igh": 379,
      "op": 380,
      "est": 381,
      "th": 382,
      "ĠL": 383,
      "ke": 384,
      "rom": 385,
      "ĠR": 386,
      "em": 387,
      "ag": 388,
      "Ġcon": 389,
      "ĠF": 390,
      "âĢĻ": 391,
      "Ġ2": 392,
      "ts": 393,
      "ore": 394,
      "if": 395,
      "Ġ1": 396,
      "pp": 397,
      "Ġhave": 398,
      "Ġr": 399,
      "Ġfrom": 400,
      "ĠN": 401,
      "ĠE": 402,
      "our": 403,
      "Ġare": 404,
      "Ġhas": 405,
      "Ġby": 406,
      "ĠG": 407,
      "ain": 408,
      "Ġsh": 409,
      "Ġher": 410,
      "ew": 411,
      "Ġcom": 412,
      "Ġ\"": 413,
      "ted": 414,
      "Ġch": 415,
      "Ġv": 416,
      "res": 417,
      "od": 418,
      "ĠJ": 419,
      "ate": 420,
      "ould": 421,
      "Ġwe": 422,
      "00": 423,
      "Ġde": 424,
      "Ġle": 425,
      "Ġnot": 426,
      "up": 427,
      "ct": 428,
      "end": 429,
      "ess": 430,
      "ast": 431,
      "ight": 432,
      "Ġse": 433,
      "gh": 434,
      "um": 435,
      "ust": 436,
      "ack": 437,
      "Ġex": 438,
      "Ġwho": 439,
      "Ġj": 440,
      "all": 441,
      "ĠO": 442,
      "ity": 443,
      "ab": 444,
      "Ġpro": 445,
      "Ġhad": 446,
      "se": 447,
      "ĠâĢ": 448,
      "ist": 449,
      "Ġwhe": 450,
      "Ġ-": 451,
      "ive": 452,
      "ard": 453,
      "Ġaf": 454,
      "Ġsp": 455,
      "ere": 456,
      "art": 457,
      "ĠU": 458,
      "ak": 459,
      "oc": 460,
      "ice": 461,
      "ment": 462,
      "Ġshe": 463,
      "rou": 464,
      "ok": 465,
      "Ġsu": 466,
      "ome": 467,
      "Ġab": 468,
      "ort": 469,
      "red": 470,
      "Ġpl": 471,
      "Ġthey": 472,
      "oun": 473,
      "ies": 474,
      "iv": 475,
      "Ġbeen": 476,
      "Ġwere": 477,
      "out": 478,
      "Ġtheir": 479,
      "Ġk": 480,
      "ich": 481,
      "ud": 482,
      "ge": 483,
      "qu": 484,
      "Ġafter": 485,
      "Ġbut": 486,
      "Ġgo": 487,
      "ost": 488,
      "Ġwor": 489,
      "ant": 490,
      "Ġor": 491,
      "ide": 492,
      "ell": 493,
      "ĠK": 494,
      "Ġthis": 495,
      "Ġout": 496,
      "Ġwill": 497,
      "Ġoff": 498,
      "ial": 499,
      "ry": 500,
      "Ġcl": 501,
      "Ġyear": 502,
      "ĠâĢĺ": 503,
      "ber": 504,
      "own": 505,
      "ie": 506,
      "one": 507,
      "ap": 508,
      "ep": 509,
      "ong": 510,
      "day": 511,
      "Ġup": 512,
      "Ġdo": 513,
      "cc": 514,
      "ia": 515,
      "ous": 516,
      "ine": 517,
      "ren": 518,
      "ff": 519,
      "Ġad": 520,
      "Ġag": 521,
      "Ġwhich": 522,
      "Ġun": 523,
      "ime": 524,
      "ans": 525,
      "ord": 526,
      "Ġ(": 527,
      "Ġ20": 528,
      "Ġne": 529,
      "Ġcan": 530,
      "und": 531,
      "ict": 532,
      "ĠSt": 533,
      "mer": 534,
      "Ġint": 535,
      "ub": 536,
      "Ġus": 537,
      "ect": 538,
      "old": 539,
      "ame": 540,
      "Ġone": 541,
      "ther": 542,
      "ally": 543,
      "Ġwhen": 544,
      "Ġall": 545,
      "ace": 546,
      "ary": 547,
      "ĠHe": 548,
      "Ġabout": 549,
      "ays": 550,
      "ĠCh": 551,
      "ated": 552,
      "Ġyou": 553,
      "ue": 554,
      "Ġman": 555,
      "ĠIn": 556,
      "Ġpe": 557,
      "age": 558,
      "Ġres": 559,
      "Ġmore": 560,
      "Ġwould": 561,
      ".'": 562,
      "ail": 563,
      "so": 564,
      "Ġme": 565,
      "wo": 566,
      "pl": 567,
      "ake": 568,
      "ure": 569,
      "ile": 570,
      "'t": 571,
      "very": 572,
      "Ġinc": 573,
      "ople": 574,
      "Ġhim": 575,
      "ions": 576,
      "ond": 577,
      "Ġcont": 578,
      "oll": 579,
      "ook": 580,
      "Ġover": 581,
      "av": 582,
      "ence": 583,
      "ild": 584,
      "Ġso": 585,
      "ose": 586,
      "Ġalso": 587,
      "Ġ201": 588,
      "ite": 589,
      "ian": 590,
      "ident": 591,
      "Ġar": 592,
      "ound": 593,
      "ind": 594,
      "Ġpeople": 595,
      "Ġrep": 596,
      "ire": 597,
      "ass": 598,
      "Ġdis": 599,
      ",\"": 600,
      "ign": 601,
      "og": 602,
      "ip": 603,
      "Ġim": 604,
      "ike": 605,
      "Ġbec": 606,
      "ĠTh": 607,
      "ress": 608,
      "ree": 609,
      "Ġpr": 610,
      "Ġpol": 611,
      "ks": 612,
      "ru": 613,
      "Ġsc": 614,
      "aus": 615,
      "other": 616,
      "Ġthan": 617,
      "Ġtwo": 618,
      "Ġev": 619,
      "ish": 620,
      "Ġacc": 621,
      "are": 622,
      "ĠIt": 623,
      "Ġatt": 624,
      "Ġcomp": 625,
      "ne": 626,
      "ount": 627,
      "per": 628,
      "man": 629,
      "Ġ--": 630,
      "ĠV": 631,
      "ft": 632,
      "Ġinto": 633,
      "ĠMr": 634,
      "Ġen": 635,
      "Ġapp": 636,
      "Ġjust": 637,
      "ough": 638,
      "ib": 639,
      "Ġfir": 640,
      "hed": 641,
      "Ġthem": 642,
      "Ġper": 643,
      "oy": 644,
      "ick": 645,
      "Ġnew": 646,
      "The": 647,
      "Ġrec": 648,
      "Ġtold": 649,
      "rit": 650,
      "act": 651,
      "Ġte": 652,
      "ved": 653,
      "Ġtime": 654,
      ".\"": 655,
      "Ġkn": 656,
      "ors": 657,
      "Ġcould": 658,
      "Ġthere": 659,
      "Ġother": 660,
      "reat": 661,
      "ark": 662,
      "Ġwork": 663,
      "ations": 664,
      "Ġpart": 665,
      "uc": 666,
      "Ġits": 667,
      "Ġyears": 668,
      "Ġlast": 669,
      "pt": 670,
      "ach": 671,
      "ade": 672,
      "ning": 673,
      "Ġmy": 674,
      "Ġ3": 675,
      "iss": 676,
      "Ġfirst": 677,
      "ĠY": 678,
      "ife": 679,
      "ob": 680,
      "fore": 681,
      "Ġlike": 682,
      "ang": 683,
      "iz": 684,
      "aw": 685,
      "ance": 686,
      "able": 687,
      "Ġtr": 688,
      "ove": 689,
      "ĠBut": 690,
      "Ġsome": 691,
      "ase": 692,
      "ily": 693,
      "ause": 694,
      "round": 695,
      "Âł": 696,
      "ens": 697,
      "ood": 698,
      "Ġbl": 699,
      "ied": 700,
      "anc": 701,
      "ath": 702,
      "Ġback": 703,
      "Ġget": 704,
      "Ġro": 705,
      "Ġfam": 706,
      "amp": 707,
      "Ġwhat": 708,
      "Ġany": 709,
      "Ġqu": 710,
      "Ġpre": 711,
      "Ġ19": 712,
      "Ġbefore": 713,
      "ical": 714,
      "ater": 715,
      "ting": 716,
      "Ġdown": 717,
      "ink": 718,
      "Ġplay": 719,
      "orm": 720,
      "land": 721,
      "Ġagain": 722,
      "Ġno": 723,
      ",'": 724,
      "ned": 725,
      "Ġfl": 726,
      "ious": 727,
      "ek": 728,
      "Ġinv": 729,
      "Ġbeing": 730,
      "ool": 731,
      "under": 732,
      "Ġshow": 733,
      "we": 734,
      "ged": 735,
      "uring": 736,
      "Ġnow": 737,
      "Ġdid": 738,
      "Ġcar": 739,
      "ult": 740,
      "ons": 741,
      "Ġsec": 742,
      "Ġtra": 743,
      "Ġinter": 744,
      "ĠUn": 745,
      "Ġser": 746,
      "ents": 747,
      "Ġchild": 748,
      "ition": 749,
      "Ġcr": 750,
      "Ġmon": 751,
      "ates": 752,
      "Ġdes": 753,
      "Ġoffic": 754,
      "Ġdec": 755,
      "ĠAl": 756,
      "Ġam": 757,
      "vel": 758,
      "rough": 759,
      "oin": 760,
      "ings": 761,
      "000": 762,
      "lic": 763,
      "Ġhome": 764,
      "Ġwhere": 765,
      "lud": 766,
      "ory": 767,
      "Ġact": 768,
      "ĠShe": 769,
      "enc": 770,
      "Ġunder": 771,
      "Ġif": 772,
      "Ġadd": 773,
      "Ġbr": 774,
      "Ġsay": 775,
      "ited": 776,
      "ĠNew": 777,
      "Ġbecause": 778,
      "year": 779,
      "vers": 780,
      "wn": 781,
      "ters": 782,
      "Ġfe": 783,
      "ving": 784,
      "ĠAn": 785,
      "Ġph": 786,
      "ĠÂ": 787,
      "Ġcall": 788,
      "Ġpolice": 789,
      "au": 790,
      "hing": 791,
      "ured": 792,
      "Ġ4": 793,
      "Ġfound": 794,
      "Ġrem": 795,
      "ince": 796,
      "aking": 797,
      "ton": 798,
      "Ġonly": 799,
      "oot": 800,
      "als": 801,
      "over": 802,
      "Ġinclud": 803,
      "ier": 804,
      "Ġlook": 805,
      "Ġ200": 806,
      "Ġhow": 807,
      "Ġthree": 808,
      "ss": 809,
      "illion": 810,
      "Ġwom": 811,
      "NN": 812,
      "ock": 813,
      "ather": 814,
      "Ġcomm": 815,
      "fer": 816,
      "Ġbel": 817,
      "ĠÂ£": 818,
      "Ġfamily": 819,
      "Ġimp": 820,
      "Ġsur": 821,
      "Ġour": 822,
      "Ġcent": 823,
      "Ġmonth": 824,
      "Ġra": 825,
      "ational": 826,
      "Ġcount": 827,
      "air": 828,
      "Ġhel": 829,
      "Ġbet": 830,
      "Ġmade": 831,
      "ĠLe": 832,
      "Ġexp": 833,
      "Ġchar": 834,
      "Ġgr": 835,
      "rib": 836,
      "Ġwhile": 837,
      "riend": 838,
      "ating": 839,
      "Ġ5": 840,
      "ublic": 841,
      "ĠAnd": 842,
      "Ġmost": 843,
      "oss": 844,
      "ise": 845,
      "son": 846,
      "Ġduring": 847,
      "ourt": 848,
      "Ġagainst": 849,
      "Ġthen": 850,
      "ered": 851,
      "led": 852,
      "Ġweek": 853,
      "ty": 854,
      "ouse": 855,
      "elf": 856,
      "Ġac": 857,
      "Ġthrough": 858,
      "ful": 859,
      "Ġhelp": 860,
      "We": 861,
      ".âĢĻ": 862,
      "ph": 863,
      "Ġaw": 864,
      "te": 865,
      "ĠMar": 866,
      "aim": 867,
      "It": 868,
      "Ġins": 869,
      "Ġear": 870,
      "Ġsays": 871,
      "Ġeven": 872,
      "ities": 873,
      "Ġday": 874,
      "Ġevery": 875,
      "Ġvery": 876,
      "hen": 877,
      "ues": 878,
      "ember": 879,
      "Ġleft": 880,
      "Ġrepor": 881,
      "ven": 882,
      "ital": 883,
      "ording": 884,
      "Ġknow": 885,
      "Ġfin": 886,
      "Ġsupp": 887,
      "uch": 888,
      "ĠSc": 889,
      "hn": 890,
      "atch": 891,
      "ope": 892,
      "Ġpres": 893,
      "Ġmake": 894,
      "ĠFr": 895,
      "ix": 896,
      "tle": 897,
      "Ġrel": 898,
      "Ġmin": 899,
      "Ġaround": 900,
      "Ġdef": 901,
      "urn": 902,
      "ased": 903,
      "Ġcons": 904,
      "Ġlead": 905,
      "ĠAf": 906,
      "chool": 907,
      "Ġworld": 908,
      "Ġem": 909,
      "ug": 910,
      "Ġclaim": 911,
      "Ġlife": 912,
      "orn": 913,
      "ĠWh": 914,
      "Ġneed": 915,
      "augh": 916,
      "ared": 917,
      "ĠSp": 918,
      "alk": 919,
      "Ġkill": 920,
      "ash": 921,
      "nment": 922,
      "lect": 923,
      "Ġtri": 924,
      "Ġke": 925,
      "Ġsm": 926,
      "les": 927,
      "ov": 928,
      "ah": 929,
      "Ġown": 930,
      "Ġdon": 931,
      "ger": 932,
      "med": 933,
      "Ġ6": 934,
      "meric": 935,
      "irl": 936,
      "Ġsee": 937,
      "ĠBrit": 938,
      "get": 939,
      "Ġstar": 940,
      "Ġret": 941,
      "hes": 942,
      "ork": 943,
      "iew": 944,
      "Ġtake": 945,
      "Ġbelie": 946,
      "Ġteam": 947,
      "Ġchildren": 948,
      "Ġreg": 949,
      "Ġway": 950,
      "Ġinf": 951,
      "erson": 952,
      "Ġthink": 953,
      "Ġmany": 954,
      "Ġbu": 955,
      "Ġend": 956,
      "ollow": 957,
      "ĠEn": 958,
      "xt": 959,
      "Ġlong": 960,
      "ement": 961,
      "sh": 962,
      "ures": 963,
      "Ġass": 964,
      "Ġind": 965,
      "Ġfour": 966,
      "ĠAr": 967,
      "roup": 968,
      "Ġshould": 969,
      "ected": 970,
      "ble": 971,
      "Ġwell": 972,
      "ody": 973,
      "Ġgover": 974,
      "gan": 975,
      "Ġ$": 976,
      "der": 977,
      "outh": 978,
      "Ġset": 979,
      "Ġgu": 980,
      "Ġgoing": 981,
      "ward": 982,
      "Ġhand": 983,
      "ual": 984,
      "Ġyour": 985,
      "ED": 986,
      "Ġhead": 987,
      "ull": 988,
      "ric": 989,
      "ĠBr": 990,
      "az": 991,
      "ĠAmeric": 992,
      "ives": 993,
      "Ġwar": 994,
      "ST": 995,
      "Ġthose": 996,
      "Ġlaw": 997,
      "ave": 998,
      "Ġmay": 999,
      "Ġinvest": 1000,
      "Ġstill": 1001,
      "Ġsince": 1002,
      "ced": 1003,
      "Ġattack": 1004,
      "alth": 1005,
      "Ġhapp": 1006,
      "Ġmed": 1007,
      "ale": 1008,
      "oth": 1009,
      "imes": 1010,
      "Ġco": 1011,
      "Ġmil": 1012,
      "..": 1013,
      "aren": 1014,
      "ont": 1015,
      "Ġpict": 1016,
      "Ġstud": 1017,
      "ists": 1018,
      "Ġthough": 1019,
      "ĠSh": 1020,
      "iel": 1021,
      "Ġfriend": 1022,
      "Ġplan": 1023,
      "ĠEST": 1024,
      "Ġright": 1025,
      "osp": 1026,
      "ĠWe": 1027,
      "ene": 1028,
      "Ġhigh": 1029,
      "Ġwin": 1030,
      "Ġvide": 1031,
      "Ġdeath": 1032,
      "Ġter": 1033,
      "ason": 1034,
      "ĠRe": 1035,
      "uss": 1036,
      "cer": 1037,
      "ney": 1038,
      "Ġcountry": 1039,
      "Ġresp": 1040,
      "uth": 1041,
      "ised": 1042,
      "ling": 1043,
      "Ġfollow": 1044,
      "ĠJo": 1045,
      "Ġconf": 1046,
      "Ġnear": 1047,
      "ner": 1048,
      "ank": 1049,
      "Ġgroup": 1050,
      "any": 1051,
      "Ġschool": 1052,
      "ween": 1053,
      "ĠâĢĵ": 1054,
      "Ġsuch": 1055,
      "Ġop": 1056,
      "ible": 1057,
      "gg": 1058,
      "Ġdif": 1059,
      "ĠThey": 1060,
      "Ġofficial": 1061,
      "ll": 1062,
      "ady": 1063,
      "ama": 1064,
      "Ġmuch": 1065,
      "ister": 1066,
      "Ġtak": 1067,
      "ames": 1068,
      "ular": 1069,
      "ves": 1070,
      "Ġcap": 1071,
      "Ġgovernment": 1072,
      "ross": 1073,
      "Ġnight": 1074,
      "Ġincluding": 1075,
      "Ġbo": 1076,
      "ĠUnited": 1077,
      "Ġbetween": 1078,
      "Ġmother": 1079,
      "Ġput": 1080,
      "tain": 1081,
      "Ġsign": 1082,
      "Ġused": 1083,
      "Ġwant": 1084,
      "ms": 1085,
      "Ġdisc": 1086,
      "ley": 1087,
      "ck": 1088,
      "Ġ10": 1089,
      "its": 1090,
      "br": 1091,
      "Ġcourt": 1092,
      "Ġpublic": 1093,
      "ange": 1094,
      "Ġmar": 1095,
      "Ġformer": 1096,
      "Ġcol": 1097,
      "bs": 1098,
      "Ġrun": 1099,
      "tern": 1100,
      "Ġ7": 1101,
      "Ġ2013": 1102,
      "ened": 1103,
      "Ġleg": 1104,
      "io": 1105,
      "Ġaccording": 1106,
      "Ġgood": 1107,
      "ott": 1108,
      "ax": 1109,
      "Ġvideo": 1110,
      "ury": 1111,
      "Ġche": 1112,
      "ants": 1113,
      "Ġpass": 1114,
      "olog": 1115,
      "Ġnum": 1116,
      "ever": 1117,
      "ower": 1118,
      "Ġyoun": 1119,
      "ecut": 1120,
      "ham": 1121,
      "Ġprot": 1122,
      "Ġsecond": 1123,
      "ina": 1124,
      "ral": 1125,
      "ĠIs": 1126,
      "Ġsl": 1127,
      "urs": 1128,
      "Ġfr": 1129,
      "Ġask": 1130,
      "ĠCl": 1131,
      "ĠCNN": 1132,
      "Ġtook": 1133,
      "By": 1134,
      "Ġdri": 1135,
      "ĠEng": 1136,
      "Ġinvestig": 1137,
      "ision": 1138,
      "ĠPol": 1139,
      "Ġcalled": 1140,
      "Ġstr": 1141,
      "Ġstat": 1142,
      "Ġperson": 1143,
      "ness": 1144,
      "rest": 1145,
      "gr": 1146,
      "ret": 1147,
      "Ġwr": 1148,
      "orth": 1149,
      "Ġext": 1150,
      "omet": 1151,
      "Ġadded": 1152,
      "Ġcare": 1153,
      "Ġnext": 1154,
      "ote": 1155,
      "ster": 1156,
      "ute": 1157,
      "Ġwomen": 1158,
      "side": 1159,
      "ics": 1160,
      "eral": 1161,
      "ines": 1162,
      "self": 1163,
      "Ġsy": 1164,
      "Ġent": 1165,
      "Ġanother": 1166,
      "ins": 1167,
      "Ġcle": 1168,
      "ĠAs": 1169,
      "Ġsent": 1170,
      "app": 1171,
      "Ġnever": 1172,
      "ple": 1173,
      "Ġdays": 1174,
      "ĠChr": 1175,
      "ondon": 1176,
      "Ġlater": 1177,
      "bers": 1178,
      "Ġcond": 1179,
      "Ġloc": 1180,
      "oney": 1181,
      "Ġgirl": 1182,
      "ospital": 1183,
      "Ġfive": 1184,
      "Ġvict": 1185,
      "Ġthese": 1186,
      "ours": 1187,
      "ets": 1188,
      "Ġair": 1189,
      "ĠLondon": 1190,
      "ison": 1191,
      "Ġbus": 1192,
      "ative": 1193,
      "Ġref": 1194,
      "ĠAt": 1195,
      "Ġcontr": 1196,
      "ĠPr": 1197,
      "Ġalle": 1198,
      "Ġmem": 1199,
      "ĠMon": 1200,
      "rem": 1201,
      "hip": 1202,
      "ivers": 1203,
      "ually": 1204,
      "Ġaway": 1205,
      "Ġcontin": 1206,
      "Ġcome": 1207,
      "uthor": 1208,
      "Ġseen": 1209,
      "iver": 1210,
      "ments": 1211,
      "ĠOb": 1212,
      "Ġgot": 1213,
      "Ġrele": 1214,
      "Ġphot": 1215,
      "Ġbeh": 1216,
      "Ġreport": 1217,
      "iving": 1218,
      "Ġdr": 1219,
      "Ġsame": 1220,
      "min": 1221,
      "ĠQ": 1222,
      "used": 1223,
      "ages": 1224,
      "Ġmonths": 1225,
      "Ġvis": 1226,
      "omm": 1227,
      "Ġfind": 1228,
      "Ġdoes": 1229,
      "Ġcase": 1230,
      "ĠMc": 1231,
      "pr": 1232,
      "Ġbig": 1233,
      "Ġfil": 1234,
      "Ġyoung": 1235,
      "ĠThis": 1236,
      "Ġpost": 1237,
      "Ġtry": 1238,
      "ĠDe": 1239,
      "ĠZ": 1240,
      "Ġexper": 1241,
      "vice": 1242,
      "Ġreported": 1243,
      "Ġbre": 1244,
      "ights": 1245,
      "Ġcame": 1246,
      "Th": 1247,
      "ices": 1248,
      "line": 1249,
      "Ġboth": 1250,
      "Ġeff": 1251,
      "Ġmillion": 1252,
      "Ġtoday": 1253,
      "ility": 1254,
      "Ġmen": 1255,
      "iday": 1256,
      "Ġwent": 1257,
      "iam": 1258,
      "Ġinj": 1259,
      "Ġpoin": 1260,
      "Ġcamp": 1261,
      "Ġ2012": 1262,
      "Ġplace": 1263,
      "Ġtaken": 1264,
      "by": 1265,
      "Ġstate": 1266,
      "'re": 1267,
      "Ġspe": 1268,
      "ex": 1269,
      "irect": 1270,
      "Ġcre": 1271,
      "osed": 1272,
      "ired": 1273,
      "Ġspok": 1274,
      "Ġprov": 1275,
      "Ġreally": 1276,
      "alf": 1277,
      "Ġcur": 1278,
      "Ġ8": 1279,
      "Ġlit": 1280,
      "atur": 1281,
      "IS": 1282,
      "Ġreal": 1283,
      "ĠJohn": 1284,
      "Ġsomet": 1285,
      "aj": 1286,
      "ient": 1287,
      "ĠObama": 1288,
      "Ġann": 1289,
      "ĠBar": 1290,
      "Ġ9": 1291,
      "ĠCar": 1292,
      "Ġexpl": 1293,
      "Ġtop": 1294,
      "Ġmiss": 1295,
      "Ġsix": 1296,
      "ĠRep": 1297,
      "ague": 1298,
      "ived": 1299,
      "ands": 1300,
      "Ġfoot": 1301,
      "Ġdep": 1302,
      "ĠFor": 1303,
      "Ġiss": 1304,
      "ges": 1305,
      "Ġfeel": 1306,
      "ency": 1307,
      "ony": 1308,
      "ĠOn": 1309,
      "Ġhouse": 1310,
      "ik": 1311,
      "Ġsex": 1312,
      "Ġspec": 1313,
      "ific": 1314,
      "Ġcou": 1315,
      "Ġtoo": 1316,
      "Ġdidn": 1317,
      "duc": 1318,
      "nes": 1319,
      "riv": 1320,
      "Ġuse": 1321,
      "Ġwoman": 1322,
      "ĠDav": 1323,
      "ys": 1324,
      "Ġrest": 1325,
      "Ġarrest": 1326,
      "Ġtrans": 1327,
      "Ġgreat": 1328,
      "Ġfar": 1329,
      "Ġprev": 1330,
      "usp": 1331,
      "ces": 1332,
      "Ġnews": 1333,
      "Ġsk": 1334,
      "ched": 1335,
      "Ġrecent": 1336,
      "uct": 1337,
      "Ġgl": 1338,
      "ten": 1339,
      "Ġhealth": 1340,
      "ober": 1341,
      "Ġsub": 1342,
      "Ġdet": 1343,
      "Ġremain": 1344,
      "ele": 1345,
      "ried": 1346,
      "Ġmilit": 1347,
      "hel": 1348,
      "Ġ12": 1349,
      "Ġrece": 1350,
      "ĠSouth": 1351,
      "Ġgen": 1352,
      "Ġfather": 1353,
      "aughter": 1354,
      "earch": 1355,
      "CNN": 1356,
      "ield": 1357,
      "Ġsupport": 1358,
      "Ġpay": 1359,
      "Ġdied": 1360,
      "orts": 1361,
      "ĠSy": 1362,
      "'.": 1363,
      "Ġbest": 1364,
      "Ġmanag": 1365,
      "ĠPolice": 1366,
      "Ġsever": 1367,
      "rent": 1368,
      "ĠBl": 1369,
      "Ġnumber": 1370,
      "til": 1371,
      "ĠYork": 1372,
      "Ġlar": 1373,
      "AT": 1374,
      "Ġwife": 1375,
      "ĠWor": 1376,
      "to": 1377,
      "oved": 1378,
      "iness": 1379,
      "ĠEur": 1380,
      "Ġaff": 1381,
      "urned": 1382,
      "Ġfac": 1383,
      "ird": 1384,
      "thing": 1385,
      "ball": 1386,
      "Ġspokes": 1387,
      "aff": 1388,
      "Ġallow": 1389,
      "Ġmet": 1390,
      "Ġsusp": 1391,
      "Ġperf": 1392,
      "Ġinst": 1393,
      "Ġpresident": 1394,
      "Ġsw": 1395,
      "Ġkilled": 1396,
      "Ġsit": 1397,
      "urity": 1398,
      "Ġdiffer": 1399,
      "istr": 1400,
      "iet": 1401,
      "Ġsim": 1402,
      "Ġpar": 1403,
      "amer": 1404,
      "Ġfew": 1405,
      "Ġlot": 1406,
      "ued": 1407,
      "ways": 1408,
      "ĠChrist": 1409,
      "Ġboy": 1410,
      "Ġhere": 1411,
      "view": 1412,
      "Ġposs": 1413,
      "Ġson": 1414,
      "Ġkeep": 1415,
      "Ġgame": 1416,
      "mit": 1417,
      "Ġdirect": 1418,
      "pped": 1419,
      "Ġstop": 1420,
      "ering": 1421,
      "ĠPres": 1422,
      "Ġtest": 1423,
      "Ġmoney": 1424,
      "ĠHow": 1425,
      "Ġpat": 1426,
      "ense": 1427,
      "Ġ15": 1428,
      "Ġauthor": 1429,
      "ĠMay": 1430,
      "iven": 1431,
      "com": 1432,
      "ĠBritish": 1433,
      "uck": 1434,
      "Ġtrain": 1435,
      "rug": 1436,
      "con": 1437,
      "Ġbody": 1438,
      "Ġdem": 1439,
      "Ġmove": 1440,
      "He": 1441,
      "ately": 1442,
      "ided": 1443,
      "ĠEngland": 1444,
      "Ġve": 1445,
      "Ġlet": 1446,
      "Ġ18": 1447,
      "Ġopp": 1448,
      "artment": 1449,
      "ĠWorld": 1450,
      "ĠAust": 1451,
      "anted": 1452,
      "Ġpolit": 1453,
      "ional": 1454,
      "ann": 1455,
      "ism": 1456,
      "Ġdel": 1457,
      "ĠBe": 1458,
      "'m": 1459,
      "Ġappear": 1460,
      "iol": 1461,
      "ished": 1462,
      "Ġthought": 1463,
      "Ġface": 1464,
      "ane": 1465,
      "roll": 1466,
      "Ġuntil": 1467,
      "Ġclub": 1468,
      "ending": 1469,
      "Ġside": 1470,
      "Ġpop": 1471,
      "Ġintern": 1472,
      "Ġhospital": 1473,
      "Ġcommun": 1474,
      "Ġcompany": 1475,
      "Ġhaving": 1476,
      "Ġsaying": 1477,
      "Ġreve": 1478,
      "Ġparen": 1479,
      "Ġshot": 1480,
      "Ġstart": 1481,
      "Ġ11": 1482,
      "Ġwithout": 1483,
      "Ġbuild": 1484,
      "ĠSund": 1485,
      "Ġproble": 1486,
      "Ġsuff": 1487,
      "idence": 1488,
      "Ġdesc": 1489,
      "Ġseason": 1490,
      "Ġold": 1491,
      "Ġrecord": 1492,
      "enn": 1493,
      "Ġago": 1494,
      "Ġinvol": 1495,
      "Ġcity": 1496,
      "ĠPresident": 1497,
      "the": 1498,
      "Ġopen": 1499,
      "Ġpast": 1500,
      "atic": 1501,
      "ially": 1502,
      "ĠSunday": 1503,
      "'ve": 1504,
      "Ġvictim": 1505,
      "ĠMin": 1506,
      "stem": 1507,
      "port": 1508,
      "Ġfire": 1509,
      "Ġsoc": 1510,
      "Ġhours": 1511,
      "Ġsomething": 1512,
      "Ġjob": 1513,
      "co": 1514,
      "ĠWest": 1515,
      "ats": 1516,
      "Ġoper": 1517,
      "Ġmod": 1518,
      "ĠMonday": 1519,
      "iversity": 1520,
      "ief": 1521,
      "ĠOne": 1522,
      "Ġlittle": 1523,
      "ended": 1524,
      "PD": 1525,
      "Ġstatement": 1526,
      "ror": 1527,
      "be": 1528,
      "Ġcomple": 1529,
      "ĠUK": 1530,
      "Ġasked": 1531,
      "ones": 1532,
      "Ġeach": 1533,
      "Ġhit": 1534,
      "Ġhum": 1535,
      "Ġwon": 1536,
      "ĠHar": 1537,
      "ĠMiss": 1538,
      "Ġtimes": 1539,
      "els": 1540,
      "ention": 1541,
      "Ġhard": 1542,
      "ising": 1543,
      "inal": 1544,
      "Ġacross": 1545,
      "ĠThere": 1546,
      "Ġquest": 1547,
      "ience": 1548,
      "uesday": 1549,
      "Ġwater": 1550,
      "Ġstand": 1551,
      "Ġfollowing": 1552,
      "ior": 1553,
      "ĠEurope": 1554,
      "ĠTuesday": 1555,
      "ĠCity": 1556,
      "Ġprom": 1557,
      "Ġclear": 1558,
      "cl": 1559,
      "Ġknown": 1560,
      "Ġmur": 1561,
      "aign": 1562,
      "Ġappe": 1563,
      "Ġdaughter": 1564,
      "Ġ0": 1565,
      "ready": 1566,
      "Ġable": 1567,
      "esp": 1568,
      "lier": 1569,
      "velop": 1570,
      "ogra": 1571,
      "Ġpictured": 1572,
      "erv": 1573,
      "row": 1574,
      "aul": 1575,
      "Ġbro": 1576,
      "aled": 1577,
      "rop": 1578,
      "ĠSe": 1579,
      "amed": 1580,
      "Ġcost": 1581,
      "gy": 1582,
      "ĠInd": 1583,
      "Ġarea": 1584,
      "ĠFriday": 1585,
      "Ġalong": 1586,
      "ying": 1587,
      "utes": 1588,
      "Ġsystem": 1589,
      "Ġofficials": 1590,
      "ĠThat": 1591,
      "Ġpos": 1592,
      "Ġgiven": 1593,
      "ĠAmerican": 1594,
      "Ġelect": 1595,
      "ĠWed": 1596,
      ",âĢĻ": 1597,
      "oke": 1598,
      "ĠAm": 1599,
      "cess": 1600,
      "Ġalleged": 1601,
      "Ġalready": 1602,
      "Ġmid": 1603,
      "Ġmark": 1604,
      "Ġalways": 1605,
      "Ġviol": 1606,
      "Ġcouple": 1607,
      "aid": 1608,
      "Ġdead": 1609,
      "ailed": 1610,
      "Ġob": 1611,
      "Ġdeal": 1612,
      "une": 1613,
      "ized": 1614,
      "ĠDavid": 1615,
      "ploy": 1616,
      "right": 1617,
      "Ġav": 1618,
      "ĠRuss": 1619,
      "ĠAd": 1620,
      "use": 1621,
      "reen": 1622,
      "Ġmembers": 1623,
      "iting": 1624,
      "ĠJan": 1625,
      "ATED": 1626,
      "Ġstri": 1627,
      "Ġtravel": 1628,
      "Ġinform": 1629,
      "ĠUPD": 1630,
      "Ġbusiness": 1631,
      "ajor": 1632,
      "ĠUPDATED": 1633,
      "eks": 1634,
      "ĠAustral": 1635,
      "Ġfact": 1636,
      "Ġdrug": 1637,
      "ĠGer": 1638,
      "Ġstru": 1639,
      "band": 1640,
      "Ġworking": 1641,
      "Ġfriends": 1642,
      "reet": 1643,
      "),": 1644,
      "Ġbelieve": 1645,
      "ĠHer": 1646,
      "Ġcoun": 1647,
      "Ġsaf": 1648,
      "aring": 1649,
      "Ġcampaign": 1650,
      "cent": 1651,
      "ards": 1652,
      "nesday": 1653,
      "overed": 1654,
      "rain": 1655,
      "ĠWednesday": 1656,
      "ection": 1657,
      "Ġadv": 1658,
      "ump": 1659,
      "ects": 1660,
      "BL": 1661,
      "Ġclose": 1662,
      "aun": 1663,
      "ĠPh": 1664,
      "Ġoutside": 1665,
      "Ġtell": 1666,
      "Ġ|": 1667,
      "ĠPe": 1668,
      "ified": 1669,
      "Ġhalf": 1670,
      "Ġconcer": 1671,
      "ISH": 1672,
      "Ġ30": 1673,
      "Ġcurrent": 1674,
      "af": 1675,
      "atter": 1676,
      "UBL": 1677,
      "Ġparents": 1678,
      "ISHED": 1679,
      "UBLISHED": 1680,
      "Ġmilitary": 1681,
      "ĠWhen": 1682,
      "ĠNorth": 1683,
      "Ġmeet": 1684,
      "ĠCo": 1685,
      "Ġstarted": 1686,
      "Ġ199": 1687,
      "Ġest": 1688,
      "Ġart": 1689,
      "Ġpower": 1690,
      "oor": 1691,
      "Ġdescrib": 1692,
      "Ġtaking": 1693,
      "Ġmor": 1694,
      "Ġrequ": 1695,
      "Ġincre": 1696,
      "ution": 1697,
      "ĠHis": 1698,
      "ept": 1699,
      "Ġtreat": 1700,
      "Ġfight": 1701,
      "ĠCol": 1702,
      "ĠGe": 1703,
      "ĠPUBLISHED": 1704,
      "aturday": 1705,
      "Ġless": 1706,
      "Ġevent": 1707,
      "ries": 1708,
      "Ġcaus": 1709,
      "Ġbecome": 1710,
      "cept": 1711,
      "ĠMs": 1712,
      "Ġearly": 1713,
      "Ġwhether": 1714,
      "Ġbehind": 1715,
      "Ġweeks": 1716,
      "Ġincident": 1717,
      "ĠAfter": 1718,
      "ĠFl": 1719,
      "ĠComm": 1720,
      "Ġdevelop": 1721,
      "ĠSaturday": 1722,
      "ĠWill": 1723,
      "Ġprof": 1724,
      "att": 1725,
      "iously": 1726,
      "ursday": 1727,
      "Ġjoin": 1728,
      "Ġseem": 1729,
      "Ġcele": 1730,
      "ians": 1731,
      "ĠThursday": 1732,
      "Ġdifferent": 1733,
      "Ġmom": 1734,
      "Ġheard": 1735,
      "Ġcer": 1736,
      "Ġmight": 1737,
      "ccess": 1738,
      "Ġseveral": 1739,
      "Ġgive": 1740,
      "ĠAb": 1741,
      "Ġlocal": 1742,
      "Ġmaking": 1743,
      "ester": 1744,
      "ming": 1745,
      "Ġwalk": 1746,
      "Ġhold": 1747,
      "rew": 1748,
      "Ġsmall": 1749,
      "pe": 1750,
      "ĠLeague": 1751,
      "Ġfore": 1752,
      "ĠSec": 1753,
      "Ġpress": 1754,
      "usband": 1755,
      "ĠCup": 1756,
      "less": 1757,
      "head": 1758,
      "Ġusing": 1759,
      "This": 1760,
      "ĠPro": 1761,
      "Ġthings": 1762,
      "Ġed": 1763,
      "ests": 1764,
      "Ġsecurity": 1765,
      "ained": 1766,
      "Ġlove": 1767,
      "Ġhist": 1768,
      "Ġview": 1769,
      "akes": 1770,
      "Ġ16": 1771,
      "Ġwanted": 1772,
      "uary": 1773,
      "Ġspokesman": 1774,
      "fic": 1775,
      "oon": 1776,
      "gram": 1777,
      "Ġleast": 1778,
      "Ġsold": 1779,
      "Ġconv": 1780,
      "Ġgun": 1781,
      "Ġdesign": 1782,
      "ars": 1783,
      "book": 1784,
      "Ġap": 1785,
      "Ġprison": 1786,
      "Ġannoun": 1787,
      "ĠMrs": 1788,
      "Ġsn": 1789,
      "ject": 1790,
      "uper": 1791,
      "Ġsaw": 1792,
      "Ġbook": 1793,
      "ators": 1794,
      "most": 1795,
      "ĠScroll": 1796,
      "Ġbetter": 1797,
      "Ġever": 1798,
      "Ġthreat": 1799,
      "anche": 1800,
      "ales": 1801,
      "eng": 1802,
      "ases": 1803,
      "BC": 1804,
      "Ġtalk": 1805,
      "Ġreleased": 1806,
      "Ġlost": 1807,
      "Ġmajor": 1808,
      "Ġjud": 1809,
      "ĠJu": 1810,
      "Ġmess": 1811,
      "Ġris": 1812,
      "way": 1813,
      "ĠAll": 1814,
      "Ġhusband": 1815,
      "ush": 1816,
      "Ġcrit": 1817,
      "secut": 1818,
      "Ġfront": 1819,
      "Ġel": 1820,
      "ĠHouse": 1821,
      "ĠMich": 1822,
      "ored": 1823,
      "ael": 1824,
      "eb": 1825,
      "Ġcut": 1826,
      "Ġtrying": 1827,
      "conom": 1828,
      "ĠDr": 1829,
      "Ġsing": 1830,
      "here": 1831,
      "Ġfull": 1832,
      "ĠStates": 1833,
      "Ġroom": 1834,
      "Ġtax": 1835,
      "Ġplayers": 1836,
      "Ġsum": 1837,
      "50": 1838,
      "Ġ14": 1839,
      "Ġfood": 1840,
      "Ġparty": 1841,
      "Ġ13": 1842,
      "Ġred": 1843,
      "my": 1844,
      "ĠCourt": 1845,
      "Ġbab": 1846,
      "Ġproper": 1847,
      "elt": 1848,
      "ĠTr": 1849,
      "Ġfur": 1850,
      "ator": 1851,
      "ically": 1852,
      "Ġconsid": 1853,
      "ĠEd": 1854,
      "Ġmain": 1855,
      "Ġmust": 1856,
      "ĠDec": 1857,
      "ĠBritain": 1858,
      "ĠAfric": 1859,
      "Ġ17": 1860,
      "Ġsuccess": 1861,
      "Ġpartic": 1862,
      "million": 1863,
      "ressed": 1864,
      "Ġcust": 1865,
      "ize": 1866,
      "gether": 1867,
      "Ġtogether": 1868,
      "istan": 1869,
      "Ġmedia": 1870,
      "Ġshows": 1871,
      "ĠJanuary": 1872,
      "Ġimport": 1873,
      "ev": 1874,
      "Ġshort": 1875,
      "ĠMail": 1876,
      "Ġ2011": 1877,
      "Ġfree": 1878,
      "Ġwrote": 1879,
      "Ġamong": 1880,
      "Ġofficers": 1881,
      "Ġorgan": 1882,
      "ĠUniversity": 1883,
      "Ġemer": 1884,
      "Ġwatch": 1885,
      "Ġprogram": 1886,
      "Ġbegan": 1887,
      "Ġlooking": 1888,
      "Ġchang": 1889,
      "of": 1890,
      "ium": 1891,
      "que": 1892,
      "Ġmurder": 1893,
      "Ġcelebr": 1894,
      "Ġpain": 1895,
      "ĠDep": 1896,
      "Ġname": 1897,
      "ĠGr": 1898,
      "ances": 1899,
      "Ġarrested": 1900,
      "Ġhimself": 1901,
      "wit": 1902,
      "let": 1903,
      "Ġsugg": 1904,
      "Ġfinal": 1905,
      "Ġlive": 1906,
      "echn": 1907,
      "Ġhot": 1908,
      "Ġearlier": 1909,
      "ĠSyri": 1910,
      "gin": 1911,
      "ĠCr": 1912,
      "Ġshoot": 1913,
      "cher": 1914,
      "go": 1915,
      "ÂłÂł": 1916,
      "Ġocc": 1917,
      "Ġdecision": 1918,
      "Ġchange": 1919,
      "lin": 1920,
      "Ġmorning": 1921,
      "Ġattem": 1922,
      "ĠIf": 1923,
      "ashing": 1924,
      "str": 1925,
      "enal": 1926,
      "Ġtre": 1927,
      "Ġdra": 1928,
      "Ġinformation": 1929,
      "alif": 1930,
      "Ġclaims": 1931,
      "Ġstay": 1932,
      "urch": 1933,
      "Ġwa": 1934,
      "left": 1935,
      "Ġstaff": 1936,
      "Ġlevel": 1937,
      "Ġclaimed": 1938,
      "acy": 1939,
      "Ġminutes": 1940,
      "Ġpoint": 1941,
      "Ġheld": 1942,
      "Ġenough": 1943,
      "Ġinvestigation": 1944,
      "esterday": 1945,
      "Ġdi": 1946,
      "ocr": 1947,
      "Ġappro": 1948,
      "Ġgrow": 1949,
      "aily": 1950,
      "Ġeconom": 1951,
      "Ġonce": 1952,
      "Ġrul": 1953,
      "Ġwhy": 1954,
      "Ġrevealed": 1955,
      "ĠHowever": 1956,
      "Ġarri": 1957,
      "ĠFace": 1958,
      "ĠCent": 1959,
      "Ġident": 1960,
      "uge": 1961,
      "ern": 1962,
      "Ġpriv": 1963,
      "Ġland": 1964,
      "gest": 1965,
      "Ġbecame": 1966,
      "Ġcor": 1967,
      "esc": 1968,
      "Ġdone": 1969,
      "ĠSept": 1970,
      "ĠYou": 1971,
      "âĢĻ.": 1972,
      "Ġauthorities": 1973,
      "Ġheart": 1974,
      "ler": 1975,
      "Ġdist": 1976,
      "Ġread": 1977,
      "ĠIr": 1978,
      "Ġform": 1979,
      "Ġlarge": 1980,
      "Ġground": 1981,
      "Ġey": 1982,
      "Ġcompl": 1983,
      "allen": 1984,
      "room": 1985,
      "ology": 1986,
      "mber": 1987,
      "Ġlaun": 1988,
      "Ġevidence": 1989,
      "Ġdog": 1990,
      "ĠFacebook": 1991,
      "ĠOff": 1992,
      "Ġdoing": 1993,
      "ĠGeor": 1994,
      "aced": 1995,
      "ĠPar": 1996,
      "ech": 1997,
      "ature": 1998,
      "Ġcour": 1999,
      "ences": 2000,
      "ĠCon": 2001,
      "wards": 2002,
      "Ġkid": 2003,
      "ille": 2004,
      "Ġgoal": 2005,
      "ĠDem": 2006,
      "Ġvisit": 2007,
      "ably": 2008,
      "Ġothers": 2009,
      "Ġfootball": 2010,
      "lish": 2011,
      "Ġwear": 2012,
      "Ġhope": 2013,
      "ĠSeptember": 2014,
      "Ġhom": 2015,
      "Ġblack": 2016,
      "Ġgetting": 2017,
      "den": 2018,
      "reed": 2019,
      "ops": 2020,
      "ford": 2021,
      "anchester": 2022,
      "ĠOct": 2023,
      "Ġdeb": 2024,
      "Ġcommit": 2025,
      "Ġdoct": 2026,
      "ovember": 2027,
      "ĠRepublic": 2028,
      "aut": 2029,
      "ĠNational": 2030,
      "ung": 2031,
      "ai": 2032,
      "ĠGu": 2033,
      "stand": 2034,
      "Ġeas": 2035,
      "bed": 2036,
      "Ġexpected": 2037,
      "Ġthird": 2038,
      "Ġadmit": 2039,
      "ĠNovember": 2040,
      "Ġeng": 2041,
      "cil": 2042,
      "There": 2043,
      "ey": 2044,
      "ead": 2045,
      "aving": 2046,
      "though": 2047,
      "Ġphone": 2048,
      "ĠDecember": 2049,
      "ĠAug": 2050,
      "Ġinterview": 2051,
      "Ġrelations": 2052,
      "ald": 2053,
      "Ġthing": 2054,
      "aster": 2055,
      "Ġban": 2056,
      "Ġlikely": 2057,
      "Ġalmost": 2058,
      "Ġreturn": 2059,
      "Ġbreak": 2060,
      "ĠOctober": 2061,
      "Ġsite": 2062,
      "Ġhappened": 2063,
      "Ġbar": 2064,
      "ream": 2065,
      "ole": 2066,
      "Ġlives": 2067,
      "ee": 2068,
      "Ġservice": 2069,
      "ĠMarch": 2070,
      "ĠManchester": 2071,
      "Ġple": 2072,
      "Ġclass": 2073,
      "Ġide": 2074,
      "Ġdam": 2075,
      "ighb": 2076,
      "Ġcompet": 2077,
      "Ġsocial": 2078,
      "Ġseven": 2079,
      "ds": 2080,
      "Ġcontrol": 2081,
      "ĠAugust": 2082,
      "Ġwrit": 2083,
      "Ġtar": 2084,
      "Ġfut": 2085,
      "ĠGerman": 2086,
      "ĠCount": 2087,
      "Ġpolic": 2088,
      "Ġlo": 2089,
      "ĠEl": 2090,
      "Ġimportant": 2091,
      "ĠJune": 2092,
      "Ġtechn": 2093,
      "Ġcomes": 2094,
      "mp": 2095,
      "Ġfell": 2096,
      "ission": 2097,
      "Ġpot": 2098,
      "sel": 2099,
      "Ġfun": 2100,
      "Ġproduc": 2101,
      "aly": 2102,
      "Ġoften": 2103,
      "ĠMan": 2104,
      "ĠWilliam": 2105,
      "ĠMichael": 2106,
      "ĠNo": 2107,
      "Ġpolitical": 2108,
      "ox": 2109,
      "Ġeight": 2110,
      "Ġroad": 2111,
      "idge": 2112,
      "ĠWar": 2113,
      "Ġage": 2114,
      "Ġhuman": 2115,
      "dle": 2116,
      "ĠAcc": 2117,
      "Ġlist": 2118,
      "Ġbrother": 2119,
      "They": 2120,
      "urg": 2121,
      "Ġden": 2122,
      "Ġ25": 2123,
      "ring": 2124,
      "oci": 2125,
      "aper": 2126,
      "Ġstrong": 2127,
      "Ġinternational": 2128,
      "lam": 2129,
      "omb": 2130,
      "Ġmatch": 2131,
      "stit": 2132,
      "Ġoffice": 2133,
      "Ġinside": 2134,
      "Ġline": 2135,
      "Ġdue": 2136,
      "Ġball": 2137,
      "Ġtried": 2138,
      "hern": 2139,
      "Ġwebs": 2140,
      "Ġfurther": 2141,
      "Ġlate": 2142,
      "Ġdesp": 2143,
      "ef": 2144,
      "ides": 2145,
      "sp": 2146,
      "Ġtown": 2147,
      "Ġspent": 2148,
      "ches": 2149,
      "Ġexecut": 2150,
      "Ġphotogra": 2151,
      "Ġwind": 2152,
      "ĠUS": 2153,
      "Ġaccused": 2154,
      "Ġinvolved": 2155,
      "Ġhop": 2156,
      "Ġfuture": 2157,
      "Ġfans": 2158,
      "Ġmus": 2159,
      "Ġ2010": 2160,
      "ictured": 2161,
      "Ġspecial": 2162,
      "anger": 2163,
      "Ġterror": 2164,
      "ients": 2165,
      "Ġfig": 2166,
      "sea": 2167,
      "itions": 2168,
      "Ġfund": 2169,
      "ĠJuly": 2170,
      "Ġquestion": 2171,
      "Ġcharges": 2172,
      "ĠSer": 2173,
      "pril": 2174,
      "Ġtrial": 2175,
      "Ġyesterday": 2176,
      "ourn": 2177,
      "ective": 2178,
      "ĠChar": 2179,
      "ĠPark": 2180,
      "ĠAss": 2181,
      "Ġdescribed": 2182,
      "Ġanim": 2183,
      "Ġemploy": 2184,
      "ĠPal": 2185,
      "Ġnational": 2186,
      "Ġleave": 2187,
      "Ġyet": 2188,
      "Ġreceived": 2189,
      "ails": 2190,
      "ĠState": 2191,
      "itness": 2192,
      "Ġgrand": 2193,
      "ĠSo": 2194,
      "Ġconfir": 2195,
      "ĠApril": 2196,
      "Ġequ": 2197,
      "Ġbelieved": 2198,
      "ĠOr": 2199,
      "raz": 2200,
      "ortun": 2201,
      "par": 2202,
      "Ġled": 2203,
      "Ġhost": 2204,
      "Ġant": 2205,
      "ape": 2206,
      "irth": 2207,
      "ocked": 2208,
      "Ġbaby": 2209,
      "aps": 2210,
      "Ġbit": 2211,
      "Ġfilm": 2212,
      "Ġprosecut": 2213,
      "Ġcommunity": 2214,
      "Ġprocess": 2215,
      "uff": 2216,
      "Ġgave": 2217,
      "ficult": 2218,
      "Ġcomment": 2219,
      "for": 2220,
      "ana": 2221,
      "Ġplayed": 2222,
      "Ġsomeone": 2223,
      "ĠChina": 2224,
      "Ġspot": 2225,
      "work": 2226,
      "igr": 2227,
      "Ġcolle": 2228,
      "ped": 2229,
      "ĠIntern": 2230,
      "ĠAng": 2231,
      "uted": 2232,
      "ories": 2233,
      "Ġdoesn": 2234,
      "Ġbring": 2235,
      "Ġmanager": 2236,
      "Ġpossible": 2237,
      "raq": 2238,
      "Ġsuggest": 2239,
      "Ġwithin": 2240,
      "Ġorder": 2241,
      "ĠHam": 2242,
      "Ġliving": 2243,
      "orney": 2244,
      "ĠSm": 2245,
      "Ġ24": 2246,
      "ampions": 2247,
      "aur": 2248,
      "Ġlear": 2249,
      "Ġofficer": 2250,
      "Ġonline": 2251,
      "Ġtarget": 2252,
      "Ġneighb": 2253,
      "Ġbad": 2254,
      "friend": 2255,
      "Ġlegal": 2256,
      "witter": 2257,
      "Ġscene": 2258,
      "ening": 2259,
      "Ġinterest": 2260,
      "Ġkind": 2261,
      "Ġdifficult": 2262,
      "ilar": 2263,
      "ocum": 2264,
      "ĠIraq": 2265,
      "Ġaction": 2266,
      "ought": 2267,
      "Ġdou": 2268,
      "ivil": 2269,
      "reme": 2270,
      "ĠJust": 2271,
      "ĠRo": 2272,
      "Ġdespite": 2273,
      "icle": 2274,
      "Ġsure": 2275,
      "Ġ50": 2276,
      "Ġlight": 2277,
      "ns": 2278,
      "Ġactiv": 2279,
      "not": 2280,
      "Ġblood": 2281,
      "ipp": 2282,
      "Ġfamil": 2283,
      "ĠJames": 2284,
      "Ġstory": 2285,
      "ĠTV": 2286,
      "Ġ21": 2287,
      "Ġrisk": 2288,
      "ĠDepartment": 2289,
      "ented": 2290,
      "vices": 2291,
      "ĠJack": 2292,
      "inc": 2293,
      "yle": 2294,
      "Ġsol": 2295,
      "Ġty": 2296,
      "Ġtw": 2297,
      "Ġturn": 2298,
      "ĠPaul": 2299,
      "Ġleaders": 2300,
      "ĠAmerica": 2301,
      "ruct": 2302,
      "Ġhistory": 2303,
      "Ġturned": 2304,
      "ederal": 2305,
      "Ġmot": 2306,
      "Ġanything": 2307,
      "ĠFeb": 2308,
      "Ġforward": 2309,
      "ask": 2310,
      "Ġbed": 2311,
      "Ġwasn": 2312,
      "Ġmoment": 2313,
      "lex": 2314,
      "ĠMinister": 2315,
      "ĠTwitter": 2316,
      "Ġ2014": 2317,
      "ĠGl": 2318,
      "Ġbene": 2319,
      "ached": 2320,
      "ĠCounty": 2321,
      "Ġsour": 2322,
      "ĠMart": 2323,
      "itive": 2324,
      "Ġmean": 2325,
      "ĠMe": 2326,
      "Ġcharged": 2327,
      "ensive": 2328,
      "Ġdirector": 2329,
      "ruary": 2330,
      "Ġteen": 2331,
      "Ġfall": 2332,
      "Ġcomplete": 2333,
      "ills": 2334,
      "ashington": 2335,
      "arm": 2336,
      "Ġpub": 2337,
      "iber": 2338,
      "ĠNews": 2339,
      "ety": 2340,
      "Ġgra": 2341,
      "Ġcontrib": 2342,
      "pool": 2343,
      "Ġquick": 2344,
      "ĠFebruary": 2345,
      "off": 2346,
      "joy": 2347,
      "Ġnation": 2348,
      "irc": 2349,
      "rench": 2350,
      "Ġbirth": 2351,
      "Ġrelationship": 2352,
      "Ġord": 2353,
      "Ġtraining": 2354,
      "Ġwebsite": 2355,
      "retary": 2356,
      "Ġnet": 2357,
      "ĠSen": 2358,
      "Ġstep": 2359,
      "Ġrepl": 2360,
      "Ġbuilding": 2361,
      "Ġworked": 2362,
      "Ġrespons": 2363,
      "Ġcoming": 2364,
      "Ġste": 2365,
      "duct": 2366,
      "Ġreports": 2367,
      "Ġappeared": 2368,
      "ential": 2369,
      "gency": 2370,
      "selves": 2371,
      "ĠSte": 2372,
      "aliforn": 2373,
      "ĠWhite": 2374,
      "Ġahead": 2375,
      "uation": 2376,
      "20": 2377,
      "me": 2378,
      "If": 2379,
      "Ġplayer": 2380,
      "Ġcapt": 2381,
      "iding": 2382,
      "Ġcarry": 2383,
      "ĠEm": 2384,
      "pictured": 2385,
      "eck": 2386,
      "rought": 2387,
      "Ġ100": 2388,
      "attle": 2389,
      "erry": 2390,
      "ging": 2391,
      "Ġsearch": 2392,
      "ĠAccording": 2393,
      "cted": 2394,
      "Ġmass": 2395,
      "ĠWhile": 2396,
      "Ġleader": 2397,
      "Ġ198": 2398,
      "int": 2399,
      "ination": 2400,
      "Ġdocum": 2401,
      "ĠCaliforn": 2402,
      "Ġadmitted": 2403,
      "Ġimm": 2404,
      "Ġcourse": 2405,
      "Ġrights": 2406,
      "isted": 2407,
      "Ġexc": 2408,
      "ĠRoy": 2409,
      "lo": 2410,
      "Ġhor": 2411,
      "Ġvot": 2412,
      "Ġnothing": 2413,
      "ĠKore": 2414,
      "You": 2415,
      "Ġmag": 2416,
      "Ġseries": 2417,
      "Ġproblem": 2418,
      "Ġveh": 2419,
      "**": 2420,
      "Ġcontinue": 2421,
      "ĠEar": 2422,
      "ĠEx": 2423,
      "ray": 2424,
      "Ġchief": 2425,
      "ĠMor": 2426,
      "Ġsummer": 2427,
      "ĠPl": 2428,
      "Ġrole": 2429,
      "acher": 2430,
      "ows": 2431,
      "Ġshowed": 2432,
      "ousands": 2433,
      "Ġmiles": 2434,
      "Ġ40": 2435,
      "She": 2436,
      "por": 2437,
      "time": 2438,
      "Ġwhose": 2439,
      "Ġplaying": 2440,
      "oring": 2441,
      "Ġwrong": 2442,
      "ĠRom": 2443,
      "Ġcountries": 2444,
      "Ġi": 2445,
      "ĠAir": 2446,
      "elling": 2447,
      "Ġcamer": 2448,
      "Ġhig": 2449,
      "pted": 2450,
      "medi": 2451,
      "Ġenjoy": 2452,
      "Ġhol": 2453,
      "In": 2454,
      "Ġsqu": 2455,
      "Ġannounced": 2456,
      "',": 2457,
      "Ġprop": 2458,
      "Ġtem": 2459,
      "ĠCalifornia": 2460,
      "Ġsoon": 2461,
      "Ġtour": 2462,
      "ĠDaily": 2463,
      "ounds": 2464,
      "Ġmedical": 2465,
      "icted": 2466,
      "Ġarg": 2467,
      "Ġissue": 2468,
      "Ġcertain": 2469,
      "Ġcover": 2470,
      "Ġpick": 2471,
      "read": 2472,
      "gress": 2473,
      "Ġfav": 2474,
      "ades": 2475,
      "Ġdeter": 2476,
      "ession": 2477,
      "ĠChel": 2478,
      "Ġcustom": 2479,
      "Ġinsp": 2480,
      "ither": 2481,
      "Ġrepres": 2482,
      "ĠAustralia": 2483,
      "ault": 2484,
      "Ġguil": 2485,
      "ĠGo": 2486,
      "unt": 2487,
      "order": 2488,
      "Ġpersonal": 2489,
      "Ġknew": 2490,
      "ĠSam": 2491,
      "ots": 2492,
      "Ġstudy": 2493,
      "Ġlim": 2494,
      "ĠWith": 2495,
      "Ġill": 2496,
      "Ġlow": 2497,
      "30": 2498,
      "ĠEuropean": 2499,
      "aces": 2500,
      "Ġstudents": 2501,
      "rael": 2502,
      "Ġforced": 2503,
      "aught": 2504,
      "Ġnearly": 2505,
      "ults": 2506,
      "Ġhands": 2507,
      "Ġhuge": 2508,
      "ĠFrench": 2509,
      "Ġmarket": 2510,
      "Ġpopular": 2511,
      "ata": 2512,
      "Ġtreatment": 2513,
      "ĠApp": 2514,
      "Ġsen": 2515,
      "Ġrecently": 2516,
      "ding": 2517,
      "wh": 2518,
      "Wh": 2519,
      "Ġchallen": 2520,
      "ĠDemocr": 2521,
      "Ġgener": 2522,
      "Ġshop": 2523,
      "Ġfelt": 2524,
      "Ġvictims": 2525,
      "Ġlooked": 2526,
      "Ġ22": 2527,
      "ĠMo": 2528,
      "ference": 2529,
      "ĠSw": 2530,
      "Ġwhite": 2531,
      "Ġdefend": 2532,
      "ĠCan": 2533,
      "weet": 2534,
      "ghan": 2535,
      "Ġcaused": 2536,
      "ery": 2537,
      "Ġtrad": 2538,
      "Ġmakes": 2539,
      "Ġplans": 2540,
      "osing": 2541,
      "Ġfear": 2542,
      "Ġ2009": 2543,
      "Ġtot": 2544,
      "Ġdecided": 2545,
      "ĠâĢĶ": 2546,
      "omp": 2547,
      "Ġri": 2548,
      "Ġproblems": 2549,
      "Ġenc": 2550,
      ").": 2551,
      "avy": 2552,
      "Ġsurv": 2553,
      "ĠLast": 2554,
      "Ġcivil": 2555,
      "iers": 2556,
      "Ġpicture": 2557,
      "Ġresident": 2558,
      "ĠMil": 2559,
      "Ġcancer": 2560,
      "ino": 2561,
      "ĠWashington": 2562,
      "Ġstore": 2563,
      "'ll": 2564,
      "ico": 2565,
      "ĠNe": 2566,
      "iec": 2567,
      "ron": 2568,
      "na": 2569,
      "iverpool": 2570,
      "Ġforces": 2571,
      "Ġval": 2572,
      "Ġsimilar": 2573,
      "'d": 2574,
      "Ġmeans": 2575,
      "Ġlat": 2576,
      "ournal": 2577,
      "Ġcondition": 2578,
      "Ġresult": 2579,
      "ĠIsrael": 2580,
      "Ġorig": 2581,
      "Ġbrought": 2582,
      "ulation": 2583,
      "Ġjudge": 2584,
      "Ġimmedi": 2585,
      "Ġdest": 2586,
      "Ġlif": 2587,
      "sy": 2588,
      "mas": 2589,
      "ĠWhat": 2590,
      "iety": 2591,
      "Ġcho": 2592,
      "rove": 2593,
      "Ġpair": 2594,
      "lection": 2595,
      "ĠLab": 2596,
      "Ġstrik": 2597,
      "ĠCamer": 2598,
      "ĠMad": 2599,
      "lim": 2600,
      "Ġparticular": 2601,
      "eth": 2602,
      "uel": 2603,
      "enced": 2604,
      "ĠSome": 2605,
      "Ġstrugg": 2606,
      "Ġfeat": 2607,
      "sw": 2608,
      "ĠRober": 2609,
      "field": 2610,
      "aded": 2611,
      "Ġdisapp": 2612,
      "sc": 2613,
      "Ġsuper": 2614,
      "Ġserious": 2615,
      "Ġcareer": 2616,
      "ona": 2617,
      "ĠAfghan": 2618,
      "Ġchance": 2619,
      "Ġguilty": 2620,
      "ips": 2621,
      "ĠLiverpool": 2622,
      "Ġfamilies": 2623,
      "Ġallegedly": 2624,
      "Ġer": 2625,
      "ministr": 2626,
      "Ġrad": 2627,
      "Ġprivate": 2628,
      "lear": 2629,
      "ĠIslam": 2630,
      "ĠChelsea": 2631,
      "ĠKing": 2632,
      "Ġcurrently": 2633,
      "Ġmoved": 2634,
      "Ġcoll": 2635,
      "lev": 2636,
      "ĠEast": 2637,
      "Ġtro": 2638,
      "Ġinit": 2639,
      "Ġpaid": 2640,
      "Ġgames": 2641,
      "Ġpark": 2642,
      "Ġlatest": 2643,
      "Ġbur": 2644,
      "Ġ23": 2645,
      "Ġmember": 2646,
      "Ġeverything": 2647,
      "Ġ...": 2648,
      "ined": 2649,
      "uries": 2650,
      "ĠPrem": 2651,
      "Ġposted": 2652,
      "Ġaccess": 2653,
      "kn": 2654,
      "ĠAngel": 2655,
      "ĠRich": 2656,
      "Ġviolence": 2657,
      "ĠMark": 2658,
      "ett": 2659,
      "ains": 2660,
      "Ġweekend": 2661,
      "Ġmov": 2662,
      "Ġcrim": 2663,
      "Ġsexual": 2664,
      "ky": 2665,
      "Ġexperience": 2666,
      "Ġprob": 2667,
      "Ġcases": 2668,
      "ĠHol": 2669,
      "Ġgirls": 2670,
      "Ġesc": 2671,
      "lished": 2672,
      "Ġfoc": 2673,
      "Ġanyone": 2674,
      "Ġtit": 2675,
      "ĠMed": 2676,
      "Ġthemselves": 2677,
      "fully": 2678,
      "undred": 2679,
      "wood": 2680,
      "Ġunderstand": 2681,
      "yn": 2682,
      "ĠMid": 2683,
      "ida": 2684,
      "ara": 2685,
      "Ġremains": 2686,
      "Ġsuffered": 2687,
      "umb": 2688,
      "Ġboard": 2689,
      "Ġthousands": 2690,
      "asing": 2691,
      "Ġforce": 2692,
      "Ġaccount": 2693,
      "ental": 2694,
      "ĠPhil": 2695,
      "Ġweap": 2696,
      "ĠIran": 2697,
      "Ġinclude": 2698,
      "Ġprep": 2699,
      "ĠAlex": 2700,
      "Ġtrack": 2701,
      "Ġfailed": 2702,
      "Ġlawy": 2703,
      "ĠGeorge": 2704,
      "Ġrunning": 2705,
      "Ġaccident": 2706,
      "ĠRob": 2707,
      "orman": 2708,
      "ĠQue": 2709,
      "Ġpri": 2710,
      "Ġsle": 2711,
      "Ġproperty": 2712,
      "Ġbenef": 2713,
      "Ġ[": 2714,
      "Ġhappy": 2715,
      "ĠFrance": 2716,
      "ilt": 2717,
      "ĠDan": 2718,
      "Ġaut": 2719,
      "ibility": 2720,
      "Ġnamed": 2721,
      "Ġcause": 2722,
      "itch": 2723,
      "Ġhearing": 2724,
      "ption": 2725,
      "aged": 2726,
      "Ġmeas": 2727,
      "ĠPat": 2728,
      "Ġ2008": 2729,
      "ĠSyria": 2730,
      "ĠMus": 2731,
      "lying": 2732,
      "Ġtrip": 2733,
      "ĠChristmas": 2734,
      "Ġfederal": 2735,
      "But": 2736,
      "ĠMcC": 2737,
      "Ġbeat": 2738,
      "Ġattacks": 2739,
      "Ġneeded": 2740,
      "Ġdanger": 2741,
      "cast": 2742,
      "ivid": 2743,
      "...": 2744,
      "Ġrather": 2745,
      "cel": 2746,
      "Ġactually": 2747,
      "irt": 2748,
      "reg": 2749,
      "Ġrace": 2750,
      "Ġallowed": 2751,
      "ij": 2752,
      "raft": 2753,
      "Ġnine": 2754,
      "Ġsafety": 2755,
      "Ġexpect": 2756,
      "atives": 2757,
      "Ġrespond": 2758,
      "ĠSch": 2759,
      "Ġdiscovered": 2760,
      "ĠCor": 2761,
      "ping": 2762,
      "Ġflight": 2763,
      "Ġsuppor": 2764,
      "Ġresearch": 2765,
      "Ġidea": 2766,
      "Ġcirc": 2767,
      "ĠCameron": 2768,
      "Ġbased": 2769,
      "10": 2770,
      "Ġmissing": 2771,
      "oid": 2772,
      "Ġdrink": 2773,
      "ners": 2774,
      "ĠPremier": 2775,
      "Ġleaving": 2776,
      "Ġarrived": 2777,
      "Ġavail": 2778,
      "ĠBrown": 2779,
      "Ġmeeting": 2780,
      "Ġneg": 2781,
      "Ġplane": 2782,
      "ently": 2783,
      "iron": 2784,
      "back": 2785,
      "Ġcomments": 2786,
      "Ġtal": 2787,
      "Ġspeak": 2788,
      "uty": 2789,
      "Ġsafe": 2790,
      "Ġmessage": 2791,
      "hood": 2792,
      "Ġhelped": 2793,
      "Ġpercent": 2794,
      "EO": 2795,
      "Ġindust": 2796,
      "Ġhon": 2797,
      "Ġfail": 2798,
      "Ġ26": 2799,
      "Ġsituation": 2800,
      "Ġself": 2801,
      "Ġcreat": 2802,
      "isc": 2803,
      "ston": 2804,
      "ze": 2805,
      "ese": 2806,
      "Ġcritic": 2807,
      "Ġbank": 2808,
      "Ġshooting": 2809,
      "Ġmarried": 2810,
      "ĠSu": 2811,
      "Ġeveryone": 2812,
      "Ġgone": 2813,
      "Ġpatients": 2814,
      "ĠBer": 2815,
      "imate": 2816,
      "itional": 2817,
      "ĠTra": 2818,
      "ĠMal": 2819,
      "like": 2820,
      "ises": 2821,
      "ease": 2822,
      "uce": 2823,
      "Ġcrime": 2824,
      "Ġspace": 2825,
      "Ġcross": 2826,
      "Ġcouldn": 2827,
      "Ġcharge": 2828,
      "Ġreason": 2829,
      "Ġvol": 2830,
      "Ġdeep": 2831,
      "ĠX": 2832,
      "Ġmusic": 2833,
      "Ġworkers": 2834,
      "Ġround": 2835,
      "ĠBBC": 2836,
      "Ġlooks": 2837,
      "ĠMur": 2838,
      "ĠAfrica": 2839,
      "iod": 2840,
      "Ġkilling": 2841,
      "Ġdiv": 2842,
      "ĠNow": 2843,
      "Ġattorney": 2844,
      "bo": 2845,
      "Ġlaws": 2846,
      "Ġwhole": 2847,
      "ĠMex": 2848,
      "form": 2849,
      "Ġpract": 2850,
      "Ġdiscuss": 2851,
      "Ġareas": 2852,
      "ĠFlor": 2853,
      "Ġ27": 2854,
      "riage": 2855,
      "Ġstation": 2856,
      "yan": 2857,
      "ĠBen": 2858,
      "acted": 2859,
      "ality": 2860,
      "Ġconn": 2861,
      "ĠBo": 2862,
      "Ġfem": 2863,
      "ashed": 2864,
      "rup": 2865,
      "ergy": 2866,
      "Ġabs": 2867,
      "ĠWil": 2868,
      "Ġstudent": 2869,
      "Ġrelease": 2870,
      "Ġgroups": 2871,
      "Ġconfirmed": 2872,
      "iant": 2873,
      "Ġpun": 2874,
      "rid": 2875,
      "Ġservices": 2876,
      "ĠGover": 2877,
      "Ġmatter": 2878,
      "ĠRussia": 2879,
      "Ġwants": 2880,
      "Ġ197": 2881,
      "Ġavailable": 2882,
      "Ġneeds": 2883,
      "Ġsat": 2884,
      "body": 2885,
      "Ġbegin": 2886,
      "Ġcapital": 2887,
      "ĠSmith": 2888,
      "Ġpolicy": 2889,
      "lymp": 2890,
      "Ġdress": 2891,
      "Ġcand": 2892,
      "ĠTo": 2893,
      "Ġposition": 2894,
      "Ġpresent": 2895,
      "Ġcal": 2896,
      "ĠRes": 2897,
      "Ġens": 2898,
      "ĠRoyal": 2899,
      "ĠBro": 2900,
      "mon": 2901,
      "ogn": 2902,
      "Ġpoints": 2903,
      "hire": 2904,
      "ny": 2905,
      "Ġcheck": 2906,
      "Ġunc": 2907,
      "Ġissues": 2908,
      "iff": 2909,
      "Ġwitness": 2910,
      "Ġsurpr": 2911,
      "Ġdriver": 2912,
      "ĠPrime": 2913,
      "Ġlonger": 2914,
      "Ġimage": 2915,
      "Ġ28": 2916,
      "ma": 2917,
      "Ġworth": 2918,
      "ĠNot": 2919,
      "Ġabuse": 2920,
      "Ġsingle": 2921,
      "verage": 2922,
      "ĠInternational": 2923,
      "ĠOlymp": 2924,
      "Ġreturned": 2925,
      "Ġbuy": 2926,
      "ĠSan": 2927,
      "Ġopportun": 2928,
      "Ġemb": 2929,
      "Ġdev": 2930,
      "Ġcannot": 2931,
      "apan": 2932,
      "Ġimages": 2933,
      "Ġbill": 2934,
      "Ġbeaut": 2935,
      "Ġsister": 2936,
      "Ġbillion": 2937,
      "Ġsenior": 2938,
      "When": 2939,
      "Ġreach": 2940,
      "On": 2941,
      "Ġphoto": 2942,
      "tee": 2943,
      "Ġamb": 2944,
      "Ġphys": 2945,
      "Ġdriving": 2946,
      "Ġperform": 2947,
      "Ġinjuries": 2948,
      "epend": 2949,
      "Ġhotel": 2950,
      "Ġperiod": 2951,
      "ĠLu": 2952,
      "Ġprovide": 2953,
      "Ġkey": 2954,
      "ĠUk": 2955,
      "Ġten": 2956,
      "Ġwat": 2957,
      "Ġconst": 2958,
      "Ġlab": 2959,
      "Ġbas": 2960,
      "ĠArs": 2961,
      "Ġprotect": 2962,
      "Ġrac": 2963,
      "ken": 2964,
      "Ġloss": 2965,
      "Ġquite": 2966,
      "Ġleading": 2967,
      "Ġindivid": 2968,
      "de": 2969,
      "ĠLou": 2970,
      "icated": 2971,
      "Ġhowever": 2972,
      "arent": 2973,
      "Ġkept": 2974,
      "Ġattempt": 2975,
      "ĠBraz": 2976,
      "ĠHospital": 2977,
      "Ġdoor": 2978,
      "ĠRed": 2979,
      "key": 2980,
      "han": 2981,
      "che": 2982,
      "ert": 2983,
      "oura": 2984,
      "ĠMP": 2985,
      "ĠFlorida": 2986,
      "Ġcrow": 2987,
      "Ġpressure": 2988,
      "ĠEnglish": 2989,
      "Ġprofess": 2990,
      "Ġwearing": 2991,
      "Ġbox": 2992,
      "Ġnorm": 2993,
      "Ġhair": 2994,
      "ager": 2995,
      "alled": 2996,
      "oming": 2997,
      "ĠJapan": 2998,
      "Ġhundred": 2999,
      "ĠSchool": 3000,
      "ival": 3001,
      "acter": 3002,
      "itor": 3003,
      "ĠSim": 3004,
      "aker": 3005,
      "ĠChampions": 3006,
      "Ġstreet": 3007,
      "ĠCong": 3008,
      "uit": 3009,
      "Ġborn": 3010,
      "ĠHigh": 3011,
      "Ġz": 3012,
      "Ġproduct": 3013,
      "Ġanti": 3014,
      "ĠBrazil": 3015,
      "Ġfinanc": 3016,
      "Ġextra": 3017,
      "Ġfirm": 3018,
      "istrict": 3019,
      "Ġeduc": 3020,
      "ĠLabour": 3021,
      "urb": 3022,
      "gn": 3023,
      "ĠMartin": 3024,
      "pro": 3025,
      "ĠStreet": 3026,
      "onald": 3027,
      "ĠDay": 3028,
      "Ġsepar": 3029,
      "Ġcontinued": 3030,
      "Ġinfl": 3031,
      "Ġdoctors": 3032,
      "Ġdrugs": 3033,
      "Ġpictures": 3034,
      "Ġcentre": 3035,
      "Ġdom": 3036,
      "Ġcompan": 3037,
      "rey": 3038,
      "Ġpack": 3039,
      "hol": 3040,
      "ĠSecretary": 3041,
      "11": 3042,
      "Ġtakes": 3043,
      "Ġvar": 3044,
      "oint": 3045,
      "Ġcarried": 3046,
      "action": 3047,
      "Ġhear": 3048,
      "ĠMy": 3049,
      "ĠTwo": 3050,
      "Ġadministr": 3051,
      "Ġrock": 3052,
      "Ġcomb": 3053,
      "ift": 3054,
      "ĠFer": 3055,
      "Ġran": 3056,
      "ushed": 3057,
      "Ġcomplain": 3058,
      "ĠPak": 3059,
      "agn": 3060,
      "Ġalleg": 3061,
      "Ġele": 3062,
      "Ġrefer": 3063,
      "Ġcell": 3064,
      "Ġabove": 3065,
      "Ġfat": 3066,
      "Ġbehav": 3067,
      "ĠÂł": 3068,
      "Ġmat": 3069,
      "ola": 3070,
      "Ġinjured": 3071,
      "Ġregion": 3072,
      "Ġincluded": 3073,
      "Ġsurger": 3074,
      "onse": 3075,
      "Ġpiec": 3076,
      "Ġalthough": 3077,
      "eal": 3078,
      "cement": 3079,
      "ificant": 3080,
      "Ġcoach": 3081,
      "ris": 3082,
      "Ġcreated": 3083,
      "ĠScot": 3084,
      "Ġfeet": 3085,
      "Ġansw": 3086,
      "Ġglob": 3087,
      "Ġcaught": 3088,
      "Ġstra": 3089,
      "ĠRussian": 3090,
      "ĠCoun": 3091,
      "Ġsun": 3092,
      "Ġquickly": 3093,
      "oving": 3094,
      "play": 3095,
      "Ġassist": 3096,
      "Ġseek": 3097,
      "Ġbomb": 3098,
      "Ġvictory": 3099,
      "Ġwarned": 3100,
      "ĠAmericans": 3101,
      "Ġletter": 3102,
      "Ġaccept": 3103,
      "Ġreb": 3104,
      "oph": 3105,
      "ply": 3106,
      "Ġmind": 3107,
      "amb": 3108,
      "Ġdata": 3109,
      "Ġteacher": 3110,
      "phy": 3111,
      "urt": 3112,
      "Ġbiggest": 3113,
      "ashion": 3114,
      "ude": 3115,
      "Ġperforman": 3116,
      "Ġweight": 3117,
      "Ġdraw": 3118,
      "orter": 3119,
      "Ġvote": 3120,
      "ĠKen": 3121,
      "mar": 3122,
      "Ġchair": 3123,
      "Ġpred": 3124,
      "Ġnorth": 3125,
      "ify": 3126,
      "Ġcriminal": 3127,
      "ĠMore": 3128,
      "Ġstage": 3129,
      "Ġagency": 3130,
      "Ġmodel": 3131,
      "Ġforeign": 3132,
      "Ġdemand": 3133,
      "Ġcontributed": 3134,
      "Ġstorm": 3135,
      "iled": 3136,
      "ĠGen": 3137,
      "Ġwed": 3138,
      "Ġsurve": 3139,
      "ĠPakistan": 3140,
      "ĠScott": 3141,
      "Ġsal": 3142,
      "rovers": 3143,
      "chers": 3144,
      "Ġoffer": 3145,
      "Ġaverage": 3146,
      "Ġmob": 3147,
      "Ġfield": 3148,
      "ization": 3149,
      "Ġcrash": 3150,
      "Ġtru": 3151,
      "Ġsouth": 3152,
      "Ġentire": 3153,
      "Ġstates": 3154,
      "Ġinjury": 3155,
      "Ġpage": 3156,
      "Ġtotal": 3157,
      "ĠIS": 3158,
      "inese": 3159,
      "Ġelection": 3160,
      "engers": 3161,
      "ĠTe": 3162,
      "Ġprevious": 3163,
      "Ġworks": 3164,
      "ugh": 3165,
      "ĠAssoci": 3166,
      "espite": 3167,
      "Ġjournal": 3168,
      "Ġport": 3169,
      "ĠTex": 3170,
      "roy": 3171,
      "Ġimmigr": 3172,
      "Ġhomes": 3173,
      "Ġnon": 3174,
      "oul": 3175,
      "Ġresc": 3176,
      "erc": 3177,
      "Ġren": 3178,
      "Ġ29": 3179,
      "Ġdisease": 3180,
      "Ġinstead": 3181,
      "urning": 3182,
      "Ġboss": 3183,
      "Ġsource": 3184,
      "Ġdisp": 3185,
      "Ġpotential": 3186,
      "ĠSir": 3187,
      "Ġfit": 3188,
      "Ġlaunched": 3189,
      "Ġmult": 3190,
      "Ġimmediately": 3191,
      "ander": 3192,
      "Ġcalls": 3193,
      "oper": 3194,
      "Ġcult": 3195,
      "lands": 3196,
      "Ġcamera": 3197,
      "ica": 3198,
      "ique": 3199,
      "Ġvill": 3200,
      "Ġrob": 3201,
      "ĠVict": 3202,
      "Ġbattle": 3203,
      "Ġsentence": 3204,
      "Ġgoals": 3205,
      "Ġexecutive": 3206,
      "night": 3207,
      "Ġesp": 3208,
      "ĠPrince": 3209,
      "Ġeye": 3210,
      "ID": 3211,
      "aves": 3212,
      "ĠGermany": 3213,
      "Ġresponse": 3214,
      "inary": 3215,
      "ada": 3216,
      "Ġjail": 3217,
      "Ġprice": 3218,
      "oo": 3219,
      "berg": 3220,
      "Ġrepresent": 3221,
      "Ġfamous": 3222,
      "Ġgiving": 3223,
      "Ġfighting": 3224,
      "Ġmarriage": 3225,
      "Ġkids": 3226,
      "pm": 3227,
      "Ġpreviously": 3228,
      "ĠBlack": 3229,
      "Ġattention": 3230,
      "Ġ2007": 3231,
      "Ġ196": 3232,
      "ecially": 3233,
      "Ġcred": 3234,
      "ability": 3235,
      "Ġregular": 3236,
      "estern": 3237,
      "Ġshare": 3238,
      "My": 3239,
      "Ġbag": 3240,
      "Ġgeneral": 3241,
      "Ġsil": 3242,
      "ample": 3243,
      "ees": 3244,
      "Ġisn": 3245,
      "Ġassault": 3246,
      "Ġbrain": 3247,
      "Ġlink": 3248,
      "oes": 3249,
      "Ġexam": 3250,
      "ĠClin": 3251,
      "Ġphotos": 3252,
      "emy": 3253,
      "ĠJud": 3254,
      "ĠChinese": 3255,
      "ps": 3256,
      "onstr": 3257,
      "Ġextreme": 3258,
      "Ġdoub": 3259,
      "ĠAustralian": 3260,
      "ĠPart": 3261,
      "Ġcommon": 3262,
      "Ġsurgery": 3263,
      "ĠGovernment": 3264,
      "Ġ60": 3265,
      "Ġcrew": 3266,
      "Ġscient": 3267,
      "Ġoppos": 3268,
      "irst": 3269,
      "Ġtrou": 3270,
      "Ġvehicle": 3271,
      "illed": 3272,
      "Ġpoll": 3273,
      "shire": 3274,
      "viron": 3275,
      "Ġtelev": 3276,
      "ĠTexas": 3277,
      "vert": 3278,
      "inks": 3279,
      "Ġrepe": 3280,
      "Ġcontact": 3281,
      "Ġusers": 3282,
      "ode": 3283,
      "ĠApple": 3284,
      "Ġowner": 3285,
      "Ġhour": 3286,
      "ĠRichard": 3287,
      "Ġpret": 3288,
      "uk": 3289,
      "Ġspoke": 3290,
      "ĠTur": 3291,
      "yl": 3292,
      "rab": 3293,
      "Ġtechnology": 3294,
      "Ġsleep": 3295,
      "ĠBy": 3296,
      "Ġrecogn": 3297,
      "ĠAfghanistan": 3298,
      "ider": 3299,
      "Ġminister": 3300,
      "ecess": 3301,
      "Ġreview": 3302,
      "Ġrefused": 3303,
      "ĠChris": 3304,
      "Ġfollowed": 3305,
      "Ġcomput": 3306,
      "Ġprobably": 3307,
      "Ġsignificant": 3308,
      "Ġbuilt": 3309,
      "ya": 3310,
      "ĠArsenal": 3311,
      "Ġconditions": 3312,
      "Ġlived": 3313,
      "Ġeither": 3314,
      "Ġhous": 3315,
      "ĠRepublican": 3316,
      "ĠPer": 3317,
      "Ġcompanies": 3318,
      "ule": 3319,
      "Ġresidents": 3320,
      "Ġdenied": 3321,
      "Ġaddress": 3322,
      "Ġconference": 3323,
      "ĠHealth": 3324,
      "Ġclot": 3325,
      "Ġtable": 3326,
      "Ġraised": 3327,
      "Ġfemale": 3328,
      "Ġevents": 3329,
      "Ġpregn": 3330,
      "hest": 3331,
      "Ġbelieves": 3332,
      "Ġdamage": 3333,
      "Ġbroad": 3334,
      "Ġwords": 3335,
      "ĠMuslim": 3336,
      "ogle": 3337,
      "Ġhappen": 3338,
      "Ġcreate": 3339,
      "ĠVal": 3340,
      "Ġtowards": 3341,
      "oms": 3342,
      "Ġpenal": 3343,
      "Ġjoined": 3344,
      "Ġdetails": 3345,
      "ĠBel": 3346,
      "Ġnewsp": 3347,
      "500": 3348,
      "down": 3349,
      "Ġproject": 3350,
      "Ġspeed": 3351,
      "Ġseems": 3352,
      "olf": 3353,
      "Ġvan": 3354,
      "itiz": 3355,
      "Ġdro": 3356,
      "gal": 3357,
      "ĠDespite": 3358,
      "ĠiP": 3359,
      "ĠAnother": 3360,
      "Ġcandid": 3361,
      "orthern": 3362,
      "bor": 3363,
      "ĠLib": 3364,
      "Ġholiday": 3365,
      "Ġquestions": 3366,
      "icide": 3367,
      "Ġelse": 3368,
      "Ġhar": 3369,
      "Ġherself": 3370,
      "Ġthr": 3371,
      "ĠOp": 3372,
      "ĠCongress": 3373,
      "Ġcard": 3374,
      "oman": 3375,
      "ĠWilliams": 3376,
      "Ġstre": 3377,
      "Ġspend": 3378,
      "Ġespecially": 3379,
      "ĠCouncil": 3380,
      "come": 3381,
      "Ġimpact": 3382,
      "Ġgoes": 3383,
      "ĠSpe": 3384,
      "Ġrange": 3385,
      "astic": 3386,
      "Ġfinally": 3387,
      "Ġpeace": 3388,
      "Ġoperation": 3389,
      "inger": 3390,
      "Ġinqu": 3391,
      "Ġremember": 3392,
      "ĠEv": 3393,
      "Ġcontrovers": 3394,
      "ural": 3395,
      "ĠScotland": 3396,
      "Ġmis": 3397,
      "Ġcat": 3398,
      "Ġpublished": 3399,
      "Ġaud": 3400,
      "Ġrestaur": 3401,
      "Ġresults": 3402,
      "ĠAfrican": 3403,
      "Ġindustry": 3404,
      "Ġpassed": 3405,
      "Ġshown": 3406,
      "fort": 3407,
      "TV": 3408,
      "ĠAct": 3409,
      "Ġwide": 3410,
      "Ġended": 3411,
      "Ġgold": 3412,
      "ĠJe": 3413,
      "Ġsimply": 3414,
      "Ġquar": 3415,
      "Ġcru": 3416,
      "ellig": 3417,
      "Ġfinancial": 3418,
      "Ġconvicted": 3419,
      "based": 3420,
      "ĠPort": 3421,
      "het": 3422,
      "ĠQueen": 3423,
      "Ġapparent": 3424,
      "ĠOffice": 3425,
      "Ġmist": 3426,
      "yc": 3427,
      "iction": 3428,
      "ires": 3429,
      "gu": 3430,
      "vironment": 3431,
      "ground": 3432,
      "Ġvers": 3433,
      "chie": 3434,
      "Ġcustomers": 3435,
      "while": 3436,
      "Ġrout": 3437,
      "asons": 3438,
      "Ġdeliver": 3439,
      "imb": 3440,
      "Ġoffered": 3441,
      "ca": 3442,
      "Ġcars": 3443,
      "Ġpil": 3444,
      "Ġeconomic": 3445,
      "Ġattr": 3446,
      "ibly": 3447,
      "ĠFranc": 3448,
      "ancy": 3449,
      "Ġfocus": 3450,
      "Ġtitle": 3451,
      "Ġdemonstr": 3452,
      "ĠPeter": 3453,
      "Ġcontract": 3454,
      "Ġhundreds": 3455,
      "Ġtroops": 3456,
      "Ġpassengers": 3457,
      "Ġrev": 3458,
      "ceed": 3459,
      "Ġwinning": 3460,
      "Ġprevent": 3461,
      "Ġspending": 3462,
      "ĠGoogle": 3463,
      "Ġalone": 3464,
      "Ġfloor": 3465,
      "Ġgrowing": 3466,
      "Ġcris": 3467,
      "arr": 3468,
      "Ġconsum": 3469,
      "Ġtrib": 3470,
      "Ġrare": 3471,
      "Ġconsider": 3472,
      "Ġchanged": 3473,
      "Ġphotograph": 3474,
      "ĠKe": 3475,
      "Ġincrease": 3476,
      "Ġbid": 3477,
      "Ġtweet": 3478,
      "Ġoccur": 3479,
      "Ġur": 3480,
      "Ġweather": 3481,
      "Ġsurround": 3482,
      "ĠJackson": 3483,
      "ĠJohnson": 3484,
      "airs": 3485,
      "Ġallegations": 3486,
      "Ġemergency": 3487,
      "Ġoil": 3488,
      "Ġjump": 3489,
      "Ġappears": 3490,
      "Ġclean": 3491,
      "Ġmill": 3492,
      "Ġpoor": 3493,
      "ĠTom": 3494,
      "Ġille": 3495,
      "ĠKorea": 3496,
      "ho": 3497,
      "inated": 3498,
      "Ġenter": 3499,
      "Ġobs": 3500,
      "ĠRod": 3501,
      "Ġpartner": 3502,
      "Ġfigures": 3503,
      "ĠCenter": 3504,
      "ender": 3505,
      "mark": 3506,
      "Ġencoura": 3507,
      "Ġenergy": 3508,
      "Ġpan": 3509,
      "olution": 3510,
      "Ġparts": 3511,
      "Ġstopped": 3512,
      "Ġclos": 3513,
      "Ġsnow": 3514,
      "aud": 3515,
      "ĠOffic": 3516,
      "sex": 3517,
      "Ġagreed": 3518,
      "Ġpul": 3519,
      "Ġamount": 3520,
      "ĠÂłĠÂł": 3521,
      "overy": 3522,
      "ĠDef": 3523,
      "Ġshock": 3524,
      "ishing": 3525,
      "set": 3526,
      "Ġweapons": 3527,
      "ĠDo": 3528,
      "Ġlaunch": 3529,
      "uing": 3530,
      "Ġmater": 3531,
      "Ġdefe": 3532,
      "Ġbul": 3533,
      "Ġlack": 3534,
      "ĠLos": 3535,
      "riff": 3536,
      "ÂłÂłÂłÂł": 3537,
      "ĠCam": 3538,
      "HS": 3539,
      "Ġopening": 3540,
      "ĠBay": 3541,
      "raw": 3542,
      "Ġborder": 3543,
      "Ġestim": 3544,
      "ĠMic": 3545,
      "Ġindepend": 3546,
      "ĠClinton": 3547,
      "unk": 3548,
      "ĠAngeles": 3549,
      "ament": 3550,
      "Ġgas": 3551,
      "Ġeyes": 3552,
      "Ġpet": 3553,
      "Ġtraff": 3554,
      "Ġspeech": 3555,
      "Ġaftern": 3556,
      "Ġsell": 3557,
      "Ġadding": 3558,
      "rupt": 3559,
      "aed": 3560,
      "Ġsens": 3561,
      "alls": 3562,
      "rief": 3563,
      "Ġopened": 3564,
      "orry": 3565,
      "Ġunf": 3566,
      "Ġnetwork": 3567,
      "Ġshowing": 3568,
      "Ġconsidered": 3569,
      "pton": 3570,
      "Ġchallenge": 3571,
      "oud": 3572,
      "Ġeffort": 3573,
      "ĠCarol": 3574,
      "Ġcouncil": 3575,
      "Ġtreated": 3576,
      "Ġtelevision": 3577,
      "ĠCap": 3578,
      "SA": 3579,
      "Ġbase": 3580,
      "otten": 3581,
      "Ġeconomy": 3582,
      "orks": 3583,
      "iger": 3584,
      "ĠChe": 3585,
      "ado": 3586,
      "Ġafternoon": 3587,
      "Ġemot": 3588,
      "Ġtrust": 3589,
      "Ġdrive": 3590,
      "Ġcosts": 3591,
      "Ġskin": 3592,
      "Ġsurf": 3593,
      "Ġdangerous": 3594,
      "ĠFore": 3595,
      "Ġevening": 3596,
      "Ġready": 3597,
      "earchers": 3598,
      "iation": 3599,
      "Ġcrowd": 3600,
      "ĠThom": 3601,
      "Ġ&": 3602,
      "Ġnatur": 3603,
      "Ġefforts": 3604,
      "ĠKim": 3605,
      "Ġperfect": 3606,
      "atory": 3607,
      "Ġattend": 3608,
      "ension": 3609,
      "nder": 3610,
      "Ġwedding": 3611,
      "ĠIndia": 3612,
      "Ġbod": 3613,
      "rol": 3614,
      "Ġfra": 3615,
      "Ġcitiz": 3616,
      "Ġtouch": 3617,
      "Ġnearby": 3618,
      "ux": 3619,
      "Ġscored": 3620,
      "That": 3621,
      "Ġsize": 3622,
      "enger": 3623,
      "ication": 3624,
      "Ġbrand": 3625,
      "Ġperformance": 3626,
      "aling": 3627,
      "craft": 3628,
      "Ġvo": 3629,
      "Ġengine": 3630,
      "Ġsigned": 3631,
      "Ġsoldiers": 3632,
      "Ġlawyer": 3633,
      "ini": 3634,
      "Ġopportunity": 3635,
      "ites": 3636,
      "gypt": 3637,
      "Ġbroke": 3638,
      "Ġwouldn": 3639,
      "Ġemerged": 3640,
      "Ġjury": 3641,
      "Ġdoctor": 3642,
      "ĠTod": 3643,
      "ĠJones": 3644,
      "men": 3645,
      "ĠInst": 3646,
      "Ġdin": 3647,
      "Ġship": 3648,
      "ĠSal": 3649,
      "cohol": 3650,
      "hold": 3651,
      "Ġexample": 3652,
      "Ġaim": 3653,
      "Ġver": 3654,
      "Ġintro": 3655,
      "Ġang": 3656,
      "ĠOther": 3657,
      "rif": 3658,
      "bre": 3659,
      "Ġwond": 3660,
      "gic": 3661,
      "Ġchanges": 3662,
      "As": 3663,
      "Ġconcerns": 3664,
      "Ġunable": 3665,
      "ĠQu": 3666,
      "Ġachie": 3667,
      "Ġ31": 3668,
      "Ġeventually": 3669,
      "iful": 3670,
      "ĠHill": 3671,
      "Ġmiddle": 3672,
      "Ġfast": 3673,
      "Ġparticularly": 3674,
      "ares": 3675,
      "Ġschools": 3676,
      "Ġissued": 3677,
      "Ġsym": 3678,
      "Ġwarning": 3679,
      "Ġbought": 3680,
      "Ġkick": 3681,
      "duced": 3682,
      "ĠSand": 3683,
      "ĠEgypt": 3684,
      "Ġspread": 3685,
      "Ġcalling": 3686,
      "Ġidentified": 3687,
      "Ġbott": 3688,
      "roud": 3689,
      "Ġreportedly": 3690,
      "liam": 3691,
      "Ġterms": 3692,
      "Ġordered": 3693,
      "ĠCle": 3694,
      "Ġsense": 3695,
      "Ġsecret": 3696,
      "ĠGreen": 3697,
      "pher": 3698,
      "ĠMadrid": 3699,
      "Ġcoast": 3700,
      "Ġmoving": 3701,
      "Ġaged": 3702,
      "Ġexperts": 3703,
      "Ġsport": 3704,
      "aked": 3705,
      "Ġfashion": 3706,
      "Ġanimals": 3707,
      "Ġconc": 3708,
      "adium": 3709,
      "ĠWales": 3710,
      "Ġavoid": 3711,
      "Ġcharacter": 3712,
      "Ġdesigned": 3713,
      "ĠMexico": 3714,
      "Ġadministration": 3715,
      "ĠTimes": 3716,
      "40": 3717,
      "ĠDon": 3718,
      "iling": 3719,
      "liament": 3720,
      "Ġlik": 3721,
      "anda": 3722,
      "ipped": 3723,
      "Ġglobal": 3724,
      "olute": 3725,
      "ĠDuring": 3726,
      "ples": 3727,
      "Ġloved": 3728,
      "iles": 3729,
      "ading": 3730,
      "Ġtemper": 3731,
      "Ġcrisis": 3732,
      "icket": 3733,
      "Ġep": 3734,
      "Ġhigher": 3735,
      "rel": 3736,
      "ĠSpain": 3737,
      "Ġlargest": 3738,
      "Ġfaces": 3739,
      "ĠReal": 3740,
      "Ġcash": 3741,
      "ari": 3742,
      "ĠReporter": 3743,
      "Ġdecl": 3744,
      "Ġsend": 3745,
      "ĠLouis": 3746,
      "uclear": 3747,
      "Ġexact": 3748,
      "Ġwild": 3749,
      "Ġfellow": 3750,
      "ĠStep": 3751,
      "ĠMary": 3752,
      "ĠLaw": 3753,
      "Ġ2006": 3754,
      "Ġboys": 3755,
      "owers": 3756,
      "aches": 3757,
      "Ġmeant": 3758,
      "ih": 3759,
      "Ġnewspaper": 3760,
      "Ġcaptain": 3761,
      "Ġtelling": 3762,
      "ams": 3763,
      "ĠRobert": 3764,
      "ils": 3765,
      "Ġarm": 3766,
      "Ġsquad": 3767,
      "Ġfle": 3768,
      "rian": 3769,
      "Ġairport": 3770,
      "Ġdisplay": 3771,
      "Ġrequest": 3772,
      "15": 3773,
      "ears": 3774,
      "Ġopt": 3775,
      "Ġserved": 3776,
      "light": 3777,
      "Ġmanaged": 3778,
      "Ġtalking": 3779,
      "ilities": 3780,
      "Ġscore": 3781,
      "ounts": 3782,
      "Ġsave": 3783,
      "ĠWood": 3784,
      "Ġcharity": 3785,
      "illa": 3786,
      "istry": 3787,
      "outhern": 3788,
      "Ġonto": 3789,
      "Ġexperi": 3790,
      "well": 3791,
      "iny": 3792,
      "Ġincreasing": 3793,
      "Ġfair": 3794,
      "Ġsuspect": 3795,
      "Ġtrue": 3796,
      "isters": 3797,
      "Ġful": 3798,
      "cial": 3799,
      "gent": 3800,
      "Ġpers": 3801,
      "ĠVan": 3802,
      "Ġpur": 3803,
      "Ġdiagn": 3804,
      "ĠSpan": 3805,
      "Ġscreen": 3806,
      "Ġsuffering": 3807,
      "Ġensure": 3808,
      "Ġchamp": 3809,
      "anta": 3810,
      "Ġrules": 3811,
      "Ġimprove": 3812,
      "Ġstriker": 3813,
      "ĠVictor": 3814,
      "ki": 3815,
      "ĠAndrew": 3816,
      "Ġrelig": 3817,
      "ties": 3818,
      "Ġmovie": 3819,
      "Ġcompletely": 3820,
      "Ġaward": 3821,
      "elligence": 3822,
      "Ġtwice": 3823,
      "ĠMany": 3824,
      "ighters": 3825,
      "Ġstreets": 3826,
      "Ġflood": 3827,
      "Ġseeing": 3828,
      "Ġeffect": 3829,
      "add": 3830,
      "Ġfigure": 3831,
      "ĠMel": 3832,
      "Ġanimal": 3833,
      "Ġthroughout": 3834,
      "lor": 3835,
      "icks": 3836,
      "Ġrate": 3837,
      "akers": 3838,
      "Ġchem": 3839,
      "azine": 3840,
      "ĠLord": 3841,
      "Ġcentral": 3842,
      "Ġdate": 3843,
      "ĠFar": 3844,
      "Ġchurch": 3845,
      "12": 3846,
      "ĠNor": 3847,
      "ounded": 3848,
      "Ġaircraft": 3849,
      "And": 3850,
      "iate": 3851,
      "vest": 3852,
      "Ġitself": 3853,
      "inson": 3854,
      "ĠBill": 3855,
      "âĢĿ": 3856,
      "Ġjobs": 3857,
      "ĠThomas": 3858,
      "Ġresponsible": 3859,
      "Ġbra": 3860,
      "Ġtyp": 3861,
      "ĠJos": 3862,
      "sych": 3863,
      "ĠNHS": 3864,
      "erve": 3865,
      "isl": 3866,
      "ĠArmy": 3867,
      "Ġwritten": 3868,
      "Ġlevels": 3869,
      "ucky": 3870,
      "Ġreporters": 3871,
      "ago": 3872,
      "Ġitem": 3873,
      "rival": 3874,
      "woman": 3875,
      "elled": 3876,
      "Ġalcohol": 3877,
      "ruction": 3878,
      "ĠParis": 3879,
      "za": 3880,
      "Ġdism": 3881,
      "igg": 3882,
      "Ġprotest": 3883,
      "Ġsuit": 3884,
      "Ġassoci": 3885,
      "ĠAuthor": 3886,
      "Ġgets": 3887,
      "Ġterm": 3888,
      "ĠThese": 3889,
      "Ġheavy": 3890,
      "ĠISIS": 3891,
      "eed": 3892,
      "Ġwait": 3893,
      "Ġstraight": 3894,
      "Ġvir": 3895,
      "ĠArab": 3896,
      "ĠSenate": 3897,
      "Ġrise": 3898,
      "Ġsched": 3899,
      "ĠCharl": 3900,
      "ĠMill": 3901,
      "Ġincred": 3902,
      "Ġestab": 3903,
      "Ġfine": 3904,
      "ĠItaly": 3905,
      "ĠJustice": 3906,
      "Ġeat": 3907,
      "ropri": 3908,
      "Ġremoved": 3909,
      "Ġnumbers": 3910,
      "Ġice": 3911,
      "What": 3912,
      "ĠOf": 3913,
      "Ġasking": 3914,
      "Ġgirlfriend": 3915,
      "Ġsupporters": 3916,
      "Ġexplos": 3917,
      "Ġfre": 3918,
      "haps": 3919,
      "Ġpo": 3920,
      "Ġcarrying": 3921,
      "ĠLee": 3922,
      "Ġmaterial": 3923,
      "oned": 3924,
      "ĠIslamic": 3925,
      "Ġcenter": 3926,
      "ression": 3927,
      "istic": 3928,
      "Ġpenalty": 3929,
      "ĠGar": 3930,
      "Ġwaiting": 3931,
      "ĠCons": 3932,
      "Ġpulled": 3933,
      "Ġmission": 3934,
      "Ġdetermin": 3935,
      "ĠRos": 3936,
      "Ġfeeling": 3937,
      "Ġholding": 3938,
      "Ġreached": 3939,
      "Ġhy": 3940,
      "Ġlose": 3941,
      "Ġpretty": 3942,
      "Ġrepeated": 3943,
      "Ġfootage": 3944,
      "ĠSyrian": 3945,
      "ĠDaniel": 3946,
      "arden": 3947,
      "Ġmobile": 3948,
      "ĠBal": 3949,
      "gen": 3950,
      "azing": 3951,
      "ersey": 3952,
      "Ġhero": 3953,
      "ĠSur": 3954,
      "Ġfavour": 3955,
      "ĠIndian": 3956,
      "Ġeducation": 3957,
      "Ġnuclear": 3958,
      "Ġdoz": 3959,
      "Ġmyself": 3960,
      "ĠAtt": 3961,
      "clus": 3962,
      "Ġdocuments": 3963,
      "ustr": 3964,
      "Ġoccas": 3965,
      "ĠVir": 3966,
      "Ġminute": 3967,
      "Ġraise": 3968,
      "ĠSar": 3969,
      "ĠAsh": 3970,
      "Ġpaper": 3971,
      "ĠHall": 3972,
      "ction": 3973,
      "jected": 3974,
      "Ġeasy": 3975,
      "ez": 3976,
      "Ġmillions": 3977,
      "Ġfan": 3978,
      "Ġsuggested": 3979,
      "?'": 3980,
      "ĠMat": 3981,
      "udget": 3982,
      "Ġnormal": 3983,
      "Ġconcerned": 3984,
      "ĠCrown": 3985,
      "Ġdream": 3986,
      "ĠUnion": 3987,
      "Ġinn": 3988,
      "Ġenfor": 3989,
      "Ġenvironment": 3990,
      "aging": 3991,
      "ube": 3992,
      "Ġsevere": 3993,
      "asc": 3994,
      "Ġactions": 3995,
      "Ġdeaths": 3996,
      "Ġslow": 3997,
      "Ġclosed": 3998,
      "Ġapproach": 3999,
      "Ġcompetition": 4000,
      "ĠCamp": 4001,
      "Ġdecades": 4002,
      "Ġpopulation": 4003,
      "ram": 4004,
      "Ġblue": 4005,
      "Ġhopes": 4006,
      "ements": 4007,
      "nor": 4008,
      "bit": 4009,
      "Ġsentenced": 4010,
      "Ġhistor": 4011,
      "ĠSun": 4012,
      "Ġwalking": 4013,
      "rap": 4014,
      "ĠWatch": 4015,
      "asts": 4016,
      "ĠPeople": 4017,
      "Ġwhom": 4018,
      "Ġopin": 4019,
      "ĠAtl": 4020,
      "Ġfourth": 4021,
      "Ġsea": 4022,
      "IDEO": 4023,
      "Ġjustice": 4024,
      "Ġagre": 4025,
      "Ġmotor": 4026,
      "Ġsuccessful": 4027,
      "Ġbodies": 4028,
      "Ġdark": 4029,
      "Ġproducts": 4030,
      "Ġrain": 4031,
      "ĠVIDEO": 4032,
      "ĠTal": 4033,
      "Ġattacked": 4034,
      "going": 4035,
      "Ġmessages": 4036,
      "Ġstruck": 4037,
      "Ġincludes": 4038,
      "Ġinflu": 4039,
      "unch": 4040,
      "Ġmajority": 4041,
      "Ġprior": 4042,
      "Ġvac": 4043,
      "sequ": 4044,
      "BI": 4045,
      "ĠDet": 4046,
      "ĠHarry": 4047,
      "25": 4048,
      "bl": 4049,
      "Ġroll": 4050,
      "Ġtransfer": 4051,
      "Ġreform": 4052,
      "Ġolder": 4053,
      "Ġcollect": 4054,
      "Ġwel": 4055,
      "angu": 4056,
      "Ġoriginal": 4057,
      "ications": 4058,
      "rick": 4059,
      "Ġaid": 4060,
      "Ġblock": 4061,
      "acked": 4062,
      "Ġgang": 4063,
      "hib": 4064,
      "ĠItal": 4065,
      "ĠEven": 4066,
      "ector": 4067,
      "Ġhelping": 4068,
      "Ġadm": 4069,
      "Ġdropped": 4070,
      "Ġjailed": 4071,
      "ĠGod": 4072,
      "Ġplaced": 4073,
      "iple": 4074,
      "Ġbenefits": 4075,
      "Ġplanning": 4076,
      "Ġfired": 4077,
      "Ġregard": 4078,
      "vent": 4079,
      "raine": 4080,
      "Ġ35": 4081,
      "omen": 4082,
      "Ġdocument": 4083,
      "ha": 4084,
      "Ġowners": 4085,
      "Ġcerem": 4086,
      "Ġsports": 4087,
      "Ġmach": 4088,
      "Ġpositive": 4089,
      "Ġcomputer": 4090,
      "Ġworst": 4091,
      "Online": 4092,
      "esters": 4093,
      "Ġpull": 4094,
      "ĠSoc": 4095,
      "ĠMag": 4096,
      "stitute": 4097,
      "Ġswim": 4098,
      "Ġmassive": 4099,
      "Ġappeal": 4100,
      "ĠService": 4101,
      "itt": 4102,
      "Ġbal": 4103,
      "ĠAlthough": 4104,
      "rim": 4105,
      "elly": 4106,
      "Ġapolog": 4107,
      "Ġapartment": 4108,
      "Ġgreen": 4109,
      "ĠSuper": 4110,
      "Ġdevelopment": 4111,
      "Ġcertainly": 4112,
      "Ġcold": 4113,
      "Ġopposition": 4114,
      "Ġplanned": 4115,
      "Ġbecoming": 4116,
      "ĠGreat": 4117,
      "Ġalongside": 4118,
      "Ġappearance": 4119,
      "pping": 4120,
      "Ġsale": 4121,
      "ĠMer": 4122,
      "Ġlay": 4123,
      "ĠSecurity": 4124,
      "Ġnatural": 4125,
      "Ġcop": 4126,
      "ĠHum": 4127,
      "Ġteams": 4128,
      "âĢĻ,": 4129,
      "Ġmount": 4130,
      "Ġhighest": 4131,
      "ĠâĢľ": 4132,
      "ĠJudge": 4133,
      "Ġspir": 4134,
      "Ġdogs": 4135,
      "Ġquarter": 4136,
      "resh": 4137,
      "Ġ70": 4138,
      "Ġsales": 4139,
      "lined": 4140,
      "ĠFA": 4141,
      "Ġbreat": 4142,
      "useum": 4143,
      "Ġshut": 4144,
      "ological": 4145,
      "Ġlower": 4146,
      "ĠFrancis": 4147,
      "Ġow": 4148,
      "ĠBarack": 4149,
      "mates": 4150,
      "Ġcompared": 4151,
      "ĠJon": 4152,
      "dney": 4153,
      "icles": 4154,
      "Ġwatching": 4155,
      "ildren": 4156,
      "Ġisland": 4157,
      "iest": 4158,
      "Ġdoll": 4159,
      "Ġseemed": 4160,
      "ĠLa": 4161,
      "ĠMean": 4162,
      "Ġpresidential": 4163,
      "ĠSn": 4164,
      "ĠJim": 4165,
      "ervative": 4166,
      "Ġbroken": 4167,
      "wide": 4168,
      "Ġcounter": 4169,
      "ĠGeneral": 4170,
      "ĠEarth": 4171,
      "Ġinsisted": 4172,
      "Ġ2005": 4173,
      "ĠInter": 4174,
      "arian": 4175,
      "aine": 4176,
      "Ġdefense": 4177,
      "Ġways": 4178,
      "Ġnecess": 4179,
      "Ġreasons": 4180,
      "Ġdouble": 4181,
      "Ġcontain": 4182,
      "Ġgrad": 4183,
      "Ġplaces": 4184,
      "ĠParty": 4185,
      "Ġstab": 4186,
      "fl": 4187,
      "win": 4188,
      "ĠPost": 4189,
      "Ġbeautiful": 4190,
      "Ġsong": 4191,
      "jects": 4192,
      "Ġcollection": 4193,
      "Ġlearn": 4194,
      "Ġaware": 4195,
      "Ġshared": 4196,
      "ĠGood": 4197,
      "Ġmaintain": 4198,
      "Ġword": 4199,
      "yond": 4200,
      "Ġstars": 4201,
      "bert": 4202,
      "ĠUnder": 4203,
      "Ġdepartment": 4204,
      "ĠBur": 4205,
      "Ġrecords": 4206,
      "Ġflag": 4207,
      "ĠFirst": 4208,
      "Ġund": 4209,
      "iced": 4210,
      "Ġsuicide": 4211,
      "gree": 4212,
      "ĠFormer": 4213,
      "Ġcontinues": 4214,
      "cks": 4215,
      "ĠCommission": 4216,
      "Ġspl": 4217,
      "ĠRepublicans": 4218,
      "Ġveter": 4219,
      "Ġprim": 4220,
      "Ġclaiming": 4221,
      "ĠSydney": 4222,
      "ĠNet": 4223,
      "Ġsometimes": 4224,
      "Ġfreed": 4225,
      "Ġ90": 4226,
      "ĠVirgin": 4227,
      "Ġ32": 4228,
      "bridge": 4229,
      "Ġneighbor": 4230,
      "ĠMailOnline": 4231,
      "19": 4232,
      "ĠPress": 4233,
      "Ġdebate": 4234,
      "Ġairl": 4235,
      "ĠMet": 4236,
      "reng": 4237,
      "ĠDen": 4238,
      "Ġillegal": 4239,
      "ĠMeanwhile": 4240,
      "Ġtalks": 4241,
      "mail": 4242,
      "Ġfix": 4243,
      "Ġexplained": 4244,
      "ĠOld": 4245,
      "Ġmagazine": 4246,
      "Ġmale": 4247,
      "Ġstarting": 4248,
      "andal": 4249,
      "arks": 4250,
      "ĠEb": 4251,
      "ĠMiddle": 4252,
      "anging": 4253,
      "Ġputting": 4254,
      "ero": 4255,
      "celona": 4256,
      "ĠBoth": 4257,
      "ĠSteve": 4258,
      "oz": 4259,
      "ĠProf": 4260,
      "Ġparticip": 4261,
      "Ġproud": 4262,
      "Ġclearly": 4263,
      "Ġprovided": 4264,
      "Ġdevast": 4265,
      "Ġrestaurant": 4266,
      "Ġult": 4267,
      "Ġcaptured": 4268,
      "Ġfiled": 4269,
      "orial": 4270,
      "Ġexpressed": 4271,
      "born": 4272,
      "100": 4273,
      "mond": 4274,
      "Ġinvestigators": 4275,
      "Ġsmart": 4276,
      "Ġchairman": 4277,
      "month": 4278,
      "Ġwinner": 4279,
      "ĠBush": 4280,
      "keep": 4281,
      "60": 4282,
      "uction": 4283,
      "Ġarmed": 4284,
      "apped": 4285,
      "Ġrespect": 4286,
      "ĠChief": 4287,
      "ĠSince": 4288,
      "uled": 4289,
      "Ġabsolute": 4290,
      "urance": 4291,
      "rie": 4292,
      "NA": 4293,
      "Ġcommitted": 4294,
      "Ġdie": 4295,
      "ĠFBI": 4296,
      "Ġstyle": 4297,
      "anks": 4298,
      "Ġfeatures": 4299,
      "hab": 4300,
      "ĠToday": 4301,
      "ania": 4302,
      "aped": 4303,
      "Ġdig": 4304,
      "Ġspecific": 4305,
      "iring": 4306,
      "ĠDis": 4307,
      "Ġkit": 4308,
      "ĠOl": 4309,
      "Ġbeach": 4310,
      "Ġbrief": 4311,
      "?\"": 4312,
      "Ġmodern": 4313,
      "Ġpsych": 4314,
      "rage": 4315,
      "Ġarch": 4316,
      "ĠItalian": 4317,
      "nel": 4318,
      "Ġprogress": 4319,
      "ĠAssociation": 4320,
      "Ġreceive": 4321,
      "bour": 4322,
      "Ġnames": 4323,
      "Ġrow": 4324,
      "Ġcustody": 4325,
      "Ġtourn": 4326,
      "Ġfeed": 4327,
      "Ġconvers": 4328,
      "Ġprofessional": 4329,
      "Ġthinking": 4330,
      "Ġ80": 4331,
      "term": 4332,
      "ĠMos": 4333,
      "Ġpiece": 4334,
      "ĠLew": 4335,
      "ĠHolly": 4336,
      "Ġaffected": 4337,
      "ĠSpeaking": 4338,
      "uf": 4339,
      "Ġdevice": 4340,
      "Ġinternet": 4341,
      "Ġadop": 4342,
      "Ġpatient": 4343,
      "estic": 4344,
      "Ġeffective": 4345,
      "rying": 4346,
      "Ġcomfort": 4347,
      "Ġvillage": 4348,
      "Ġlosing": 4349,
      "ĠBarcelona": 4350,
      "antic": 4351,
      "Ġteenager": 4352,
      "Ġcentury": 4353,
      "ym": 4354,
      "ĠThen": 4355,
      "Ġability": 4356,
      "Ġwalked": 4357,
      "Ġbehavi": 4358,
      "ĠCharles": 4359,
      "orrow": 4360,
      "val": 4361,
      "ĠWin": 4362,
      "ĠHel": 4363,
      "ador": 4364,
      "Ġversion": 4365,
      "ĠFam": 4366,
      "ĠWat": 4367,
      "Ġdefeat": 4368,
      "Ġbelow": 4369,
      "Ġbeg": 4370,
      "Ġusually": 4371,
      "ĠGeorg": 4372,
      ".,": 4373,
      "Ġstrike": 4374,
      "Ġstun": 4375,
      "ĠGold": 4376,
      "Ġchoice": 4377,
      "Ġones": 4378,
      "Ġchampion": 4379,
      "Ġlegisl": 4380,
      "house": 4381,
      "ĠNick": 4382,
      "can": 4383,
      "ĠOlympic": 4384,
      "Ġindividual": 4385,
      "Ġ45": 4386,
      "Ġsigns": 4387,
      "ĠRyan": 4388,
      "ville": 4389,
      "Ġcitizens": 4390,
      "Ġknows": 4391,
      "ĠUkraine": 4392,
      "pts": 4393,
      "ĠSpanish": 4394,
      "FA": 4395,
      "ĠEU": 4396,
      "aeda": 4397,
      "Ġruns": 4398,
      "imately": 4399,
      "upp": 4400,
      "Ġintelligence": 4401,
      "Ġestimated": 4402,
      "ĠFrank": 4403,
      "Ġglass": 4404,
      "Ġcorn": 4405,
      "resp": 4406,
      "ielder": 4407,
      "Ġleague": 4408,
      "ĠGre": 4409,
      "ani": 4410,
      "ĠArgent": 4411,
      "Ġmix": 4412,
      "Ġminor": 4413,
      "ĠRomney": 4414,
      "Ġcovered": 4415,
      "oe": 4416,
      "Ġshel": 4417,
      "Ġband": 4418,
      "inally": 4419,
      "ĠRec": 4420,
      "ourney": 4421,
      "oted": 4422,
      "udd": 4423,
      "ĠJul": 4424,
      "using": 4425,
      "Ġspark": 4426,
      "ER": 4427,
      "Ġmental": 4428,
      "Ġruled": 4429,
      "iser": 4430,
      "Ġcausing": 4431,
      "Ġimag": 4432,
      "Ġfacing": 4433,
      "ĠWeb": 4434,
      "arily": 4435,
      "imum": 4436,
      "Ġgay": 4437,
      "ĠMurray": 4438,
      "Ġstreng": 4439,
      "Ġattended": 4440,
      "Ġhealthy": 4441,
      "Ġapparently": 4442,
      "Ġseat": 4443,
      "Ġstanding": 4444,
      "isions": 4445,
      "eless": 4446,
      "ka": 4447,
      "ĠDar": 4448,
      "Ġrape": 4449,
      "Ġwindow": 4450,
      "chen": 4451,
      "Ġtough": 4452,
      "ĠBre": 4453,
      "Ġcollege": 4454,
      "200": 4455,
      "Ġscientists": 4456,
      "Ġdrop": 4457,
      "ait": 4458,
      "Ġstrate": 4459,
      "Ġexist": 4460,
      "ĠAri": 4461,
      "ĠOs": 4462,
      "ĠTay": 4463,
      "Ġtraffic": 4464,
      "ship": 4465,
      "fielder": 4466,
      "illing": 4467,
      "Ġreality": 4468,
      "St": 4469,
      "Ġviews": 4470,
      "Ġwonder": 4471,
      "Ġarms": 4472,
      "Ġfully": 4473,
      "kins": 4474,
      "erved": 4475,
      "Ġobv": 4476,
      "ĠTim": 4477,
      "ked": 4478,
      "Ġconduct": 4479,
      "Ġbeyond": 4480,
      "Ġexerc": 4481,
      "Ġuns": 4482,
      "onn": 4483,
      "Ġextremely": 4484,
      "ĠChristian": 4485,
      "Ġbudget": 4486,
      "ĠChurch": 4487,
      "hered": 4488,
      "Ġsad": 4489,
      "oston": 4490,
      "Ġimpro": 4491,
      "Ġyounger": 4492,
      "ĠGra": 4493,
      "Ġitems": 4494,
      "Ġspokeswoman": 4495,
      "Ġresearchers": 4496,
      "ĠMass": 4497,
      "Ġoperations": 4498,
      "cy": 4499,
      "Ġsoft": 4500,
      "Ġrecomm": 4501,
      "Ġsurvey": 4502,
      "Ġgiant": 4503,
      "Ġ2004": 4504,
      "annel": 4505,
      "Ġanswer": 4506,
      "ae": 4507,
      "ĠKar": 4508,
      "ĠDel": 4509,
      "igan": 4510,
      "Ġboat": 4511,
      "Ġlangu": 4512,
      "Ġsitting": 4513,
      "oking": 4514,
      "ĠHot": 4515,
      "iqu": 4516,
      "do": 4517,
      "ropriate": 4518,
      "ume": 4519,
      "Ġpregnant": 4520,
      "Ġprices": 4521,
      "Ġimmigration": 4522,
      "aret": 4523,
      "Ġdestroy": 4524,
      "Ġdefin": 4525,
      "Ġadvert": 4526,
      "ĠRad": 4527,
      "Ġincreased": 4528,
      "Ġannual": 4529,
      "ĠPalace": 4530,
      "Ġsem": 4531,
      "Ġbeginning": 4532,
      "cious": 4533,
      "':": 4534,
      "Ġceremony": 4535,
      "ĠVe": 4536,
      "Ġpractice": 4537,
      "Ġoccurred": 4538,
      "ĠDu": 4539,
      "14": 4540,
      "Ġconcern": 4541,
      "met": 4542,
      "Ġbirthday": 4543,
      "Ġbi": 4544,
      "Ġdecade": 4545,
      "Ġmovement": 4546,
      "iance": 4547,
      "Ġ33": 4548,
      "Ġfly": 4549,
      "Ġvisited": 4550,
      "duce": 4551,
      "phone": 4552,
      "Ġeating": 4553,
      "Ġprotesters": 4554,
      "atures": 4555,
      "Ġspotted": 4556,
      "Ġclin": 4557,
      "Ġparties": 4558,
      "Ġremained": 4559,
      "ula": 4560,
      "Ġsick": 4561,
      "Ġcast": 4562,
      "ĠWal": 4563,
      "ointed": 4564,
      "Ġunderst": 4565,
      "antly": 4566,
      "ĠKn": 4567,
      "ĠSom": 4568,
      "zz": 4569,
      "entially": 4570,
      "Ġflat": 4571,
      "Ġrescue": 4572,
      "Ġsuspic": 4573,
      "Ġlearned": 4574,
      "Ġviolent": 4575,
      "Ġexactly": 4576,
      "Ġharm": 4577,
      "gar": 4578,
      "Ġsociety": 4579,
      "Ġsort": 4580,
      "Ġamazing": 4581,
      "For": 4582,
      "Ġlinked": 4583,
      "Ġlic": 4584,
      "Ġbath": 4585,
      "Ġactor": 4586,
      "board": 4587,
      "Ġwid": 4588,
      "Ġalive": 4589,
      "Ġtraditional": 4590,
      "anged": 4591,
      "omatic": 4592,
      "angers": 4593,
      "Ġemployees": 4594,
      "Ġpounds": 4595,
      "ledge": 4596,
      "ĠBob": 4597,
      "utch": 4598,
      "Ġconfl": 4599,
      "Ġprem": 4600,
      "ĠBoston": 4601,
      "ĠDemocratic": 4602,
      "aries": 4603,
      "ĠEbola": 4604,
      "Ġinitially": 4605,
      "Ġgrowth": 4606,
      "Ġvoters": 4607,
      "ighter": 4608,
      "Ġsuspended": 4609,
      "Ġbehaviour": 4610,
      "Ġhanded": 4611,
      "where": 4612,
      "Ġwood": 4613,
      "ĠGrand": 4614,
      "ĠCom": 4615,
      "Ġexch": 4616,
      "Ġtype": 4617,
      "Ġmidfielder": 4618,
      "ĠSil": 4619,
      "ĠDown": 4620,
      "Ġresponsibility": 4621,
      "Ġwatched": 4622,
      "Ġhoping": 4623,
      "ĠMac": 4624,
      "owing": 4625,
      "Ġregime": 4626,
      "cing": 4627,
      "Ġpool": 4628,
      "ĠJoe": 4629,
      "Ġradio": 4630,
      "Ġcrimes": 4631,
      "Our": 4632,
      "Ġquality": 4633,
      "ĠKate": 4634,
      "Ġath": 4635,
      "Ġpolitic": 4636,
      "Ġbird": 4637,
      "ends": 4638,
      "Ġuniversity": 4639,
      "Ġdram": 4640,
      "ĠDemocrats": 4641,
      "Ġfinding": 4642,
      "Ġjourney": 4643,
      "Ġfresh": 4644,
      "Ġpleaded": 4645,
      "ously": 4646,
      "Ġphysical": 4647,
      "Ġchampions": 4648,
      "Ġflying": 4649,
      "cean": 4650,
      "Ġaddition": 4651,
      "eds": 4652,
      "Ġattempted": 4653,
      "ittee": 4654,
      "ĠTheir": 4655,
      "Ġscen": 4656,
      "ĠMost": 4657,
      "Ġconflict": 4658,
      "Ġpurch": 4659,
      "Ġpowerful": 4660,
      "ĠHen": 4661,
      "bury": 4662,
      "ewhere": 4663,
      "Ġtext": 4664,
      "castle": 4665,
      "uals": 4666,
      "Ġring": 4667,
      "Ġproced": 4668,
      "aith": 4669,
      "Ġdoubt": 4670,
      "known": 4671,
      "ala": 4672,
      "Ġwall": 4673,
      "Ġnegot": 4674,
      "acts": 4675,
      "Ġshortly": 4676,
      "Ġvia": 4677,
      "apt": 4678,
      "Ġdeveloped": 4679,
      "rect": 4680,
      "ĠLiber": 4681,
      "Ġterrorist": 4682,
      "Ġvoice": 4683,
      "At": 4684,
      "izing": 4685,
      "Ġvalue": 4686,
      "ĠHoll": 4687,
      "ĠIsland": 4688,
      "ĠEver": 4689,
      "Ġthrow": 4690,
      "Ġworse": 4691,
      "Ġpray": 4692,
      "Ġhurt": 4693,
      "Ġnom": 4694,
      "ĠGa": 4695,
      "Ġbail": 4696,
      "no": 4697,
      "ĠCont": 4698,
      "ĠStar": 4699,
      "ĠBir": 4700,
      "Ġlux": 4701,
      "ĠRiver": 4702,
      "Ġrequired": 4703,
      "Ġfavor": 4704,
      "Ġcircum": 4705,
      "Ġsuspected": 4706,
      "Ġpath": 4707,
      "Ġagreement": 4708,
      "agues": 4709,
      "ĠKent": 4710,
      "ĠRonald": 4711,
      "ĠJer": 4712,
      "ampton": 4713,
      "Ġblog": 4714,
      "ĠColle": 4715,
      "Ġfort": 4716,
      "Ġic": 4717,
      "ads": 4718,
      "icate": 4719,
      "Ġcities": 4720,
      "Ġculture": 4721,
      "ĠII": 4722,
      "Ġprosecutors": 4723,
      "ius": 4724,
      "ooking": 4725,
      "alys": 4726,
      "Ġconfident": 4727,
      "life": 4728,
      "essed": 4729,
      "ein": 4730,
      "mine": 4731,
      "ĠBrook": 4732,
      "eder": 4733,
      "ĠTy": 4734,
      "45": 4735,
      "Ġruling": 4736,
      "ĠBig": 4737,
      "Ġresign": 4738,
      "Ġbanned": 4739,
      "ĠTaylor": 4740,
      "gra": 4741,
      "aire": 4742,
      "ĠJord": 4743,
      "ighted": 4744,
      "ĠDi": 4745,
      "Ġtournament": 4746,
      "Ġtests": 4747,
      "Ġpicked": 4748,
      "Ġexpert": 4749,
      "Ġmeaning": 4750,
      "ĠProfess": 4751,
      "reland": 4752,
      "Ġmissed": 4753,
      "Ġdrinking": 4754,
      "inho": 4755,
      "Ġexplain": 4756,
      "Ġspeaking": 4757,
      "Ġmeasures": 4758,
      "Ġseparate": 4759,
      "gedy": 4760,
      "oured": 4761,
      "Ġcomplex": 4762,
      "Ġtom": 4763,
      "Ġroy": 4764,
      "acking": 4765,
      "inals": 4766,
      "itude": 4767,
      "owed": 4768,
      "ĠMike": 4769,
      "ĠiPh": 4770,
      "Ġdetermined": 4771,
      "Ġappl": 4772,
      "Ġguard": 4773,
      "ĠBrad": 4774,
      "Ġprepared": 4775,
      "oked": 4776,
      "Ġrid": 4777,
      "ĠWall": 4778,
      "13": 4779,
      "Ġfraud": 4780,
      "Ġguy": 4781,
      "Ġenforcement": 4782,
      "ĠIreland": 4783,
      "Ġdismiss": 4784,
      "ĠWilson": 4785,
      "anch": 4786,
      "Ġcab": 4787,
      "Ġign": 4788,
      "ĠPut": 4789,
      "ennis": 4790,
      "Ġsound": 4791,
      "ĠHome": 4792,
      "acing": 4793,
      "Ġcontroversial": 4794,
      "Ġcatch": 4795,
      "ĠJersey": 4796,
      "Ġinvestigating": 4797,
      "Ġpropos": 4798,
      "Ġtweeted": 4799,
      "Ġsan": 4800,
      "Ġmurd": 4801,
      "ĠDistrict": 4802,
      "Ġhighly": 4803,
      "Ġcommittee": 4804,
      "ĠNewcastle": 4805,
      "ĠCast": 4806,
      "ĠKorean": 4807,
      "Ġdivor": 4808,
      "Ġseeking": 4809,
      "Ġgives": 4810,
      "Ġsubject": 4811,
      "Ġprotests": 4812,
      "ecause": 4813,
      "!'": 4814,
      "Ġneck": 4815,
      "zer": 4816,
      "ĠDun": 4817,
      "unte": 4818,
      "stances": 4819,
      "17": 4820,
      "rible": 4821,
      "Ġfarm": 4822,
      "licop": 4823,
      "Ġapart": 4824,
      "Ġseconds": 4825,
      "Ġprogramme": 4826,
      "Ġhaven": 4827,
      "ulated": 4828,
      "Ġheav": 4829,
      "Ġscr": 4830,
      "ĠCommittee": 4831,
      "ĠCost": 4832,
      "ively": 4833,
      "ĠChic": 4834,
      "Ġupon": 4835,
      "ength": 4836,
      "more": 4837,
      "Ġunlike": 4838,
      "Ġhelicop": 4839,
      "Ġselling": 4840,
      "Ġupd": 4841,
      "ĠShar": 4842,
      "ĠQaeda": 4843,
      "16": 4844,
      "isation": 4845,
      "Ġsinger": 4846,
      "Ġnorthern": 4847,
      "Ġdistrict": 4848,
      "Ġboyfriend": 4849,
      "Ġperhaps": 4850,
      "itation": 4851,
      "ĠPenn": 4852,
      "Ġdaily": 4853,
      "Ġdomestic": 4854,
      "Ġserve": 4855,
      "ruit": 4856,
      "Ġdramatic": 4857,
      "Ġfal": 4858,
      "ota": 4859,
      "Ġvarious": 4860,
      "Ġmeth": 4861,
      "Ġbedroom": 4862,
      "Ġbelong": 4863,
      "ĠMoham": 4864,
      "ena": 4865,
      "Ġcommission": 4866,
      "ĠPre": 4867,
      "ifth": 4868,
      "Ġworker": 4869,
      "ĠBank": 4870,
      "Ġfuel": 4871,
      "ellow": 4872,
      "enty": 4873,
      "Ġrequire": 4874,
      "ĠRam": 4875,
      "Ġthreatened": 4876,
      "Ġbottom": 4877,
      "Ġorganization": 4878,
      "Ġgar": 4879,
      "sey": 4880,
      "Ġsimple": 4881,
      "Ġvisitors": 4882,
      "18": 4883,
      "Ġestate": 4884,
      "....": 4885,
      "Ġdesper": 4886,
      "Ġcounts": 4887,
      "Ġanaly": 4888,
      "ĠFrom": 4889,
      "Ġactivity": 4890,
      "Ġfinished": 4891,
      "Ġeld": 4892,
      "uses": 4893,
      "Ġpurs": 4894,
      "Ġwealth": 4895,
      "ĠProsecut": 4896,
      "ĠOpen": 4897,
      "lement": 4898,
      "ument": 4899,
      "ĠInvest": 4900,
      "eing": 4901,
      "Ġlines": 4902,
      "Ġsites": 4903,
      "Ġlegs": 4904,
      "ocks": 4905,
      "Ġtack": 4906,
      "Ġnature": 4907,
      "rier": 4908,
      "Ġclothes": 4909,
      "ĠKat": 4910,
      "Ġtoward": 4911,
      "ĠIsraeli": 4912,
      "Ġfaced": 4913,
      "ĠStephen": 4914,
      "oung": 4915,
      "ĠThree": 4916,
      "ĠCoast": 4917,
      "ections": 4918,
      "mate": 4919,
      "ĠTrans": 4920,
      "Ġvehicles": 4921,
      "Ġmultiple": 4922,
      "Ġphotographer": 4923,
      "ĠPet": 4924,
      "ushing": 4925,
      "ĠVictoria": 4926,
      "ĠWestern": 4927,
      "rog": 4928,
      "Ġserving": 4929,
      "thony": 4930,
      "iana": 4931,
      "Ġeast": 4932,
      "ĠSarah": 4933,
      "run": 4934,
      "athan": 4935,
      "ĠGroup": 4936,
      "Ġstands": 4937,
      "Ġscandal": 4938,
      "law": 4939,
      "Ġpilot": 4940,
      "Ġapplic": 4941,
      "ĠTer": 4942,
      "Ġbom": 4943,
      "ictions": 4944,
      "ware": 4945,
      "Ġpitch": 4946,
      "Ġcommer": 4947,
      "Ch": 4948,
      "Ġactress": 4949,
      "ga": 4950,
      "ella": 4951,
      "ĠEarlier": 4952,
      "Ġpup": 4953,
      "Ġsouthern": 4954,
      "ĠEll": 4955,
      "ĠHaw": 4956,
      "dden": 4957,
      "fit": 4958,
      "Americ": 4959,
      "ĠSl": 4960,
      "encing": 4961,
      "Ġdiagnosed": 4962,
      "ayne": 4963,
      "ĠGeorgia": 4964,
      "Ġbatt": 4965,
      "ĠJew": 4966,
      "Ġpartners": 4967,
      "Ġabsolutely": 4968,
      "ela": 4969,
      "ĠGames": 4970,
      "ĠLuc": 4971,
      "Ġpaying": 4972,
      "Ġthanks": 4973,
      "Ġlocation": 4974,
      "ids": 4975,
      "ican": 4976,
      "Ġbooks": 4977,
      "Ġdifference": 4978,
      "Ġequip": 4979,
      "outs": 4980,
      "Ġseriously": 4981,
      "Ġexpensive": 4982,
      "Ġscheduled": 4983,
      "Ġspect": 4984,
      "Ġ34": 4985,
      "Ġstories": 4986,
      "Ġkeeping": 4987,
      "Ġcredit": 4988,
      "ĠOver": 4989,
      "bur": 4990,
      "Ġ2003": 4991,
      "Ġ36": 4992,
      "upreme": 4993,
      "Ġrelative": 4994,
      "Ġsources": 4995,
      "ĠHollywood": 4996,
      "ĠFire": 4997,
      "ilton": 4998,
      "ĠChicago": 4999,
      "Ġnote": 5000,
      "encies": 5001,
      "ĠTony": 5002,
      "ĠGuard": 5003,
      "Ġgarden": 5004,
      "gers": 5005,
      "anced": 5006,
      "iban": 5007,
      "Ġunderw": 5008,
      "know": 5009,
      "Ġyouth": 5010,
      "Ġchemical": 5011,
      "ĠCarolina": 5012,
      "Ġloan": 5013,
      "Ġartist": 5014,
      "inn": 5015,
      "ĠJordan": 5016,
      "Ġillness": 5017,
      "olic": 5018,
      "Ġsudden": 5019,
      "Ġstuff": 5020,
      "ĠAnthony": 5021,
      "iment": 5022,
      "Ġconfidence": 5023,
      "asted": 5024,
      "Ġfest": 5025,
      "ĠAnn": 5026,
      "Ġwest": 5027,
      "dom": 5028,
      "Ġbenefit": 5029,
      "Ġkidn": 5030,
      "itely": 5031,
      "ĠSus": 5032,
      "Ġcuts": 5033,
      "Ġrecovery": 5034,
      "Ġadvice": 5035,
      "ols": 5036,
      "Ġrule": 5037,
      "Ġhun": 5038,
      "Ġachieve": 5039,
      "ĠKh": 5040,
      "Ġindependent": 5041,
      "Ġscoring": 5042,
      "Ġresponded": 5043,
      "anny": 5044,
      "Ġarticle": 5045,
      "ources": 5046,
      "ĠStud": 5047,
      "burg": 5048,
      "iar": 5049,
      "ĠPri": 5050,
      "Ġwarm": 5051,
      "Ġarmy": 5052,
      "ront": 5053,
      "Ġvideos": 5054,
      "Ġsides": 5055,
      "OR": 5056,
      "ovic": 5057,
      "ĠWel": 5058,
      "Ġunus": 5059,
      "Ġrates": 5060,
      "ĠInternet": 5061,
      "ran": 5062,
      "Ġdeclined": 5063,
      "Ġunit": 5064,
      "Ġamid": 5065,
      "Ġleadership": 5066,
      "Ġinsurance": 5067,
      "Ġcool": 5068,
      "ologist": 5069,
      "ĠRoad": 5070,
      "Ġsurface": 5071,
      "Ġrap": 5072,
      "Ġdefender": 5073,
      "ĠTory": 5074,
      "Ġplant": 5075,
      "Ġequipment": 5076,
      "Ġtrouble": 5077,
      "ulate": 5078,
      "rig": 5079,
      "ĠIm": 5080,
      "Ġrepeatedly": 5081,
      "ĠAc": 5082,
      "Ġpra": 5083,
      "ĠCollege": 5084,
      "rison": 5085,
      "ĠSky": 5086,
      "eman": 5087,
      "arez": 5088,
      "billion": 5089,
      "ĠYear": 5090,
      "west": 5091,
      "onym": 5092,
      "Ġtrade": 5093,
      "Ġrecorded": 5094,
      "Ġshocked": 5095,
      "ĠTor": 5096,
      "Ġroyal": 5097,
      "Ġstood": 5098,
      "ification": 5099,
      "ĠSimon": 5100,
      "Ġmatches": 5101,
      "Ġdefence": 5102,
      "orted": 5103,
      "ĠTaliban": 5104,
      "Ġconstit": 5105,
      "Ġsetting": 5106,
      "ĠCarl": 5107,
      "ĠAuthorities": 5108,
      "Ġremove": 5109,
      "Ġcandidate": 5110,
      "Ġfinish": 5111,
      "ĠFox": 5112,
      "Ġcoff": 5113,
      "Ġobtain": 5114,
      "Ġfears": 5115,
      "Ġwish": 5116,
      "Ġbot": 5117,
      "Ġreligious": 5118,
      "Ġuses": 5119,
      "Ġtow": 5120,
      "ugg": 5121,
      "ĠNic": 5122,
      "ĠVirginia": 5123,
      "Ġupset": 5124,
      "icking": 5125,
      "gus": 5126,
      "ĠMem": 5127,
      "ĠiPhone": 5128,
      "ĠProfessor": 5129,
      "Ġvolunte": 5130,
      "ĠForeign": 5131,
      "Ġescape": 5132,
      "Ġshopping": 5133,
      "Ġfalse": 5134,
      "Ġinquir": 5135,
      "Ġsteps": 5136,
      "lyn": 5137,
      "ufact": 5138,
      "ĠJenn": 5139,
      "Ġbatter": 5140,
      "ĠJess": 5141,
      "Ġacknow": 5142,
      "Ġcritical": 5143,
      "Ġrub": 5144,
      "Ġtruck": 5145,
      "Ġstruct": 5146,
      "Ġproduced": 5147,
      "Ġboost": 5148,
      "Ġdipl": 5149,
      "evin": 5150,
      "Ġdiet": 5151,
      "oma": 5152,
      "ĠSports": 5153,
      "anded": 5154,
      "ĠCentral": 5155,
      "Ġprove": 5156,
      "oles": 5157,
      "Ġprime": 5158,
      "Ġfish": 5159,
      "emb": 5160,
      "ĠSqu": 5161,
      "ĠPalest": 5162,
      "No": 5163,
      "Ġearth": 5164,
      "iner": 5165,
      "IA": 5166,
      "ĠCanada": 5167,
      "Ġnice": 5168,
      "Ġoffers": 5169,
      "ĠEvery": 5170,
      "Ġcolleagues": 5171,
      "pay": 5172,
      "ancing": 5173,
      "Ġdelay": 5174,
      "ĠAirport": 5175,
      "ipe": 5176,
      "ova": 5177,
      "Ġfailure": 5178,
      "ĠJeff": 5179,
      "ĠGaal": 5180,
      "ien": 5181,
      "So": 5182,
      "mother": 5183,
      "ĠBeck": 5184,
      "Ġlanguage": 5185,
      "Ġstret": 5186,
      "rec": 5187,
      "ON": 5188,
      "Ġpush": 5189,
      "Ġcelebrate": 5190,
      "Ġwinter": 5191,
      "Ġaband": 5192,
      "lers": 5193,
      "ĠEric": 5194,
      "Ġdirectly": 5195,
      "Ġnurs": 5196,
      "ĠClub": 5197,
      "Ġ37": 5198,
      "Ġassaul": 5199,
      "ĠVer": 5200,
      "pir": 5201,
      "Ġdrivers": 5202,
      "rist": 5203,
      "Every": 5204,
      "Ġmeasure": 5205,
      "Ġsche": 5206,
      "apping": 5207,
      "Ġconnection": 5208,
      "Ġsurprise": 5209,
      "Ġfuneral": 5210,
      "Ġtree": 5211,
      "ĠAttorney": 5212,
      "ĠMess": 5213,
      "bon": 5214,
      "ĠDie": 5215,
      "Ġuser": 5216,
      "Ġphotographs": 5217,
      "ĠHere": 5218,
      "ĠTre": 5219,
      "ĠNations": 5220,
      "Ġimpress": 5221,
      "Ġemotional": 5222,
      "Ġafford": 5223,
      "ĠFollow": 5224,
      "Ġstatus": 5225,
      "ials": 5226,
      "ĠCambridge": 5227,
      "Ġstress": 5228,
      "Ġdinner": 5229,
      "ĠNiger": 5230,
      "ĠThose": 5231,
      "Ġpromot": 5232,
      "Ġattract": 5233,
      "incess": 5234,
      "Ġclubs": 5235,
      "ĠOx": 5236,
      "Ġder": 5237,
      "ĠOh": 5238,
      "ĠBoy": 5239,
      "Ġbreast": 5240,
      "aching": 5241,
      "ulance": 5242,
      "atever": 5243,
      "Ġsympt": 5244,
      "99": 5245,
      "dd": 5246,
      "ĠDev": 5247,
      "OP": 5248,
      "Ġworried": 5249,
      "Ġunique": 5250,
      "Ġsupposed": 5251,
      "Ġeth": 5252,
      "utions": 5253,
      "Ġfeature": 5254,
      "Ġagent": 5255,
      "Ġaren": 5256,
      "cepted": 5257,
      "bing": 5258,
      "Ġir": 5259,
      "Ġhur": 5260,
      "ĠStr": 5261,
      "All": 5262,
      "Ġaccounts": 5263,
      "Ġcontroll": 5264,
      "ĠLewis": 5265,
      "Ġhasn": 5266,
      "ĠOut": 5267,
      "Ġrelated": 5268,
      "Ġdeclared": 5269,
      "Ġgrab": 5270,
      "ĠAndy": 5271,
      "Ġpolitics": 5272,
      "Ġaudience": 5273,
      "owned": 5274,
      "ĠKenned": 5275,
      "Ġlawsuit": 5276,
      "Ġproduction": 5277,
      "ĠMPs": 5278,
      "Ġkne": 5279,
      "ĠSav": 5280,
      "emen": 5281,
      "Ġallowing": 5282,
      "ĠMichel": 5283,
      "ĠBor": 5284,
      "Ġangry": 5285,
      "ottenham": 5286,
      "file": 5287,
      "Ġwake": 5288,
      "Ġentered": 5289,
      "Ġlawyers": 5290,
      "ĠMcD": 5291,
      "Ġwheel": 5292,
      "Ġunp": 5293,
      "Ġoverse": 5294,
      "Ġsecretary": 5295,
      "Ġwilling": 5296,
      "Ġmoments": 5297,
      "Ġtrend": 5298,
      "Ġguests": 5299,
      "olen": 5300,
      "kin": 5301,
      "Ġconclud": 5302,
      "Ġexcept": 5303,
      "Ġ2001": 5304,
      "rial": 5305,
      "lets": 5306,
      "gas": 5307,
      "rep": 5308,
      "cow": 5309,
      "Ġurged": 5310,
      "ĠMatt": 5311,
      "ĠReg": 5312,
      "Ġpen": 5313,
      "Ġstruggling": 5314,
      "Ġelectric": 5315,
      "Ġswe": 5316,
      "lig": 5317,
      "ĠYoung": 5318,
      "Ġthank": 5319,
      "Ġoffering": 5320,
      "80": 5321,
      "Ġproceed": 5322,
      "ihad": 5323,
      "ĠBu": 5324,
      "Pe": 5325,
      "ĠKevin": 5326,
      "ensions": 5327,
      "aming": 5328,
      "Ġwriting": 5329,
      "ĠInvestig": 5330,
      "Ġadditional": 5331,
      "alition": 5332,
      "CA": 5333,
      "isher": 5334,
      "phic": 5335,
      "ĠFergus": 5336,
      "alling": 5337,
      "Ġcommercial": 5338,
      "ulations": 5339,
      "Ġtragedy": 5340,
      "Ġmans": 5341,
      "Ġmum": 5342,
      "ua": 5343,
      "oves": 5344,
      "aza": 5345,
      "itals": 5346,
      "Ġtransport": 5347,
      "ĠBefore": 5348,
      "Ġcontest": 5349,
      "Ġcontent": 5350,
      "ĠKennedy": 5351,
      "Ġmanufact": 5352,
      "Ġfifth": 5353,
      "ĠHug": 5354,
      "Ġbright": 5355,
      "Ġreduce": 5356,
      "Ġimpl": 5357,
      "break": 5358,
      "ĠFamily": 5359,
      "makers": 5360,
      "Ġmention": 5361,
      "venue": 5362,
      "Ġgreater": 5363,
      "vis": 5364,
      "umn": 5365,
      "Ġsettle": 5366,
      "Ġble": 5367,
      "Ġdevices": 5368,
      "ĠMont": 5369,
      "BS": 5370,
      "antage": 5371,
      "Ġfrustr": 5372,
      "ĠTurkey": 5373,
      "Ġrecover": 5374,
      "Ġshots": 5375,
      "Ġagree": 5376,
      "ĠKelly": 5377,
      "ĠCEO": 5378,
      "Ġlog": 5379,
      "ĠFoot": 5380,
      "Ġcas": 5381,
      "Ġtargeted": 5382,
      "itan": 5383,
      "Ġindividuals": 5384,
      "Ġbackground": 5385,
      "ĠHolland": 5386,
      "Ġnecessary": 5387,
      "omes": 5388,
      "Ġnoted": 5389,
      "Ġwithd": 5390,
      "ĠAgency": 5391,
      "vention": 5392,
      "aughters": 5393,
      "mingham": 5394,
      "icit": 5395,
      "Ġlength": 5396,
      "Ġreturning": 5397,
      "Ġfrequ": 5398,
      "Ġcorner": 5399,
      "Ġsand": 5400,
      "illy": 5401,
      "Ġconfirm": 5402,
      "Ġassistant": 5403,
      "Ġsuffer": 5404,
      "rific": 5405,
      "These": 5406,
      "Ġsecure": 5407,
      "Ġgain": 5408,
      "Ġcircumstances": 5409,
      "Ġarr": 5410,
      "Ġfaith": 5411,
      "Ġduty": 5412,
      "Ġelections": 5413,
      "Ġluxury": 5414,
      "Ġvirus": 5415,
      "Ġgrew": 5416,
      "ĠAbd": 5417,
      "ĠBa": 5418,
      "Ġlaugh": 5419,
      "ĠCur": 5420,
      "apers": 5421,
      "Ġsky": 5422,
      "Ġpassenger": 5423,
      "Ġcriticism": 5424,
      "Ġincredible": 5425,
      "Ġfant": 5426,
      "Ġfalling": 5427,
      "ĠFound": 5428,
      "Ġmilitants": 5429,
      "ulf": 5430,
      "Ġinvolve": 5431,
      "ĠMaria": 5432,
      "ĠFerguson": 5433,
      "Ġsole": 5434,
      "ĠTottenham": 5435,
      "Ġess": 5436,
      "mes": 5437,
      "erous": 5438,
      "Ġstandards": 5439,
      "Ġsending": 5440,
      "Ġflu": 5441,
      "Ġreveal": 5442,
      "Ġregister": 5443,
      "Ġcomed": 5444,
      "ĠBirmingham": 5445,
      "Ġreceiving": 5446,
      "Ġtruth": 5447,
      "Ġcompleted": 5448,
      "Ã©": 5449,
      "Ġflights": 5450,
      "mission": 5451,
      "Tube": 5452,
      "Ġinvolving": 5453,
      "Ġbuildings": 5454,
      "ables": 5455,
      "Ġadults": 5456,
      "Ġsplit": 5457,
      "Ġhorse": 5458,
      "Ġquiet": 5459,
      "ĠSupreme": 5460,
      "ĠProt": 5461,
      "ĠÂ»": 5462,
      "Ġintroduced": 5463,
      "ores": 5464,
      "ĠMour": 5465,
      "Ġquestioned": 5466,
      "Ġaffect": 5467,
      "ĠRoberts": 5468,
      "ching": 5469,
      "Ġsession": 5470,
      "Ġprotection": 5471,
      "ĠLong": 5472,
      "keeper": 5473,
      "Ġfreedom": 5474,
      "Ġlimit": 5475,
      "ĠLind": 5476,
      "uche": 5477,
      "Ġinnoc": 5478,
      "rant": 5479,
      "iley": 5480,
      "Ġbeauty": 5481,
      "Ġmachine": 5482,
      "Ġheat": 5483,
      "ĠMir": 5484,
      "icken": 5485,
      "Ġ2002": 5486,
      "ĠBeach": 5487,
      "ĠFord": 5488,
      "Ġtemperatures": 5489,
      "Ġ2015": 5490,
      "An": 5491,
      "cri": 5492,
      "Ġbringing": 5493,
      "ashes": 5494,
      "ĠAv": 5495,
      "Ġfeels": 5496,
      "Ġinspired": 5497,
      "ĠConn": 5498,
      "ĠAh": 5499,
      "Ġfavourite": 5500,
      "Ġprinc": 5501,
      "Ġcart": 5502,
      "foot": 5503,
      "Ġmaybe": 5504,
      "Ġtiny": 5505,
      "ĠYouTube": 5506,
      "Ġenjoyed": 5507,
      "ĠChampionship": 5508,
      "idel": 5509,
      "coming": 5510,
      "ĠJose": 5511,
      "Ġdecide": 5512,
      "een": 5513,
      "Ġneighborhood": 5514,
      "tr": 5515,
      "ĠPalestin": 5516,
      "ctions": 5517,
      "Ġturning": 5518,
      "zona": 5519,
      "Ġsigning": 5520,
      "ĠAdam": 5521,
      "oner": 5522,
      "Ġ#": 5523,
      "ĠPutin": 5524,
      "long": 5525,
      "ĠSa": 5526,
      "Ġowned": 5527,
      "ĠInstead": 5528,
      "ĠRog": 5529,
      "ĠAg": 5530,
      "ĠLat": 5531,
      "Ġsust": 5532,
      "otic": 5533,
      "ĠDou": 5534,
      "Ġpurp": 5535,
      "Ġcrack": 5536,
      "Ġ500": 5537,
      "Ġunusual": 5538,
      "Ġrelatives": 5539,
      "Ġreaction": 5540,
      "quar": 5541,
      "Ġweapon": 5542,
      "ĠMorgan": 5543,
      "Ġlimited": 5544,
      "ĠMedical": 5545,
      "Ġcameras": 5546,
      "Ġregularly": 5547,
      "Ġgather": 5548,
      "abeth": 5549,
      "Ġresul": 5550,
      "uated": 5551,
      "ĠScottish": 5552,
      "fire": 5553,
      "iano": 5554,
      "Ġproviding": 5555,
      "ĠSteven": 5556,
      "ĠDes": 5557,
      "ĠCath": 5558,
      "ĠWalk": 5559,
      "Ġbow": 5560,
      "Ġfled": 5561,
      "ĠBow": 5562,
      "Ġactivities": 5563,
      "Ġoppon": 5564,
      "ulner": 5565,
      "Ġsurge": 5566,
      "Ġretired": 5567,
      "35": 5568,
      "ĠComp": 5569,
      "Â£": 5570,
      "Ġdaughters": 5571,
      "Ġsymptoms": 5572,
      "isa": 5573,
      "Ġkitchen": 5574,
      "ĠDirect": 5575,
      "ruption": 5576,
      "Ġ300": 5577,
      "Ġdad": 5578,
      "Ġcy": 5579,
      "Ġsystems": 5580,
      "ĠMount": 5581,
      "Ġdebt": 5582,
      "ĠMiller": 5583,
      "bro": 5584,
      "Ġcondem": 5585,
      "ipl": 5586,
      "22": 5587,
      "tery": 5588,
      "ĠCorn": 5589,
      "ĠZeal": 5590,
      "ĠNavy": 5591,
      "bel": 5592,
      "Ġded": 5593,
      "ĠForce": 5594,
      "Ġwounded": 5595,
      "oses": 5596,
      "onic": 5597,
      "Ġbear": 5598,
      "Ġagents": 5599,
      "Ġthreats": 5600,
      "uchess": 5601,
      "Ġaggress": 5602,
      "ĠPlay": 5603,
      "ĠRooney": 5604,
      "ĠInstitute": 5605,
      "Ġtight": 5606,
      "ĠJapanese": 5607,
      "Ġslight": 5608,
      "ĠSouthampton": 5609,
      "Ġbusinesses": 5610,
      "Ġpresence": 5611,
      "Ġdressed": 5612,
      "Ġ42": 5613,
      "Ġsurrounding": 5614,
      "azi": 5615,
      "Ġplot": 5616,
      "Ġeffects": 5617,
      "Ġstolen": 5618,
      "Ġ38": 5619,
      "Ġdeadly": 5620,
      "Ġactive": 5621,
      "ĠCub": 5622,
      "ĠEliz": 5623,
      "Ġdetect": 5624,
      "ĠMinistry": 5625,
      "Ġsoldier": 5626,
      "Ġpushed": 5627,
      "ĠBol": 5628,
      "aken": 5629,
      "Ġincreasingly": 5630,
      "Ġburn": 5631,
      "Ġknife": 5632,
      "kes": 5633,
      "arrass": 5634,
      "Ġentertain": 5635,
      "ĠRay": 5636,
      "thew": 5637,
      "Ġneighbour": 5638,
      "ĠArizona": 5639,
      "orado": 5640,
      "ĠEr": 5641,
      "ĠJam": 5642,
      "Ġhat": 5643,
      "Ġretail": 5644,
      "ĠEs": 5645,
      "Ġunderstood": 5646,
      "Ġholds": 5647,
      "Ġfighters": 5648,
      "Ġincome": 5649,
      "Ġlarger": 5650,
      "Ġinfluence": 5651,
      "Ġsuggests": 5652,
      "Ġ48": 5653,
      "Ġsight": 5654,
      "Ġleaves": 5655,
      "star": 5656,
      "ĠLo": 5657,
      "Ġsuspects": 5658,
      "ĠDam": 5659,
      "Ġprimary": 5660,
      "Ġnegoti": 5661,
      "itz": 5662,
      "Ġmouth": 5663,
      "Ġdrove": 5664,
      "Ġwore": 5665,
      "Ġanc": 5666,
      "ĠCard": 5667,
      "Ġspoken": 5668,
      "Ġconsult": 5669,
      "Ġexercise": 5670,
      "Ġmanagement": 5671,
      "ocal": 5672,
      "ette": 5673,
      "iat": 5674,
      "ĠZealand": 5675,
      "ĠHay": 5676,
      "ĠSol": 5677,
      "Ġ2000": 5678,
      "Ġton": 5679,
      "Ġbrut": 5680,
      "Ġoriginally": 5681,
      "ĠDNA": 5682,
      "ĠHuman": 5683,
      "Ġacqu": 5684,
      "Ġride": 5685,
      "ĠKong": 5686,
      "Ġremind": 5687,
      "war": 5688,
      "Ġkeen": 5689,
      "ucted": 5690,
      "ĠSing": 5691,
      "ĠYorks": 5692,
      "ining": 5693,
      "Ġdisappear": 5694,
      "ĠTour": 5695,
      "Ġdepart": 5696,
      "Ġsurvived": 5697,
      "ĠChildren": 5698,
      "Ġgat": 5699,
      "Ġhouses": 5700,
      "Ġauction": 5701,
      "Ġdamaged": 5702,
      "Ġshape": 5703,
      "Ġpolicies": 5704,
      "tered": 5705,
      "Ġsom": 5706,
      "wise": 5707,
      "Ġmonit": 5708,
      "Ġfailing": 5709,
      "ĠABC": 5710,
      "Ġmemory": 5711,
      "Ġargued": 5712,
      "Ġmigr": 5713,
      "Ġdestroyed": 5714,
      "ycle": 5715,
      "Ġbrothers": 5716,
      "Ġcomplaint": 5717,
      "Ġaffair": 5718,
      "ĠColl": 5719,
      "Ġmort": 5720,
      "aint": 5721,
      "Ġsubst": 5722,
      "rell": 5723,
      "Ġrank": 5724,
      "iami": 5725,
      "ader": 5726,
      "urse": 5727,
      "etts": 5728,
      "Ġemail": 5729,
      "Ġannouncement": 5730,
      "Ġbigger": 5731,
      "eared": 5732,
      "Ġurg": 5733,
      "ĠLake": 5734,
      "ĠMatthew": 5735,
      "aze": 5736,
      "appy": 5737,
      "Ġallows": 5738,
      "Ġ@": 5739,
      "Ġstrength": 5740,
      "Ġdebut": 5741,
      "Ġelder": 5742,
      "ademy": 5743,
      "ittle": 5744,
      "Ġsuppl": 5745,
      "Ġexperienced": 5746,
      "IN": 5747,
      "lv": 5748,
      "ĠCentre": 5749,
      "Ġinstit": 5750,
      "ĠDavis": 5751,
      "Ġsaved": 5752,
      "Ġproduce": 5753,
      "iversary": 5754,
      "How": 5755,
      "Ġdating": 5756,
      "ĠOlympics": 5757,
      "Ġhappens": 5758,
      "People": 5759,
      "ĠStadium": 5760,
      "la": 5761,
      "illance": 5762,
      "Ġestablish": 5763,
      "road": 5764,
      "afe": 5765,
      "Ġprofessor": 5766,
      "Ġexpress": 5767,
      "osure": 5768,
      "lected": 5769,
      "ios": 5770,
      "Ġrival": 5771,
      "Ġforg": 5772,
      "works": 5773,
      "ĠDiego": 5774,
      "Ġstores": 5775,
      "Ġvulner": 5776,
      "Ġepis": 5777,
      "ĠWhy": 5778,
      "Ġeasily": 5779,
      "agh": 5780,
      "ĠDuchess": 5781,
      "ĠGP": 5782,
      "ĠArgentina": 5783,
      "ivity": 5784,
      "ĠHart": 5785,
      "Ġham": 5786,
      "Ġchest": 5787,
      "iband": 5788,
      "gl": 5789,
      "Ġ1990": 5790,
      "ĠMa": 5791,
      "ĠFour": 5792,
      "Ġaltern": 5793,
      "ĠYorkshire": 5794,
      "wich": 5795,
      "Ġspecies": 5796,
      "FL": 5797,
      "Ġbabies": 5798,
      "ĠMourinho": 5799,
      "Ġcreating": 5800,
      "Ġfacility": 5801,
      "Ġeditor": 5802,
      "ĠAlan": 5803,
      "Ġshirt": 5804,
      "town": 5805,
      "Ġcontacted": 5806,
      "Ġlucky": 5807,
      "ĠOsc": 5808,
      "idden": 5809,
      "agers": 5810,
      "Ġparliament": 5811,
      "Ġoption": 5812,
      "Ġdeploy": 5813,
      "assy": 5814,
      "Ġextrem": 5815,
      "Ġfunding": 5816,
      "boy": 5817,
      "Ġdetermine": 5818,
      "Ġcolour": 5819,
      "utation": 5820,
      "ĠGal": 5821,
      "ĠInc": 5822,
      "Ġanalys": 5823,
      "Ġinitial": 5824,
      "ker": 5825,
      "icient": 5826,
      "Ġreading": 5827,
      "Ġpieces": 5828,
      "Ġadult": 5829,
      "Ġknowledge": 5830,
      "ryst": 5831,
      "izz": 5832,
      "Ġadvantage": 5833,
      "Ġmic": 5834,
      "ba": 5835,
      "Ġsought": 5836,
      "ĠHong": 5837,
      "ovel": 5838,
      "Ġpotentially": 5839,
      "ĠColorado": 5840,
      "va": 5841,
      "Ġproved": 5842,
      "ĠMiliband": 5843,
      "Ġlegislation": 5844,
      "inet": 5845,
      "ocking": 5846,
      "Ġaccepted": 5847,
      "ickets": 5848,
      "Ġsons": 5849,
      "ĠCosta": 5850,
      "Ġhappening": 5851,
      "anna": 5852,
      "Ġoccasion": 5853,
      "Ġbin": 5854,
      "Ġinterested": 5855,
      "urd": 5856,
      "Ġvess": 5857,
      "Ġhelicopter": 5858,
      "Ġbusy": 5859,
      "Ġwitnesses": 5860,
      "Ġrail": 5861,
      "Ġgovernor": 5862,
      "Ġdozens": 5863,
      "Ġsear": 5864,
      "ĠGary": 5865,
      "Ġmodels": 5866,
      "person": 5867,
      "Ġphones": 5868,
      "Ġathlet": 5869,
      "ĠEvans": 5870,
      "ĠHor": 5871,
      "ĠBelg": 5872,
      "elle": 5873,
      "Ġjet": 5874,
      "Ġplat": 5875,
      "ĠMiami": 5876,
      "Ġplanet": 5877,
      "Ġguns": 5878,
      "Ġclimate": 5879,
      "To": 5880,
      "leg": 5881,
      "ĠNorthern": 5882,
      "Ġongoing": 5883,
      "Ġqualif": 5884,
      "ano": 5885,
      "ĠSaud": 5886,
      "abor": 5887,
      "Ġacting": 5888,
      "usted": 5889,
      "Ġdesigner": 5890,
      "achus": 5891,
      "immer": 5892,
      "Ġmir": 5893,
      "Ġskills": 5894,
      "pet": 5895,
      "Ġdisaster": 5896,
      "Ġcauses": 5897,
      "ĠElizabeth": 5898,
      "Ġverd": 5899,
      "ospitals": 5900,
      "Ġlands": 5901,
      "Ġcommunities": 5902,
      "Ġattempts": 5903,
      "worth": 5904,
      "Ġstruggle": 5905,
      "Ġconversation": 5906,
      "asters": 5907,
      "Ġtribute": 5908,
      "ĠCal": 5909,
      "elli": 5910,
      "37": 5911,
      "Ġdecisions": 5912,
      "Ġdemocr": 5913,
      "Ġvast": 5914,
      "Ġbeaten": 5915,
      "Ġremark": 5916,
      "ortunately": 5917,
      "Ġpossibility": 5918,
      "Ġscience": 5919,
      "ĠParliament": 5920,
      "Ġlikes": 5921,
      "Ġanniversary": 5922,
      "IC": 5923,
      "hour": 5924,
      "ĠMun": 5925,
      "char": 5926,
      "Ġboot": 5927,
      "father": 5928,
      "Ġtast": 5929,
      "Ġprosecution": 5930,
      "ĠBurn": 5931,
      "part": 5932,
      "Ġbare": 5933,
      "ĠTrust": 5934,
      "Ġeastern": 5935,
      "Ġhousing": 5936,
      "Ġexhib": 5937,
      "Ġcrashed": 5938,
      "Ġgeneration": 5939,
      "Ġspirit": 5940,
      "Ġhal": 5941,
      "ĠHotel": 5942,
      "uana": 5943,
      "ban": 5944,
      "ĠGOP": 5945,
      "Ġsmoke": 5946,
      "Ġstone": 5947,
      "Ġrushed": 5948,
      "uate": 5949,
      "Ġpanel": 5950,
      "ĠFI": 5951,
      "Ġ195": 5952,
      "achusetts": 5953,
      "Ġrising": 5954,
      "Ġintended": 5955,
      "Ġdeputy": 5956,
      "ĠResearch": 5957,
      "hatt": 5958,
      "Ġchanging": 5959,
      "mosp": 5960,
      "Ġplastic": 5961,
      "Ġtells": 5962,
      "ĠRead": 5963,
      "agram": 5964,
      "Ġlocated": 5965,
      "Ġstadium": 5966,
      "Ġinquest": 5967,
      "Ġfatal": 5968,
      "rip": 5969,
      "Ġprosecutor": 5970,
      "iter": 5971,
      "ĠEverton": 5972,
      "aden": 5973,
      "Ġcollaps": 5974,
      "Ġkil": 5975,
      "standing": 5976,
      "ĠAtlanta": 5977,
      "Af": 5978,
      "isf": 5979,
      "Ġgolf": 5980,
      "obody": 5981,
      "ĠAbb": 5982,
      "Ġscream": 5983,
      "Ġidentity": 5984,
      "ĠDefense": 5985,
      "Ġaffil": 5986,
      "PR": 5987,
      "Ġplays": 5988,
      "half": 5989,
      "mad": 5990,
      "ĠArt": 5991,
      "ography": 5992,
      "sters": 5993,
      "ĠAli": 5994,
      "Ġweak": 5995,
      "Ġ43": 5996,
      "Ġliber": 5997,
      "Ġlearning": 5998,
      "Ġunlikely": 5999,
      "ĠDer": 6000,
      "ifer": 6001,
      "Ġmyster": 6002,
      "ias": 6003,
      "Ġbond": 6004,
      "reck": 6005,
      "Ġrecovered": 6006,
      "ijing": 6007,
      "Ġpunish": 6008,
      "Ġfindings": 6009,
      "Ġlying": 6010,
      "ocol": 6011,
      "aks": 6012,
      "Ġbreaking": 6013,
      "Ġidentify": 6014,
      "ĠDub": 6015,
      "Ġexclus": 6016,
      "Ġheads": 6017,
      "Ġobject": 6018,
      "asket": 6019,
      "Ġstandard": 6020,
      "Ġinquiry": 6021,
      "ĠDutch": 6022,
      "Ġunion": 6023,
      "employ": 6024,
      "Ġconducted": 6025,
      "ĠNA": 6026,
      "ijuana": 6027,
      "Ġopinion": 6028,
      "ĠUs": 6029,
      "Ġtempor": 6030,
      "EA": 6031,
      "etic": 6032,
      "Ġfilled": 6033,
      "Ġ39": 6034,
      "Ġvisiting": 6035,
      "Ġacknowled": 6036,
      "Ġdollars": 6037,
      "andez": 6038,
      "ossible": 6039,
      "Ġgathered": 6040,
      "Ġcorrect": 6041,
      "ronic": 6042,
      "Ġcloser": 6043,
      "Ġmayor": 6044,
      "Ġtears": 6045,
      "Ġcelebrates": 6046,
      "Ġut": 6047,
      "state": 6048,
      "Ġrough": 6049,
      "Ġassess": 6050,
      "ĠSnow": 6051,
      "Ġbeating": 6052,
      "ĠRonaldo": 6053,
      "Ġreact": 6054,
      "enders": 6055,
      "ĠPac": 6056,
      "ĠSuarez": 6057,
      "Ġambulance": 6058,
      "ĠPortug": 6059,
      "ĠIv": 6060,
      "Ġtort": 6061,
      "ĠIraqi": 6062,
      "Ġscheme": 6063,
      "osis": 6064,
      "Ġfeatured": 6065,
      "ĠMassachusetts": 6066,
      "Ġbars": 6067,
      "sts": 6068,
      "Ġ44": 6069,
      "istol": 6070,
      "Ġrefuge": 6071,
      "Ġsurprised": 6072,
      "Al": 6073,
      "Ġsparked": 6074,
      "ĠCru": 6075,
      "ĠCommun": 6076,
      "Ġdefinitely": 6077,
      "ĠPan": 6078,
      "Ġrejected": 6079,
      "Ġpublicly": 6080,
      "Ġperman": 6081,
      "Ġimmediate": 6082,
      "ĠYet": 6083,
      "Ġproposed": 6084,
      "Ġvice": 6085,
      "vey": 6086,
      "Ġnations": 6087,
      "ĠOhio": 6088,
      "Ġembarrass": 6089,
      "ĠFoundation": 6090,
      "ni": 6091,
      "Ġfallen": 6092,
      "ĠHod": 6093,
      "rivals": 6094,
      "Ġprovince": 6095,
      "Ġfocused": 6096,
      "bourne": 6097,
      "pper": 6098,
      "Ġkiller": 6099,
      "eren": 6100,
      "Ġmeat": 6101,
      "Ġegg": 6102,
      "Ġblame": 6103,
      "ĠAnt": 6104,
      "Ġjournalists": 6105,
      "Ġpal": 6106,
      "Ġletters": 6107,
      "ĠTen": 6108,
      "Ġnotice": 6109,
      "ĠAnderson": 6110,
      "Ġchoose": 6111,
      "Ġteachers": 6112,
      "ipping": 6113,
      "Ġbehavior": 6114,
      "Ġunve": 6115,
      "Ġclash": 6116,
      "Ġhistoric": 6117,
      "Ġmistake": 6118,
      "ĠMcG": 6119,
      "Ġsorry": 6120,
      "bell": 6121,
      "ĠSwed": 6122,
      "Ġjournalist": 6123,
      "Ġorganiz": 6124,
      "ĠCole": 6125,
      "opp": 6126,
      "Ġcup": 6127,
      "Ġmostly": 6128,
      "ĠHarris": 6129,
      "Ġinvestment": 6130,
      "Ġsmaller": 6131,
      "Ġclient": 6132,
      "Ġroute": 6133,
      "Ġrum": 6134,
      "oom": 6135,
      "Ġresources": 6136,
      "Ġdeveloping": 6137,
      "Ġcoc": 6138,
      "usion": 6139,
      "Ġdegree": 6140,
      "Ġencoun": 6141,
      "Ġtravelling": 6142,
      "ĠWell": 6143,
      "Ġtragic": 6144,
      "Ġconservative": 6145,
      "ĠOk": 6146,
      "Ġriver": 6147,
      "ĠCross": 6148,
      "ĠBern": 6149,
      "rah": 6150,
      "Ġdelivered": 6151,
      "Ġwine": 6152,
      "Ġnoticed": 6153,
      "Ġcook": 6154,
      "Ġrelax": 6155,
      "Ġtaxpay": 6156,
      "Ġstayed": 6157,
      "ĠStaff": 6158,
      "Ġevac": 6159,
      "Ġtransform": 6160,
      "olk": 6161,
      "eme": 6162,
      "Ġflo": 6163,
      "Ġstruggled": 6164,
      "Ġwidely": 6165,
      "Ġtele": 6166,
      "Ġperformed": 6167,
      "Ġcorpor": 6168,
      "hattan": 6169,
      "Ġconsequ": 6170,
      "Ġprec": 6171,
      "Ġticket": 6172,
      "Ġremote": 6173,
      "ĠHamilton": 6174,
      "Ġsexually": 6175,
      "Ġpassing": 6176,
      "Ġtum": 6177,
      "Ġcomplaints": 6178,
      "ĠMand": 6179,
      "Ġprosp": 6180,
      "Ġpresented": 6181,
      "ĠNBC": 6182,
      "eph": 6183,
      "Ġearned": 6184,
      "ĠOnce": 6185,
      "Ġbasis": 6186,
      "omin": 6187,
      "ĠCab": 6188,
      "Ġchances": 6189,
      "ĠAmong": 6190,
      "Ġoptions": 6191,
      "istor": 6192,
      "ĠAllen": 6193,
      "Ġinches": 6194,
      "Ġlegend": 6195,
      "ĠBridge": 6196,
      "ĠFeder": 6197,
      "ĠSaudi": 6198,
      "Ġchallenges": 6199,
      "ĠManhattan": 6200,
      "Ġcoverage": 6201,
      "ĠFin": 6202,
      "Ġlargely": 6203,
      "Ġrooms": 6204,
      "borne": 6205,
      "Ġnar": 6206,
      "Ġ46": 6207,
      "hi": 6208,
      "Ġpled": 6209,
      "Ġparent": 6210,
      "ĠSter": 6211,
      "Ġextr": 6212,
      "Ġincidents": 6213,
      "Ġjoint": 6214,
      "ĠMoscow": 6215,
      "Ġlights": 6216,
      "One": 6217,
      "Ġbroadcast": 6218,
      "Ġacts": 6219,
      "Ġcandidates": 6220,
      "Ġfought": 6221,
      "ĠTw": 6222,
      "ĠCook": 6223,
      "ĠIan": 6224,
      "Ġoverall": 6225,
      "Ġcells": 6226,
      "Ġfilms": 6227,
      "Ġexchange": 6228,
      "imp": 6229,
      "Ġmethod": 6230,
      "ĠBus": 6231,
      "Ġpassion": 6232,
      "ĠLady": 6233,
      "Ġblow": 6234,
      "ĠHenry": 6235,
      "Ġlunch": 6236,
      "Ġcommand": 6237,
      "umped": 6238,
      "roat": 6239,
      "Ġgreatest": 6240,
      "owell": 6241,
      "ĠHun": 6242,
      "ĠSquare": 6243,
      "Ġmusc": 6244,
      "Ġpersonnel": 6245,
      "Ġ55": 6246,
      "ingly": 6247,
      "Ġtask": 6248,
      "Ġsurveillance": 6249,
      "American": 6250,
      "Ġconsist": 6251,
      "Ġviewers": 6252,
      "ĠSea": 6253,
      "Ġfunds": 6254,
      "ĠFrancisco": 6255,
      "ĠMichelle": 6256,
      "Ġpossibly": 6257,
      "Ġstick": 6258,
      "Ġoperating": 6259,
      "Ġtim": 6260,
      "Ġpromised": 6261,
      "Ġ1980": 6262,
      "agement": 6263,
      "Ġprefer": 6264,
      "ĠMayor": 6265,
      "Ġairline": 6266,
      "Ġwhatever": 6267,
      "Ġwal": 6268,
      "eline": 6269,
      "ĠBarb": 6270,
      "Ġstaying": 6271,
      "away": 6272,
      "ko": 6273,
      "Ġtesting": 6274,
      "Ġalb": 6275,
      "related": 6276,
      "Ġlanding": 6277,
      "Ġemployee": 6278,
      "ĠBeijing": 6279,
      "ĠJay": 6280,
      "Ġ08": 6281,
      "Ġresort": 6282,
      "iated": 6283,
      "Ġweigh": 6284,
      "astern": 6285,
      "sec": 6286,
      "Ġrebels": 6287,
      "minute": 6288,
      "Ġmagn": 6289,
      "Ġpainting": 6290,
      "Ġobviously": 6291,
      "Ġmurdered": 6292,
      "Ġequal": 6293,
      "Ġroof": 6294,
      "Ġnor": 6295,
      "Ġnumerous": 6296,
      "Ġtomorrow": 6297,
      "ĠPrincess": 6298,
      "Ġhousehold": 6299,
      "ĠLibya": 6300,
      "Ġterrit": 6301,
      "ext": 6302,
      "iform": 6303,
      "Ġroutine": 6304,
      "47": 6305,
      "Ġhoped": 6306,
      "ĠFort": 6307,
      "Ġcompens": 6308,
      "Ġburg": 6309,
      "Ġnurse": 6310,
      "ece": 6311,
      "IP": 6312,
      "Ġweren": 6313,
      "Ġpoliticians": 6314,
      "Ġsup": 6315,
      "Ġshar": 6316,
      "Ġrobber": 6317,
      "Ġsquare": 6318,
      "weight": 6319,
      "Ġadvoc": 6320,
      "Ġtall": 6321,
      "uster": 6322,
      "Ġagencies": 6323,
      "Ġstock": 6324,
      "Ġseats": 6325,
      "eland": 6326,
      "estyle": 6327,
      "Ġgrandmother": 6328,
      "Ġsupported": 6329,
      "ĠLar": 6330,
      "Ġclothing": 6331,
      "Ġwrite": 6332,
      "Ġtrees": 6333,
      "inate": 6334,
      "ounced": 6335,
      "ÂłÂłÂłÂłÂłÂłÂłÂł": 6336,
      "Ġtourists": 6337,
      "Ġdriven": 6338,
      "Ġatmosp": 6339,
      "Ġbuying": 6340,
      "cont": 6341,
      "Ġ2016": 6342,
      "Ġguys": 6343,
      "ounted": 6344,
      "Ġoccup": 6345,
      "ĠRock": 6346,
      "ĠTown": 6347,
      "ĠKir": 6348,
      "Ġhelps": 6349,
      "iable": 6350,
      "ĠLanc": 6351,
      "Ġbull": 6352,
      "Ġdivorce": 6353,
      "Ġcalm": 6354,
      "Ġedge": 6355,
      "ita": 6356,
      "enses": 6357,
      "ĠRights": 6358,
      "strong": 6359,
      "ĠLike": 6360,
      "Ġconsidering": 6361,
      "Ġmountain": 6362,
      "Ġsemi": 6363,
      "ĠCooper": 6364,
      "ĠFootball": 6365,
      "Ġchain": 6366,
      "ĠAsia": 6367,
      "Ġmax": 6368,
      "ateg": 6369,
      "300": 6370,
      "ĠSheriff": 6371,
      "Ġ47": 6372,
      "just": 6373,
      "Ġvulnerable": 6374,
      "mitted": 6375,
      "Ġheavily": 6376,
      "Ġyourself": 6377,
      "Ġpossession": 6378,
      "Ġstuck": 6379,
      "ĠLy": 6380,
      "Ġcelebrity": 6381,
      "Ġmetal": 6382,
      "Ġven": 6383,
      "ĠOnly": 6384,
      "centre": 6385,
      "ĠPhill": 6386,
      "Ġblamed": 6387,
      "Ġwelcome": 6388,
      "Ġremaining": 6389,
      "Ġheaded": 6390,
      "Ġconstruction": 6391,
      "Ġsection": 6392,
      "Ġgrown": 6393,
      "ĠAirl": 6394,
      "Ġthrown": 6395,
      "Ġveteran": 6396,
      "Ġprofile": 6397,
      "Ġverdict": 6398,
      "ĠVilla": 6399,
      "Ġproperly": 6400,
      "Ġheading": 6401,
      "reek": 6402,
      "Ġdistrib": 6403,
      "Ġfiref": 6404,
      "ĠAbu": 6405,
      "ench": 6406,
      "Ġauthority": 6407,
      "ĠFab": 6408,
      "ogue": 6409,
      "Ġrestr": 6410,
      "Ġhole": 6411,
      "inct": 6412,
      "Ġexcited": 6413,
      "Ġcombat": 6414,
      "era": 6415,
      "ĠJac": 6416,
      "Ġwaters": 6417,
      "Ġdance": 6418,
      "ĠTs": 6419,
      "Ġprivacy": 6420,
      "Ġinvestigate": 6421,
      "Ġbathroom": 6422,
      "Ġfilmed": 6423,
      "istics": 6424,
      "Ġaccomp": 6425,
      "Ġlanded": 6426,
      "Ġcards": 6427,
      "ulous": 6428,
      "ĠTop": 6429,
      "ĠSher": 6430,
      "Ġcomplained": 6431,
      "Ġ(Â£": 6432,
      "Ġ41": 6433,
      "esty": 6434,
      "Ġanonym": 6435,
      "Ġpointed": 6436,
      "irts": 6437,
      "ĠRa": 6438,
      "ĠMilan": 6439,
      "ĠInstagram": 6440,
      "With": 6441,
      "ĠAlexander": 6442,
      "Ġdismissed": 6443,
      "ĠCra": 6444,
      "Ġdistance": 6445,
      "uts": 6446,
      "Ġactivists": 6447,
      "ĠUp": 6448,
      "Ġtend": 6449,
      "ĠCare": 6450,
      "ĠLet": 6451,
      "ĠDuke": 6452,
      "earing": 6453,
      "ĠNat": 6454,
      "ĠMarc": 6455,
      "Ġtrained": 6456,
      "Ġbelief": 6457,
      "Ġlots": 6458,
      "ĠLau": 6459,
      "Ġcivilians": 6460,
      "Ġshoes": 6461,
      "ĠBrian": 6462,
      "rified": 6463,
      "Ġoffences": 6464,
      "ĠLeices": 6465,
      "Ġadds": 6466,
      "whel": 6467,
      "ĠHamp": 6468,
      "ĠValley": 6469,
      "point": 6470,
      "Ġdrag": 6471,
      "Ġmuseum": 6472,
      "Ġqual": 6473,
      "Ġsupply": 6474,
      "Ġburied": 6475,
      "Ġsav": 6476,
      "Ġmemorial": 6477,
      "ĠLam": 6478,
      "stein": 6479,
      "ĠMessi": 6480,
      "agon": 6481,
      "ĠChannel": 6482,
      "Ġscale": 6483,
      "ĠRoss": 6484,
      "stone": 6485,
      "Ġretire": 6486,
      "Ġmarijuana": 6487,
      "sewhere": 6488,
      "ĠMexican": 6489,
      "Ġstrategy": 6490,
      "ĠNFL": 6491,
      "Ġroads": 6492,
      "Ġeverybody": 6493,
      "Ġeur": 6494,
      "fford": 6495,
      "iamond": 6496,
      "Ġtalked": 6497,
      "Ġnone": 6498,
      "Ġhonor": 6499,
      "Ġstudies": 6500,
      "Ġhall": 6501,
      "assador": 6502,
      "Ġcritics": 6503,
      "abled": 6504,
      "Ġkiss": 6505,
      "Ġempt": 6506,
      "ĠMars": 6507,
      "Ġyellow": 6508,
      "24": 6509,
      "ĠSant": 6510,
      "ĠBuck": 6511,
      "Ġdetail": 6512,
      "icip": 6513,
      "Ġprin": 6514,
      "ordon": 6515,
      "ĠIll": 6516,
      "ĠBet": 6517,
      "Ġbanks": 6518,
      "ĠWork": 6519,
      "igned": 6520,
      "Ġrom": 6521,
      "Ġteenage": 6522,
      "ĠWomen": 6523,
      "ĠSterling": 6524,
      "BA": 6525,
      "Ġmaster": 6526,
      "hy": 6527,
      "ĠUt": 6528,
      "Ġchose": 6529,
      "opher": 6530,
      "Ġliter": 6531,
      "Ġnegative": 6532,
      "Ġintent": 6533,
      "Ġjack": 6534,
      "Ġgym": 6535,
      "Ġaccus": 6536,
      "Ġhumans": 6537,
      "burgh": 6538,
      "ĠWho": 6539,
      "Ġreputation": 6540,
      "agger": 6541,
      "Ġstunning": 6542,
      "ansas": 6543,
      "Ġrevel": 6544,
      "ishes": 6545,
      "ĠHou": 6546,
      "ĠCC": 6547,
      "Ġinfection": 6548,
      "asy": 6549,
      "ĠPublic": 6550,
      "ĠGraham": 6551,
      "arre": 6552,
      "Ġporn": 6553,
      "Ġcapture": 6554,
      "oli": 6555,
      "Ġdoors": 6556,
      "Ġprograms": 6557,
      "tha": 6558,
      "ĠWayne": 6559,
      "Ġimpressive": 6560,
      "arch": 6561,
      "ellor": 6562,
      "ĠAssociated": 6563,
      "Ġswimming": 6564,
      "style": 6565,
      "ĠSix": 6566,
      "emic": 6567,
      "ĠFIFA": 6568,
      "ĠOscar": 6569,
      "stron": 6570,
      "Ġreplaced": 6571,
      "ĠCharlie": 6572,
      "ĠRel": 6573,
      "Ġmap": 6574,
      "Ġclimb": 6575,
      "ĠDoct": 6576,
      "ĠIranian": 6577,
      "Ġ150": 6578,
      "fast": 6579,
      "Ġplatform": 6580,
      "ĠPatrick": 6581,
      "Ġplenty": 6582,
      "oster": 6583,
      "rystal": 6584,
      "week": 6585,
      "Ġ65": 6586,
      "ĠJane": 6587,
      "Ġvirt": 6588,
      "Ġslam": 6589,
      "Ġuniform": 6590,
      "Ġtennis": 6591,
      "Ġrich": 6592,
      "urban": 6593,
      "ĠLas": 6594,
      "sylv": 6595,
      "atto": 6596,
      "Ġseized": 6597,
      "Ġterrorism": 6598,
      "Ġanger": 6599,
      "RA": 6600,
      "acle": 6601,
      "Ġthoughts": 6602,
      "Ġparking": 6603,
      "ogan": 6604,
      "ugby": 6605,
      "Ġeasier": 6606,
      "rence": 6607,
      "elfare": 6608,
      "ache": 6609,
      "Ġspring": 6610,
      "Ġsomebody": 6611,
      "ĠCat": 6612,
      "Ġdisorder": 6613,
      "Ġmotiv": 6614,
      "arant": 6615,
      "Ġraising": 6616,
      "Ġreferred": 6617,
      "Ġassociated": 6618,
      "ĠJournal": 6619,
      "rees": 6620,
      "acks": 6621,
      "Ġtea": 6622,
      "Ġscenes": 6623,
      "ĠBul": 6624,
      "Ġvoted": 6625,
      "Ġinterests": 6626,
      "Ġcourts": 6627,
      "Ġabandoned": 6628,
      "lines": 6629,
      "market": 6630,
      "Ġisol": 6631,
      "sylvania": 6632,
      "Ġbacked": 6633,
      "ĠJosh": 6634,
      "Ġtradition": 6635,
      "Ġcontroversy": 6636,
      "Ġhospitals": 6637,
      "Ġbags": 6638,
      "Ġdesperate": 6639,
      "look": 6640,
      "Ġcoin": 6641,
      "Ġlady": 6642,
      "Ġpension": 6643,
      "Ġdeeply": 6644,
      "Ġarrive": 6645,
      "Ġtargets": 6646,
      "ĠMax": 6647,
      "ria": 6648,
      "ĠCrime": 6649,
      "Ġnovel": 6650,
      "Ġtraum": 6651,
      "Ġimpossible": 6652,
      "27": 6653,
      "Ġremarks": 6654,
      "inating": 6655,
      "ĠKerry": 6656,
      "Ġ49": 6657,
      "Ġasp": 6658,
      "Ġfounder": 6659,
      "Ġelderly": 6660,
      "Ġrealised": 6661,
      "hens": 6662,
      "Ġalbum": 6663,
      "ĠMalays": 6664,
      "Ġestablished": 6665,
      "ĠAbout": 6666,
      "Ġwonderful": 6667,
      "Ġdirection": 6668,
      "Ġexposed": 6669,
      "Ġ75": 6670,
      "ĠLeon": 6671,
      "Ġbills": 6672,
      "ĠSomal": 6673,
      "Ġopinions": 6674,
      "Ġprisoners": 6675,
      "ervation": 6676,
      "Ġtie": 6677,
      "ĠÂłĠÂłĠÂłĠÂł": 6678,
      "ĠUN": 6679,
      "Ġgrounds": 6680,
      "Ġtrail": 6681,
      "har": 6682,
      "Ġworldwide": 6683,
      "afi": 6684,
      "Ġdisappeared": 6685,
      "quarters": 6686,
      "Ġpupils": 6687,
      "Ġtested": 6688,
      "ye": 6689,
      "Ġmer": 6690,
      "Ġtun": 6691,
      "Ġgoalkeeper": 6692,
      "Ġgranted": 6693,
      "place": 6694,
      "New": 6695,
      "ĠMuseum": 6696,
      "yr": 6697,
      "ĠWatson": 6698,
      "Ġterrorists": 6699,
      "ĠPennsylvania": 6700,
      "Ġbottle": 6701,
      "ĠShow": 6702,
      "Ġsymb": 6703,
      "hand": 6704,
      "Ġcontinuing": 6705,
      "Ġmedic": 6706,
      "Ġcomfortable": 6707,
      "Ġjur": 6708,
      "Ġbridge": 6709,
      "Ġtruly": 6710,
      "ĠTurk": 6711,
      "adian": 6712,
      "Ġstom": 6713,
      "****": 6714,
      "ointment": 6715,
      "ĠStan": 6716,
      "Ġthinks": 6717,
      "Ġsupporting": 6718,
      "Ġgall": 6719,
      "Ġrat": 6720,
      "ĠLaur": 6721,
      "Ġreduced": 6722,
      "adow": 6723,
      "Ġstabbed": 6724,
      "Ġtact": 6725,
      "ĠMu": 6726,
      "Ġconcluded": 6727,
      "Ġarrival": 6728,
      "ĠAirlines": 6729,
      "Ġappropriate": 6730,
      "ĠJoseph": 6731,
      "Ġlie": 6732,
      "âĢī": 6733,
      "Ġresol": 6734,
      "erves": 6735,
      "Ġclosely": 6736,
      "ĠTele": 6737,
      "Ġsees": 6738,
      "ordinary": 6739,
      "ĠRoman": 6740,
      "Ġsubs": 6741,
      "Ġ1970": 6742,
      "Ġcoffee": 6743,
      "ĠIrish": 6744,
      "acity": 6745,
      "Ġtherap": 6746,
      "ĠJason": 6747,
      "Ġapproved": 6748,
      "Ġstatements": 6749,
      "Ġawarded": 6750,
      "Ġmicro": 6751,
      "Ġ09": 6752,
      "Ġstepped": 6753,
      "Ġdozen": 6754,
      "SP": 6755,
      "iev": 6756,
      "Ġsilver": 6757,
      "Ġtermin": 6758,
      "rome": 6759,
      "Ġnose": 6760,
      "fall": 6761,
      "ĠStill": 6762,
      "Ġelected": 6763,
      "ĠKhan": 6764,
      "Is": 6765,
      "ĠFederal": 6766,
      "Ġdrawn": 6767,
      "ĠBest": 6768,
      "Ġlisted": 6769,
      "ĠFern": 6770,
      "Ġzone": 6771,
      "rum": 6772,
      "lan": 6773,
      "oard": 6774,
      "Ġsurvive": 6775,
      "centr": 6776,
      "Ġinsist": 6777,
      "ĠVegas": 6778,
      "Ġunless": 6779,
      "ĠMit": 6780,
      "called": 6781,
      "Ġtroub": 6782,
      "!\"": 6783,
      "ĠRick": 6784,
      "Ġargument": 6785,
      "osen": 6786,
      "ĠMen": 6787,
      "ibr": 6788,
      "Ġhate": 6789,
      "ĠTerry": 6790,
      "awn": 6791,
      "Ġterrible": 6792,
      "mph": 6793,
      "Ġfriendly": 6794,
      "ĠSwan": 6795,
      "ĠLife": 6796,
      "ĠOur": 6797,
      "Ġatmosphere": 6798,
      "Ġconviction": 6799,
      "Ġmedal": 6800,
      "Ġprompted": 6801,
      "ĠBru": 6802,
      "Ġdiscovery": 6803,
      "ila": 6804,
      "21": 6805,
      "allas": 6806,
      "Ġreplied": 6807,
      "Ġstrikes": 6808,
      "Ġoutbreak": 6809,
      "Ġrisks": 6810,
      "Ġforget": 6811,
      "Ġoffensive": 6812,
      "Ġabroad": 6813,
      "ĠGreg": 6814,
      "Ġthreatening": 6815,
      "Ġdefendant": 6816,
      "Ġbalance": 6817,
      "ĠOxford": 6818,
      "care": 6819,
      "Ġcoalition": 6820,
      "Ġcustomer": 6821,
      "ĠUSA": 6822,
      "ĠColomb": 6823,
      "Ġcollapsed": 6824,
      "ĠArm": 6825,
      "Ġrelief": 6826,
      "Ġapproached": 6827,
      "Ġstomach": 6828,
      "Ġflew": 6829,
      "ĠStand": 6830,
      "Ġsolution": 6831,
      "Ġwinds": 6832,
      "Ġnotes": 6833,
      "Ġconsumers": 6834,
      "ports": 6835,
      "Ġlocked": 6836,
      "Ġstring": 6837,
      "Ġhighl": 6838,
      "ĠAlso": 6839,
      "Ġknee": 6840,
      "Ġcongress": 6841,
      "Ġtestified": 6842,
      "Ġsatisf": 6843,
      "ĠQueens": 6844,
      "ĠJonathan": 6845,
      "Ġpin": 6846,
      "Ġdiscipl": 6847,
      "ĠSpace": 6848,
      "Ġexplosion": 6849,
      "wall": 6850,
      "ĠOrgan": 6851,
      "obs": 6852,
      "ĠJr": 6853,
      "Ġ07": 6854,
      "ĠMuslims": 6855,
      "AR": 6856,
      "Ġunemploy": 6857,
      "Ġ400": 6858,
      "Ġworry": 6859,
      "Ġoverwhel": 6860,
      "Ġscre": 6861,
      "ĠAsked": 6862,
      "ĠEdward": 6863,
      "Ġknowing": 6864,
      "Ġunclear": 6865,
      "ĠAndre": 6866,
      "Ġsweet": 6867,
      "ĠHouston": 6868,
      "eding": 6869,
      "Ġinternal": 6870,
      "Ġtor": 6871,
      "ira": 6872,
      "Ġcraz": 6873,
      "ĠNev": 6874,
      "aser": 6875,
      "Ġstarts": 6876,
      "bec": 6877,
      "Ġpregnancy": 6878,
      "Ġwaste": 6879,
      "ĠRobinson": 6880,
      "Ġimagine": 6881,
      "ĠIndones": 6882,
      "Ġvital": 6883,
      "ancellor": 6884,
      "Ġbasic": 6885,
      "agan": 6886,
      "igaret": 6887,
      "ĠCop": 6888,
      "elson": 6889,
      "Ġencourage": 6890,
      "ĠSanta": 6891,
      "iot": 6892,
      "Ġsurviv": 6893,
      "ta": 6894,
      "ĠSecond": 6895,
      "ĠWild": 6896,
      "uez": 6897,
      "Ġslightly": 6898,
      "Ġment": 6899,
      "gun": 6900,
      "ouri": 6901,
      "Ġcanc": 6902,
      "Ġcouples": 6903,
      "ĠAshley": 6904,
      "ĠTeam": 6905,
      "Ġprocedure": 6906,
      "olds": 6907,
      "rich": 6908,
      "Ġca": 6909,
      "Ġinte": 6910,
      "Ġcriticised": 6911,
      "23": 6912,
      "Ġconcentr": 6913,
      "umber": 6914,
      "gment": 6915,
      "Ġcooper": 6916,
      "90": 6917,
      "ĠCCTV": 6918,
      "Ġhadn": 6919,
      "ĠIts": 6920,
      "rapped": 6921,
      "Ġprovides": 6922,
      "Ġtickets": 6923,
      "Ġcutting": 6924,
      "ĠWenger": 6925,
      "ĠBack": 6926,
      "Ġ06": 6927,
      "ĠLittle": 6928,
      "Ġvacc": 6929,
      "brit": 6930,
      "ĠLove": 6931,
      "ĠGaza": 6932,
      "Ġsolely": 6933,
      "Ġtied": 6934,
      "ĠHern": 6935,
      "heast": 6936,
      "orders": 6937,
      "Ġdry": 6938,
      "azz": 6939,
      "Ġ1999": 6940,
      "ords": 6941,
      "Ġsanctions": 6942,
      "Ġrivals": 6943,
      "Ġfollowers": 6944,
      "lah": 6945,
      "ĠBell": 6946,
      "mo": 6947,
      "Ġtoile": 6948,
      "ĠLev": 6949,
      "ĠBecause": 6950,
      "Ġbehalf": 6951,
      "Ġexplains": 6952,
      "ĠChristie": 6953,
      "ishop": 6954,
      "Ġmothers": 6955,
      "Ġfeared": 6956,
      "ĠSever": 6957,
      "Ġsatell": 6958,
      "Ġwave": 6959,
      "Ġnewly": 6960,
      "ĠEmma": 6961,
      "Ġrocket": 6962,
      "Ġtackle": 6963,
      "ington": 6964,
      "44": 6965,
      "Ġsuddenly": 6966,
      "Ġembr": 6967,
      "ĠFred": 6968,
      "Ġrecalled": 6969,
      "Ġdealing": 6970,
      "Ġsoftware": 6971,
      "water": 6972,
      "ĠChristopher": 6973,
      "Ġdevastated": 6974,
      "ĠFriend": 6975,
      "400": 6976,
      "Ġheight": 6977,
      "Ġappearances": 6978,
      "Ġoutrage": 6979,
      "ifying": 6980,
      "piracy": 6981,
      "Ġmoon": 6982,
      "illiant": 6983,
      "Ġunderstanding": 6984,
      "ĠJennifer": 6985,
      "ĠGall": 6986,
      "ĠFollowing": 6987,
      "uties": 6988,
      "okes": 6989,
      "ĠCatholic": 6990,
      "ĠPhilipp": 6991,
      "Ġ52": 6992,
      "ĠAnton": 6993,
      "ĠSpec": 6994,
      "Ġbadly": 6995,
      "Ġtalent": 6996,
      "ĠGulf": 6997,
      "ĠZimmer": 6998,
      "brities": 6999,
      "annah": 7000,
      "Ġimmigrants": 7001,
      "iration": 7002,
      "ompson": 7003,
      "Ġrapid": 7004,
      "Ġunknown": 7005,
      "Ġdiscl": 7006,
      "Ġshocking": 7007,
      "ĠDirector": 7008,
      "Ġpose": 7009,
      "ĠRodgers": 7010,
      "Ġdiscover": 7011,
      "erted": 7012,
      "Ġsets": 7013,
      "IV": 7014,
      "Ġsurrounded": 7015,
      "ĠMoore": 7016,
      "ĠMelbourne": 7017,
      "ĠNas": 7018,
      "ĠWind": 7019,
      "ĠScient": 7020,
      "oral": 7021,
      "apse": 7022,
      "Ġresist": 7023,
      "Ġlies": 7024,
      "ĠMod": 7025,
      "dy": 7026,
      "Ġassistance": 7027,
      "Ġlaid": 7028,
      "ĠLuis": 7029,
      "Ġhonest": 7030,
      "Ġultimately": 7031,
      "ĠGun": 7032,
      "ĠLeicester": 7033,
      "bu": 7034,
      "Ġjew": 7035,
      "Ġfro": 7036,
      "ĠGov": 7037,
      "Ġapprec": 7038,
      "orous": 7039,
      "ancer": 7040,
      "Ġtestim": 7041,
      "ĠMichigan": 7042,
      "emble": 7043,
      "Ġsubsequ": 7044,
      "Ġlifestyle": 7045,
      "Ġprepare": 7046,
      "Ġproposal": 7047,
      "Ġcocaine": 7048,
      "Ġcock": 7049,
      "Ġstro": 7050,
      "Ġpermission": 7051,
      "inations": 7052,
      "aska": 7053,
      "Ġdeliber": 7054,
      "Le": 7055,
      "Ġinvited": 7056,
      "Ġdu": 7057,
      "ĠCraig": 7058,
      "nic": 7059,
      "Ġreflect": 7060,
      "ĠGordon": 7061,
      "Ġpit": 7062,
      "itors": 7063,
      "26": 7064,
      "Ġepisode": 7065,
      "ĠYemen": 7066,
      "Ġenjoying": 7067,
      "Some": 7068,
      "atherine": 7069,
      "Ġancient": 7070,
      "ĠSee": 7071,
      "ĠUkrain": 7072,
      "Ġlabor": 7073,
      "ĠWalker": 7074,
      "ĠCanadian": 7075,
      "Ġhitting": 7076,
      "Ġplus": 7077,
      "ĠSorry": 7078,
      "Ġjoining": 7079,
      "Ġaimed": 7080,
      "Ġwound": 7081,
      "raid": 7082,
      "Ġped": 7083,
      "ĠExper": 7084,
      "roc": 7085,
      "ortion": 7086,
      "Ġspons": 7087,
      "Ġrevolution": 7088,
      "Ġquit": 7089,
      "Ġescaped": 7090,
      "itarian": 7091,
      "Ġempty": 7092,
      "Ġrefere": 7093,
      "ĠRadio": 7094,
      "Ġdiscrim": 7095,
      "Ġbasket": 7096,
      "Ġhidden": 7097,
      "ĠMot": 7098,
      "Ġleads": 7099,
      "Ġpushing": 7100,
      "Ġnormally": 7101,
      "Ġbound": 7102,
      "Ġminimum": 7103,
      "ĠPakistani": 7104,
      "Ġpattern": 7105,
      "Un": 7106,
      "Ġcateg": 7107,
      "Ġengaged": 7108,
      "Ġplea": 7109,
      "ĠBayern": 7110,
      "Ġattacking": 7111,
      "Ġwelfare": 7112,
      "Ġdiss": 7113,
      "Ġthrew": 7114,
      "Ġnative": 7115,
      "ĠSaf": 7116,
      "ĠCIA": 7117,
      "ĠTest": 7118,
      "aug": 7119,
      "28": 7120,
      "ĠGlob": 7121,
      "Ġinvolvement": 7122,
      "Ġjumped": 7123,
      "Ġobtained": 7124,
      "Ġwestern": 7125,
      "Ġarriving": 7126,
      "Ġrecommend": 7127,
      "Ġrelatively": 7128,
      "Ġfantastic": 7129,
      "LL": 7130,
      "ĠTime": 7131,
      "oyal": 7132,
      "Ġtur": 7133,
      "Ġharass": 7134,
      "ĠBrother": 7135,
      "Ġenth": 7136,
      "Ġadopt": 7137,
      "Ġshouldn": 7138,
      "Ġrif": 7139,
      "Ġfacilities": 7140,
      "ĠCampbell": 7141,
      "MA": 7142,
      "Ġpock": 7143,
      "Ġerup": 7144,
      "Ġsearching": 7145,
      "ĠHughes": 7146,
      "ĠOfficials": 7147,
      "ĠLand": 7148,
      "imal": 7149,
      "essions": 7150,
      "Ġmoves": 7151,
      "Ġreplace": 7152,
      "Ġpreparing": 7153,
      "Ġcleared": 7154,
      "ĠPalestinian": 7155,
      "Ġblind": 7156,
      "Ġsmile": 7157,
      "Ġdefending": 7158,
      "Ġsett": 7159,
      "ĠMah": 7160,
      "adel": 7161,
      "Ġinstruct": 7162,
      "real": 7163,
      "nam": 7164,
      "ĠServ": 7165,
      "achel": 7166,
      "Ġanx": 7167,
      "ĠThompson": 7168,
      "Ġdub": 7169,
      "zen": 7170,
      "Ġalternative": 7171,
      "Ġministers": 7172,
      "Ġfinger": 7173,
      "ĠWater": 7174,
      "Ġscared": 7175,
      "mann": 7176,
      "chell": 7177,
      "Ġinnocent": 7178,
      "ĠGet": 7179,
      "Ġovert": 7180,
      "ĠArch": 7181,
      "Ġposed": 7182,
      "iders": 7183,
      "Ġbecomes": 7184,
      "ĠSud": 7185,
      "ĠBang": 7186,
      "Ġwreck": 7187,
      "ĠSupp": 7188,
      "Ġdying": 7189,
      "After": 7190,
      "Ġjudges": 7191,
      "Ġfake": 7192,
      "stitution": 7193,
      "orious": 7194,
      "ĠSum": 7195,
      "ros": 7196,
      "Ġguarant": 7197,
      "how": 7198,
      "Ġmatters": 7199,
      "ĠJewish": 7200,
      "irates": 7201,
      "izes": 7202,
      "Ġtouc": 7203,
      "amin": 7204,
      "Ġrein": 7205,
      "Ġfavorite": 7206,
      "Ġlung": 7207,
      "Ġexcess": 7208,
      "Ġdigital": 7209,
      "ĠHull": 7210,
      "ĠFal": 7211,
      "ĠWhit": 7212,
      "Ġfitness": 7213,
      "ĠGreece": 7214,
      "ĠJamie": 7215,
      "Ġunn": 7216,
      "Ġtotally": 7217,
      "Ġmeal": 7218,
      "underland": 7219,
      "Ġinvestigated": 7220,
      "ĠEssex": 7221,
      "Ġentirely": 7222,
      "CC": 7223,
      "Ġhorrific": 7224,
      "ecutive": 7225,
      "ĠFil": 7226,
      "--": 7227,
      "AF": 7228,
      "acre": 7229,
      "ĠKo": 7230,
      "ĠLeeds": 7231,
      "Ġhide": 7232,
      "Ġrose": 7233,
      "espread": 7234,
      "Ġturns": 7235,
      "Ġpurpose": 7236,
      "Ġaccepting": 7237,
      "Ġcode": 7238,
      "Ġdrunk": 7239,
      "Ġpowers": 7240,
      "ĠGh": 7241,
      "ES": 7242,
      "ĠMarg": 7243,
      "ĠSport": 7244,
      "ĠJessica": 7245,
      "Ġanalysis": 7246,
      "ĠOper": 7247,
      "Ġnarrow": 7248,
      "Ġbike": 7249,
      "Ġoverseas": 7250,
      "acters": 7251,
      "Ġdetained": 7252,
      "ĠHampshire": 7253,
      "ĠWeek": 7254,
      "Ġdire": 7255,
      "don": 7256,
      "ito": 7257,
      "ĠNAT": 7258,
      "Ġwalls": 7259,
      "izarre": 7260,
      "Ġcompensation": 7261,
      "Ġing": 7262,
      "ĠKl": 7263,
      "ĠInsp": 7264,
      "itary": 7265,
      "exp": 7266,
      "Ġintense": 7267,
      "ĠHernandez": 7268,
      "utional": 7269,
      "ĠRose": 7270,
      "ĠYesterday": 7271,
      "ĠRev": 7272,
      "ls": 7273,
      "Ġcha": 7274,
      "Ġsuspicion": 7275,
      "Ġdisappearance": 7276,
      "Ġreporter": 7277,
      "Ġtorn": 7278,
      "ĠPope": 7279,
      "ĠWright": 7280,
      "Ġradical": 7281,
      "ĠPhilip": 7282,
      "Ġcommitment": 7283,
      "ĠTurkish": 7284,
      "ĠThough": 7285,
      "Ġchosen": 7286,
      "Ġdrama": 7287,
      "Ġdocumentary": 7288,
      "Ġconsequences": 7289,
      "isers": 7290,
      "ĠEach": 7291,
      "class": 7292,
      "rag": 7293,
      "Ġspell": 7294,
      "Ġideas": 7295,
      "ĠJen": 7296,
      "Ġdedicated": 7297,
      "ĠHear": 7298,
      "ĠPeters": 7299,
      "Ġvent": 7300,
      "Ġstated": 7301,
      "ema": 7302,
      "Ġinformed": 7303,
      "Ġdrinks": 7304,
      "Ġocean": 7305,
      "ĠSk": 7306,
      "Ġinteresting": 7307,
      "Ġracing": 7308,
      "ĠNigeria": 7309,
      "Ġsleeping": 7310,
      "obby": 7311,
      "Ġbegins": 7312,
      "ima": 7313,
      "Ġlift": 7314,
      "mouth": 7315,
      "ĠPerry": 7316,
      "Ġchat": 7317,
      "ĠRio": 7318,
      "Ġincredibly": 7319,
      "ĠHold": 7320,
      "amm": 7321,
      "Ġanywhere": 7322,
      "Ġastron": 7323,
      "ĠRodrig": 7324,
      "29": 7325,
      "Ġmarks": 7326,
      "Ġknocked": 7327,
      "Ġadmits": 7328,
      "ĠNich": 7329,
      "Ġwaves": 7330,
      "Ġlisten": 7331,
      "ĠSociety": 7332,
      "Ġvision": 7333,
      "Ġextraordinary": 7334,
      "Ġcharacters": 7335,
      "ĠSub": 7336,
      "Ġformed": 7337,
      "Ġconspiracy": 7338,
      "Ġcann": 7339,
      "Ġ1998": 7340,
      "ĠAny": 7341,
      "Ġinsists": 7342,
      "ĠClark": 7343,
      "king": 7344,
      "ĠSunderland": 7345,
      "ĠCommons": 7346,
      "degree": 7347,
      "Ġvotes": 7348,
      "ĠQat": 7349,
      "OW": 7350,
      "athon": 7351,
      "Ġfollows": 7352,
      "Ġbreath": 7353,
      "Ġspecialist": 7354,
      "Ġimplement": 7355,
      "Ġdescribe": 7356,
      "icked": 7357,
      "Ġjihad": 7358,
      "ĠClegg": 7359,
      "Ġreporting": 7360,
      "Ġaffiliate": 7361,
      "Ġconce": 7362,
      "free": 7363,
      "ĠBry": 7364,
      "38": 7365,
      "Ġdispute": 7366,
      "Ġweb": 7367,
      "azon": 7368,
      "ĠGib": 7369,
      "umed": 7370,
      "Ġiconic": 7371,
      "ĠDanny": 7372,
      "equ": 7373,
      "Ġpink": 7374,
      "Ġveget": 7375,
      "Ġclim": 7376,
      "Ġdecor": 7377,
      "iverse": 7378,
      "ĠZimmerman": 7379,
      "Ġcommentary": 7380,
      "Ġopportunities": 7381,
      "Ġ($": 7382,
      "Ġkicked": 7383,
      "Ġcorruption": 7384,
      "yard": 7385,
      "Ġmaximum": 7386,
      "Ġposting": 7387,
      "Ġcompete": 7388,
      "Ġwins": 7389,
      "ĠOfficers": 7390,
      "Ġshoulder": 7391,
      "Ġconnected": 7392,
      "Ġcapable": 7393,
      "girl": 7394,
      "Ġsmoking": 7395,
      "icious": 7396,
      "Ġentit": 7397,
      "areness": 7398,
      "ĠPolit": 7399,
      "Ġmetres": 7400,
      "36": 7401,
      "Ġtatto": 7402,
      "Ġbrilliant": 7403,
      "ĠLaura": 7404,
      "Ġadopted": 7405,
      "Ġtestimony": 7406,
      "eping": 7407,
      "echan": 7408,
      "ĠNATO": 7409,
      "ivery": 7410,
      "ĠDave": 7411,
      "Ġshops": 7412,
      "ledon": 7413,
      "Ġswitch": 7414,
      "istrates": 7415,
      "Ġwindows": 7416,
      "tic": 7417,
      "Ġteeth": 7418,
      "âĢ¦": 7419,
      "Ġtaxes": 7420,
      "Ġstructure": 7421,
      "Ġpayments": 7422,
      "Ġclassic": 7423,
      "overty": 7424,
      "ĠAsian": 7425,
      "ĠStew": 7426,
      "Ġotherwise": 7427,
      "odes": 7428,
      "Ġbench": 7429,
      "olitan": 7430,
      "ĠFel": 7431,
      "ompl": 7432,
      "ocolate": 7433,
      "imbledon": 7434,
      "ĠServices": 7435,
      "Ġproperties": 7436,
      "ĠSocial": 7437,
      "Ġcelebrities": 7438,
      "ĠAcademy": 7439,
      "Ġhandle": 7440,
      "Ġabused": 7441,
      "Ġfruit": 7442,
      "Ġsolar": 7443,
      "Ġorders": 7444,
      "Ġmarked": 7445,
      "ĠHard": 7446,
      "ĠJean": 7447,
      "ĠConservative": 7448,
      "Ġgift": 7449,
      "ĠAre": 7450,
      "Ġtear": 7451,
      "ingham": 7452,
      "Ġmal": 7453,
      "Ġstream": 7454,
      "itable": 7455,
      "ĠBristol": 7456,
      "Ġwithdraw": 7457,
      "ĠAbbott": 7458,
      "ĠTransport": 7459,
      "70": 7460,
      "ĠTrafford": 7461,
      "ooth": 7462,
      "ĠProsecutors": 7463,
      "Ġpermanent": 7464,
      "Ġscores": 7465,
      "Ġprojects": 7466,
      "Ġjoy": 7467,
      "ĠTurn": 7468,
      "cia": 7469,
      "ĠVill": 7470,
      "Ġextended": 7471,
      "Ġraped": 7472,
      "Ġarchit": 7473,
      "Ġrally": 7474,
      "49": 7475,
      "Ġafraid": 7476,
      "irty": 7477,
      "Ġge": 7478,
      "ĠDallas": 7479,
      "Ġ05": 7480,
      "ĠBrazilian": 7481,
      "Ġtank": 7482,
      "ĠAtlantic": 7483,
      "Ġapply": 7484,
      "Ġrural": 7485,
      "Ġfamiliar": 7486,
      "olas": 7487,
      "bar": 7488,
      "Ġtwe": 7489,
      "orough": 7490,
      "pan": 7491,
      "Ġattempting": 7492,
      "ĠRh": 7493,
      "Ġreveals": 7494,
      "but": 7495,
      "Ġshares": 7496,
      "Ġoffence": 7497,
      "onna": 7498,
      "ĠUkrainian": 7499,
      "Ġraid": 7500,
      "ĠAdministr": 7501,
      "Ġsector": 7502,
      "ĠRub": 7503,
      "ĠBond": 7504,
      "eller": 7505,
      "ĠMissouri": 7506,
      "usive": 7507,
      "Ġpresenter": 7508,
      "Ġchildhood": 7509,
      "uls": 7510,
      "ĠSwansea": 7511,
      "ĠLyn": 7512,
      "Ġwidespread": 7513,
      "Ġintention": 7514,
      "Ġdefended": 7515,
      "Ġdevastating": 7516,
      "39": 7517,
      "Ġties": 7518,
      "ĠBas": 7519,
      "ĠKer": 7520,
      "Ġera": 7521,
      "Ġgap": 7522,
      "Ġplanes": 7523,
      "Ġdemanded": 7524,
      "otherap": 7525,
      "put": 7526,
      "ĠEgyptian": 7527,
      "ĠBlair": 7528,
      "ĠJimmy": 7529,
      "Ġshift": 7530,
      "DA": 7531,
      "Ġfewer": 7532,
      "Ġbombing": 7533,
      "Ġod": 7534,
      "ĠOklah": 7535,
      "Ġmos": 7536,
      "Ġcompar": 7537,
      "Ġpromise": 7538,
      "ĠWimbledon": 7539,
      "Ġconclus": 7540,
      "Ġcrucial": 7541,
      "Ġcasual": 7542,
      "Ġfestival": 7543,
      "Ġtheft": 7544,
      "maker": 7545,
      "Ġfee": 7546,
      "idelines": 7547,
      "arents": 7548,
      "Ġburgl": 7549,
      "Ġtrapped": 7550,
      "Ġwounds": 7551,
      "Ġadvance": 7552,
      "Ġprofession": 7553,
      "ĠPers": 7554,
      "aval": 7555,
      "Ġ54": 7556,
      "ĠFair": 7557,
      "ora": 7558,
      "ĠHy": 7559,
      "Ġblast": 7560,
      "oln": 7561,
      "ĠLt": 7562,
      "ĠEdwards": 7563,
      "Ġattending": 7564,
      "Ġpleased": 7565,
      "Ġmilk": 7566,
      "Ġdescribes": 7567,
      "ducing": 7568,
      "Ġpig": 7569,
      "minster": 7570,
      "ĠBra": 7571,
      "Ġenthus": 7572,
      "Ġrescued": 7573,
      "Ġacknowledged": 7574,
      "ĠAnna": 7575,
      "Ġupdated": 7576,
      "Ġentr": 7577,
      "Ġexpand": 7578,
      "ĠId": 7579,
      "Ġfirms": 7580,
      "Ġ51": 7581,
      "ĠConnect": 7582,
      "Ġunveiled": 7583,
      "iece": 7584,
      "Ġtemperature": 7585,
      "ĠHillary": 7586,
      "Ġsharing": 7587,
      "orses": 7588,
      "Ġfile": 7589,
      "Ġtonight": 7590,
      "ĠBroad": 7591,
      "two": 7592,
      "ifts": 7593,
      "Ġyards": 7594,
      "Ġaggressive": 7595,
      "ĠWhe": 7596,
      "low": 7597,
      "Ġovernight": 7598,
      "Ġnaked": 7599,
      "Ġbrutal": 7600,
      "inced": 7601,
      "Ġpriority": 7602,
      "Ġsits": 7603,
      "Ġdemanding": 7604,
      "EN": 7605,
      "ĠBall": 7606,
      "Ġking": 7607,
      "Ġtravelled": 7608,
      "Ġsixth": 7609,
      "uine": 7610,
      "Ġstrict": 7611,
      "Ġdepression": 7612,
      "Ġscan": 7613,
      "ĠHunt": 7614,
      "Ġscar": 7615,
      "Ġvariety": 7616,
      "ĠPen": 7617,
      "ĠAmazon": 7618,
      "ĠNeil": 7619,
      "ĠOklahoma": 7620,
      "ĠOcean": 7621,
      "phia": 7622,
      "Ġprize": 7623,
      "Ġindic": 7624,
      "ĠPot": 7625,
      "Ġdrew": 7626,
      "Ġju": 7627,
      "ĠMarsh": 7628,
      "Ġje": 7629,
      "Ġofficially": 7630,
      "ologists": 7631,
      "ĠDeputy": 7632,
      "ĠMohammed": 7633,
      "rene": 7634,
      "Ġearning": 7635,
      "ardo": 7636,
      "athy": 7637,
      "ĠPass": 7638,
      "Ġcheap": 7639,
      "Ġaccompl": 7640,
      "Ġpromote": 7641,
      "ĠColumb": 7642,
      "inois": 7643,
      "die": 7644,
      "Ġbattery": 7645,
      "ateful": 7646,
      "Ġjoke": 7647,
      "Ġmile": 7648,
      "Ġ53": 7649,
      "Ġracist": 7650,
      "Ġpleas": 7651,
      "Ġbullet": 7652,
      "verse": 7653,
      "ĠJustin": 7654,
      "Ġspokesperson": 7655,
      "Ġdisappointed": 7656,
      "Ġsuperv": 7657,
      "Ġenorm": 7658,
      "dad": 7659,
      "mers": 7660,
      "rard": 7661,
      "ĠCarter": 7662,
      "Ġheadquarters": 7663,
      "Ġarrests": 7664,
      "Ġinterviewed": 7665,
      "Ġru": 7666,
      "ĠMajor": 7667,
      "rett": 7668,
      "Ġbirds": 7669,
      "ĠRobin": 7670,
      "Ġintegr": 7671,
      "rifying": 7672,
      "esh": 7673,
      "adelphia": 7674,
      "ĠCelt": 7675,
      "ĠOsborne": 7676,
      "Ġflowers": 7677,
      "Ġhang": 7678,
      "ĠEdin": 7679,
      "Ġfill": 7680,
      "Ġpatrol": 7681,
      "ĠCommon": 7682,
      "Ġtaught": 7683,
      "Ġreward": 7684,
      "ĠStewart": 7685,
      "chair": 7686,
      "ĠNASA": 7687,
      "ridge": 7688,
      "Ġ911": 7689,
      "duction": 7690,
      "Ġsisters": 7691,
      "respond": 7692,
      "ĠMitchell": 7693,
      "Ġchampionship": 7694,
      "ĠâĢ¢": 7695,
      "ĠSouthern": 7696,
      "Ġcollected": 7697,
      "Ġearn": 7698,
      "Ġvig": 7699,
      "ported": 7700,
      "ĠStone": 7701,
      "Ġpoison": 7702,
      "Ġprompt": 7703,
      "shot": 7704,
      "Ġdemands": 7705,
      "ĠAff": 7706,
      "ĠLaden": 7707,
      "ĠFood": 7708,
      "Ġcontained": 7709,
      "ĠDavies": 7710,
      "inez": 7711,
      "Ġclinic": 7712,
      "Ġgovernments": 7713,
      "Ġbombs": 7714,
      "wick": 7715,
      "Ġcrying": 7716,
      "Ġadvent": 7717,
      "attered": 7718,
      "Ġreaching": 7719,
      "Ġfees": 7720,
      "inent": 7721,
      "ĠFre": 7722,
      "Ġending": 7723,
      "Ġlocations": 7724,
      "Ġsolid": 7725,
      "Ġbeer": 7726,
      "ĠMedic": 7727,
      "ĠEduc": 7728,
      "ĠMarine": 7729,
      "Ġrestaurants": 7730,
      "Ġsuc": 7731,
      "Ġdelighted": 7732,
      "Ġclients": 7733,
      "Ġcous": 7734,
      "Ġposes": 7735,
      "ĠStoke": 7736,
      "icut": 7737,
      "hetic": 7738,
      "incoln": 7739,
      "etime": 7740,
      "ĠPacific": 7741,
      "Ġregarding": 7742,
      "Ġrobbery": 7743,
      "Ġgained": 7744,
      "Ġexplo": 7745,
      "Ġexciting": 7746,
      "Ġmine": 7747,
      "Ġdispl": 7748,
      "ĠBab": 7749,
      "eor": 7750,
      "Ġ56": 7751,
      "Ġhired": 7752,
      "ĠSean": 7753,
      "ĠChancellor": 7754,
      "pers": 7755,
      "Ġregional": 7756,
      "48": 7757,
      "ando": 7758,
      "breaking": 7759,
      "ĠHodg": 7760,
      "Ġteenagers": 7761,
      "Ġathletes": 7762,
      "ĠPhot": 7763,
      "Ġeffectively": 7764,
      "Ġpunishment": 7765,
      "def": 7766,
      "Ġsugar": 7767,
      "iden": 7768,
      "Ġwriter": 7769,
      "Ġawareness": 7770,
      "lete": 7771,
      "Ġchecks": 7772,
      "Ġsucceed": 7773,
      "Ġgenerally": 7774,
      "gio": 7775,
      "Ġoccasions": 7776,
      "roid": 7777,
      "Ġperforming": 7778,
      "ĠMother": 7779,
      "Ġwrites": 7780,
      "Ġterritory": 7781,
      "olly": 7782,
      "Ġward": 7783,
      "ĠRussell": 7784,
      "Ġimproved": 7785,
      "Ġfighter": 7786,
      "ĠAle": 7787,
      "ĠClar": 7788,
      "Ġextensive": 7789,
      "Ġmansion": 7790,
      "dr": 7791,
      "Ġla": 7792,
      "Ġearthqu": 7793,
      "Ġsurprising": 7794,
      "Ġcommunications": 7795,
      "Ġtypes": 7796,
      "ĠGirl": 7797,
      "Ġrent": 7798,
      "ĠCardiff": 7799,
      "Now": 7800,
      "Ġplants": 7801,
      "ommod": 7802,
      "Ġsac": 7803,
      "Ġputs": 7804,
      "Ġchef": 7805,
      "Ġ1997": 7806,
      "***": 7807,
      "Ġfeaturing": 7808,
      "otte": 7809,
      "ĠLocal": 7810,
      "Ġloves": 7811,
      "Ġmovies": 7812,
      "ĠRodriguez": 7813,
      "ĠSwit": 7814,
      "ĠGerrard": 7815,
      "Ġdesire": 7816,
      "Ġlabel": 7817,
      "ĠDisney": 7818,
      "ĠLA": 7819,
      "Ġtaste": 7820,
      "ĠBruce": 7821,
      "Ġtypically": 7822,
      "ĠSeveral": 7823,
      "Ġlinks": 7824,
      "Ġaccur": 7825,
      "wen": 7826,
      "ĠEnter": 7827,
      "Ġfault": 7828,
      "ĠHom": 7829,
      "Ġautomatic": 7830,
      "Ġpositions": 7831,
      "Ġmisc": 7832,
      "Ġcapacity": 7833,
      "Ġcounty": 7834,
      "Ġpacked": 7835,
      "col": 7836,
      "ĠPower": 7837,
      "Ġski": 7838,
      "ĠLisa": 7839,
      "600": 7840,
      "Ġguide": 7841,
      "32": 7842,
      "Ġloud": 7843,
      "ĠRoll": 7844,
      "ĠGill": 7845,
      "Ġapology": 7846,
      "ĠPhiladelphia": 7847,
      "Ġhug": 7848,
      "Ġreun": 7849,
      "Ġdeals": 7850,
      "Ġapplication": 7851,
      "ĠIllinois": 7852,
      "Ġemp": 7853,
      "Ġkillings": 7854,
      "Ġelsewhere": 7855,
      "ĠJeremy": 7856,
      "Ġusual": 7857,
      "ether": 7858,
      "Ġanybody": 7859,
      "55": 7860,
      "aron": 7861,
      "ĠGab": 7862,
      "Ġgoods": 7863,
      "anes": 7864,
      "ĠBull": 7865,
      "Ġcontrolled": 7866,
      "Ġvessel": 7867,
      "Ġlock": 7868,
      "Ġcommander": 7869,
      "Ġfier": 7870,
      "Ġtail": 7871,
      "ĠSandy": 7872,
      "ĠAlab": 7873,
      "ĠAmanda": 7874,
      "Ġgrave": 7875,
      "Ġcaps": 7876,
      "ĠiPad": 7877,
      "Ġexperiences": 7878,
      "Ġster": 7879,
      "inch": 7880,
      "Ġguest": 7881,
      "issions": 7882,
      "uous": 7883,
      "asion": 7884,
      "ĠBrom": 7885,
      "Ġgrass": 7886,
      "Ġspr": 7887,
      "Ġfactor": 7888,
      "box": 7889,
      "Sh": 7890,
      "Ġiniti": 7891,
      "Ġcelebrated": 7892,
      "Ġtip": 7893,
      "Ġexecution": 7894,
      "Ġmulti": 7895,
      "gow": 7896,
      "grees": 7897,
      "Ġhabit": 7898,
      "fe": 7899,
      "Ġtries": 7900,
      "acular": 7901,
      "Ġdubbed": 7902,
      "ĠCBS": 7903,
      "ĠGlas": 7904,
      "ĠInt": 7905,
      "pass": 7906,
      "Ġ1960": 7907,
      "Ġcigaret": 7908,
      "Ġlad": 7909,
      "certain": 7910,
      "eler": 7911,
      "Ġrequires": 7912,
      "ĠDemocrat": 7913,
      "Ġcampus": 7914,
      "Ġconvinced": 7915,
      "ĠWoods": 7916,
      "ĠLincoln": 7917,
      "Ġcivilian": 7918,
      "ĠBrooklyn": 7919,
      "Ġpapers": 7920,
      "icial": 7921,
      "Ġdelivery": 7922,
      "LA": 7923,
      "Ġenvironmental": 7924,
      "vant": 7925,
      "Ġregistered": 7926,
      "ĠConnecticut": 7927,
      "ĠCos": 7928,
      "ww": 7929,
      "ĠRem": 7930,
      "Ġtherefore": 7931,
      "Ġaboard": 7932,
      "Ġaffairs": 7933,
      "Ġfounded": 7934,
      "Ġrepresents": 7935,
      "Ġstronger": 7936,
      "Ġsuggesting": 7937,
      "aya": 7938,
      "ĠEnd": 7939,
      "Ġloyal": 7940,
      "Ġscreaming": 7941,
      "Ġburned": 7942,
      "itage": 7943,
      "soft": 7944,
      "Ġapplied": 7945,
      "ĠInvestigators": 7946,
      "Ġtemporary": 7947,
      "aying": 7948,
      "ĠDoctors": 7949,
      "Ġstem": 7950,
      "ĠPear": 7951,
      "Ġindependence": 7952,
      "Ġpace": 7953,
      "ĠHeath": 7954,
      "zing": 7955,
      "ĠGard": 7956,
      "Ġstrange": 7957,
      "ĠLuke": 7958,
      "Ġwarrant": 7959,
      "ĠGil": 7960,
      "Ġsounds": 7961,
      "ĠWestminster": 7962,
      "burn": 7963,
      "ĠHu": 7964,
      "aware": 7965,
      "lad": 7966,
      "Ass": 7967,
      "Ġtraveling": 7968,
      "enez": 7969,
      "Ġorganisation": 7970,
      "esus": 7971,
      "Ġtranspl": 7972,
      "ĠAdams": 7973,
      "Ġbreathing": 7974,
      "Ġposts": 7975,
      "Ġformal": 7976,
      "Ġtex": 7977,
      "ĠNad": 7978,
      "active": 7979,
      "ĠMcCain": 7980,
      "Ġnut": 7981,
      "Ġpackage": 7982,
      "Ġbizarre": 7983,
      "Ġpetition": 7984,
      "dale": 7985,
      "cedes": 7986,
      "Ġbarely": 7987,
      "ĠRangers": 7988,
      "Ġmanage": 7989,
      "ĠMunich": 7990,
      "ĠNig": 7991,
      "ĠLane": 7992,
      "Ġcos": 7993,
      "Ġbon": 7994,
      "owa": 7995,
      "oyd": 7996,
      "Ġyoungest": 7997,
      "Ġtracks": 7998,
      "Ġaccommod": 7999,
      "ĠSeattle": 8000,
      "ĠPent": 8001,
      "ĠMartinez": 8002,
      "ĠHawai": 8003,
      "âĤ": 8004,
      "Ġdegrees": 8005,
      "enny": 8006,
      "Ġsupplies": 8007,
      "Ġrelationships": 8008,
      "writ": 8009,
      "Ġbat": 8010,
      "oren": 8011,
      "Ġexisting": 8012,
      "Ġmarkets": 8013,
      "Ġfunny": 8014,
      "ĠMcDonald": 8015,
      "Ġattracted": 8016,
      "Ġresulted": 8017,
      "Ġexclusive": 8018,
      "Ġbik": 8019,
      "Ġhanging": 8020,
      "ĠStev": 8021,
      "ĠBoard": 8022,
      "endum": 8023,
      "Ġske": 8024,
      "Ġrecording": 8025,
      "Ġorganizations": 8026,
      "tar": 8027,
      "Ġmeetings": 8028,
      "Ġsummit": 8029,
      "Ġrehab": 8030,
      "ĠWard": 8031,
      "Ġgreet": 8032,
      "Ġmechan": 8033,
      "Ġthin": 8034,
      "ĠHa": 8035,
      "Ġneighbours": 8036,
      "Ġhung": 8037,
      "Ġsuccessfully": 8038,
      "ĠHills": 8039,
      "Ġgenuine": 8040,
      "Ġclasses": 8041,
      "33": 8042,
      "aco": 8043,
      "tes": 8044,
      "Ġapproval": 8045,
      "âĤ¬": 8046,
      "Ġends": 8047,
      "with": 8048,
      "ervatives": 8049,
      "Ġtourist": 8050,
      "otherapy": 8051,
      "ĠAlabama": 8052,
      "bris": 8053,
      "Ġwing": 8054,
      ".)": 8055,
      "Ġnobody": 8056,
      "dog": 8057,
      "?âĢĻ": 8058,
      "Ġvalues": 8059,
      "ĠCrist": 8060,
      "Ġconcept": 8061,
      "ĠLeg": 8062,
      "ĠDeb": 8063,
      "Ġencouraged": 8064,
      "phed": 8065,
      "owered": 8066,
      "Ġdetailed": 8067,
      "Ġpoverty": 8068,
      "Ġmut": 8069,
      "Ġburning": 8070,
      "Ġcombined": 8071,
      "Ġcontem": 8072,
      "Ġkeeps": 8073,
      "Ġobvious": 8074,
      "Ġdetectives": 8075,
      "Ġteaching": 8076,
      "Ġclosing": 8077,
      "Rep": 8078,
      "cons": 8079,
      "car": 8080,
      "Ġsettlement": 8081,
      "Ġcited": 8082,
      "ĠLl": 8083,
      "ikh": 8084,
      "Ġfactory": 8085,
      "Ġcontrast": 8086,
      "Ġsheriff": 8087,
      "Ġwelcom": 8088,
      "made": 8089,
      "Ġcolor": 8090,
      "Ġcondemned": 8091,
      "Ġstudio": 8092,
      "ĠBelgium": 8093,
      "75": 8094,
      "acement": 8095,
      "Ġcriminals": 8096,
      "Ġrebel": 8097,
      "ricane": 8098,
      "ĠSusan": 8099,
      "ĠOK": 8100,
      "Ġoutcome": 8101,
      "ighton": 8102,
      "Ġambassador": 8103,
      "Ġlandsc": 8104,
      "Ġneither": 8105,
      "case": 8106,
      "Ġcancel": 8107,
      "Ġgrandfather": 8108,
      "Ġrenew": 8109,
      "Ġopponents": 8110,
      "Ġinapp": 8111,
      "Ġhiding": 8112,
      "Ġslowly": 8113,
      "Ġsharp": 8114,
      "cho": 8115,
      "ĠLeban": 8116,
      "Ġfiring": 8117,
      "Ġinvestigations": 8118,
      "Ġvisits": 8119,
      "zerland": 8120,
      "Ġreferring": 8121,
      "Ġpredict": 8122,
      "Ġbasketball": 8123,
      "Ġhits": 8124,
      "idays": 8125,
      "Ġsentencing": 8126,
      "Ġdrone": 8127,
      "Ġdenies": 8128,
      "amber": 8129,
      "Ġdiplomatic": 8130,
      "Ġaccompan": 8131,
      "ja": 8132,
      "Ġwalks": 8133,
      "yo": 8134,
      "Ġsatellite": 8135,
      "Ġinterviews": 8136,
      "Ġpraised": 8137,
      "lings": 8138,
      "ĠFive": 8139,
      "ĠDuncan": 8140,
      "Ġcarbon": 8141,
      "ĠGriff": 8142,
      "ĠMcK": 8143,
      "Mr": 8144,
      "Ġcul": 8145,
      "Ġaer": 8146,
      "Ġcricket": 8147,
      "ĠFerr": 8148,
      "Ġtape": 8149,
      "Ġworn": 8150,
      "wan": 8151,
      "Ġemph": 8152,
      "ĠUtah": 8153,
      "ĠHead": 8154,
      "Ġcream": 8155,
      "Ġfel": 8156,
      "Ġattached": 8157,
      "Ġalert": 8158,
      "ĠHur": 8159,
      "Ġchocolate": 8160,
      "Ġblank": 8161,
      "loaded": 8162,
      "ĠBook": 8163,
      "bie": 8164,
      "Ġbrown": 8165,
      "Ġconfront": 8166,
      "800": 8167,
      "Ġimportance": 8168,
      "tering": 8169,
      "ĠViet": 8170,
      "ĠTrib": 8171,
      "ĠMicro": 8172,
      "Ġveterans": 8173,
      "adh": 8174,
      "ĠBrand": 8175,
      "ĠHoward": 8176,
      "Ġadvertising": 8177,
      "Ġmand": 8178,
      "Ġrugby": 8179,
      "Ġconver": 8180,
      "Ġindicated": 8181,
      "ĠSwitzerland": 8182,
      "Ġmeals": 8183,
      "Ġguards": 8184,
      "ĠPortugal": 8185,
      "Ġopposed": 8186,
      "ĠGlasgow": 8187,
      "Ġharder": 8188,
      "Ġtransl": 8189,
      "Ġinfected": 8190,
      "ĠStu": 8191,
      "Ġmemories": 8192,
      "46": 8193,
      "Ġbone": 8194,
      "ĠDur": 8195,
      "ycling": 8196,
      "oded": 8197,
      "ĠHodgson": 8198,
      "42": 8199,
      "Ġopposite": 8200,
      "Ġ57": 8201,
      "ĠPM": 8202,
      "ĠAdministration": 8203,
      "Ġmanufactur": 8204,
      "ailand": 8205,
      "Not": 8206,
      "Ġburst": 8207,
      "Ġavo": 8208,
      "Ġcelebrating": 8209,
      "Ġhonour": 8210,
      "Ġcry": 8211,
      "Ġthick": 8212,
      "ĠLow": 8213,
      "Ġacted": 8214,
      "onnell": 8215,
      "ĠCeltic": 8216,
      "Ġtoll": 8217,
      "Ġprocedures": 8218,
      "rast": 8219,
      "ecting": 8220,
      "Ġchecked": 8221,
      "Ġreferendum": 8222,
      "ught": 8223,
      "TA": 8224,
      "abet": 8225,
      "Ġshout": 8226,
      "Ġmanner": 8227,
      "Ġentering": 8228,
      "Ġtitles": 8229,
      "Ġvolunteers": 8230,
      "Ġadvised": 8231,
      "sung": 8232,
      "ĠRow": 8233,
      "Ġgender": 8234,
      "profile": 8235,
      "Ġsearched": 8236,
      "borough": 8237,
      "ĠIb": 8238,
      "ĠExp": 8239,
      "aghdad": 8240,
      "Ġluck": 8241,
      "aved": 8242,
      "Ġfilming": 8243,
      "Ġtaxi": 8244,
      "Ġethnic": 8245,
      "ĠFriends": 8246,
      "His": 8247,
      "Ġmedication": 8248,
      "Ġpredicted": 8249,
      "ĠRoger": 8250,
      "Ġremarkable": 8251,
      "inking": 8252,
      "Ġ04": 8253,
      "Ġcontaining": 8254,
      "Ġartists": 8255,
      "ĠCornwall": 8256,
      "Ġnerv": 8257,
      "osition": 8258,
      "Ġinnov": 8259,
      "Ġcolleague": 8260,
      "ĠSnowden": 8261,
      "iac": 8262,
      "vin": 8263,
      "Ġfunction": 8264,
      "Ġliqu": 8265,
      "ĠAnne": 8266,
      "Ġsymp": 8267,
      "Ġreforms": 8268,
      "Ġgrabbed": 8269,
      "ĠEducation": 8270,
      "ĠSecret": 8271,
      "Ġnick": 8272,
      "ĠMoy": 8273,
      "ĠCuba": 8274,
      "Ġresolution": 8275,
      "Ġmixed": 8276,
      "ami": 8277,
      "Ġmaterials": 8278,
      "ĠCall": 8279,
      "ĠBeat": 8280,
      "da": 8281,
      "Ġemails": 8282,
      "Ġunivers": 8283,
      "Ġvoting": 8284,
      "Ġcopy": 8285,
      "Ġaccusations": 8286,
      "ĠAmy": 8287,
      "Ġflooding": 8288,
      "Ġarchitect": 8289,
      "ĠMario": 8290,
      "ĠAston": 8291,
      "osh": 8292,
      "ĠThailand": 8293,
      "Ġoldest": 8294,
      "Ġnegotiations": 8295,
      "DC": 8296,
      "Ġproducer": 8297,
      "Ġpersu": 8298,
      "otelli": 8299,
      "Ġriding": 8300,
      "Ġdict": 8301,
      "Ġmonitor": 8302,
      "Ġordeal": 8303,
      "wing": 8304,
      "arms": 8305,
      "Ġreligion": 8306,
      "Ġstations": 8307,
      "Ġtoilet": 8308,
      "ĠEdinburgh": 8309,
      "Ġallies": 8310,
      "Ġfirefighters": 8311,
      "ĠHIV": 8312,
      "endent": 8313,
      "iatric": 8314,
      "ĠPy": 8315,
      "Ġvisible": 8316,
      "ulture": 8317,
      "children": 8318,
      "Ġrig": 8319,
      "ureau": 8320,
      "ĠIowa": 8321,
      "emed": 8322,
      "Ġbrings": 8323,
      "rained": 8324,
      "Ġbrave": 8325,
      "RO": 8326,
      "Ġstages": 8327,
      "Ġwitnessed": 8328,
      "ĠHM": 8329,
      "Ġsporting": 8330,
      "gt": 8331,
      "ĠNY": 8332,
      "Ġwinners": 8333,
      "ĠHait": 8334,
      "ĠChap": 8335,
      "wa": 8336,
      "ilst": 8337,
      "Ġtheory": 8338,
      "acc": 8339,
      "Ġvowed": 8340,
      "Ġgro": 8341,
      "ĠAut": 8342,
      "ĠEmer": 8343,
      "Ġrecon": 8344,
      "Ġwealthy": 8345,
      "ĠCollins": 8346,
      "Ġhomeless": 8347,
      "ĠTreas": 8348,
      "ĠSpecial": 8349,
      "ĠSpring": 8350,
      "sm": 8351,
      "Ġspeculation": 8352,
      "Ġtrophy": 8353,
      "ĠNotting": 8354,
      "apes": 8355,
      "Ġexpecting": 8356,
      "ĠGarcia": 8357,
      "Ġdeny": 8358,
      "Ġcrazy": 8359,
      "Ġsib": 8360,
      "Ġfacts": 8361,
      "Ġelectricity": 8362,
      "ĠFree": 8363,
      "Ġentitled": 8364,
      "Ġgest": 8365,
      "usting": 8366,
      "ctic": 8367,
      "Ġ1996": 8368,
      "ĠBalotelli": 8369,
      "Ġrequests": 8370,
      "ffield": 8371,
      "Ġfactors": 8372,
      "Ġglam": 8373,
      "Ġgunman": 8374,
      "Ġanswers": 8375,
      "olph": 8376,
      "Ġblocked": 8377,
      "ĠBloom": 8378,
      "uay": 8379,
      "Ġwaited": 8380,
      "ĠSoph": 8381,
      "Ġtechnical": 8382,
      "Ġbes": 8383,
      "ĠCas": 8384,
      "Ġfundra": 8385,
      "Ġcontains": 8386,
      "tlet": 8387,
      "leep": 8388,
      "ois": 8389,
      "heim": 8390,
      "Ġjun": 8391,
      "hem": 8392,
      "ndrome": 8393,
      "Ġpeaceful": 8394,
      "Ġfaster": 8395,
      "Ġpump": 8396,
      "Ġappointed": 8397,
      "Ġacad": 8398,
      "Ġstrongly": 8399,
      "Ġoffices": 8400,
      "uations": 8401,
      "Ġ58": 8402,
      "ĠLi": 8403,
      "Ġcollapse": 8404,
      "Ġdiscussed": 8405,
      "Ġapps": 8406,
      "Ġcelebration": 8407,
      "Ġexcell": 8408,
      "grav": 8409,
      "Ġreferee": 8410,
      "ĠTam": 8411,
      "Ġenormous": 8412,
      "ximately": 8413,
      "Ġprepar": 8414,
      "ĠDj": 8415,
      "ture": 8416,
      "Ġtrips": 8417,
      "Ġthrowing": 8418,
      "load": 8419,
      "Ġhorses": 8420,
      "Ġcrossing": 8421,
      "Ġcrews": 8422,
      "Ġtent": 8423,
      "Ġfab": 8424,
      "Ġspeaks": 8425,
      "Assad": 8426,
      "Ar": 8427,
      "upper": 8428,
      "Ġsmugg": 8429,
      "ĠBan": 8430,
      "ĠPle": 8431,
      "ĠLive": 8432,
      "Ġcompetitive": 8433,
      "Ġcrowds": 8434,
      "While": 8435,
      "ĠEmb": 8436,
      "Ġargue": 8437,
      "ĠBrend": 8438,
      "rait": 8439,
      "ĠDefence": 8440,
      "Ġpurchase": 8441,
      "ello": 8442,
      ".-": 8443,
      "Ġmotion": 8444,
      "Ġentry": 8445,
      "ĠSudan": 8446,
      "ĠBeckham": 8447,
      "ĠOfficer": 8448,
      "umes": 8449,
      "ĠHo": 8450,
      "Ġlav": 8451,
      "Ġcovering": 8452,
      "Ġtransferred": 8453,
      "Ġpartnership": 8454,
      "Ġourselves": 8455,
      "Ġowns": 8456,
      "Ġbegun": 8457,
      "Ġdebris": 8458,
      "istle": 8459,
      "Ġconstantly": 8460,
      "Ġselect": 8461,
      "Ġcalc": 8462,
      "ĠKenya": 8463,
      "Ġtag": 8464,
      "ĠSamsung": 8465,
      "Ġestimates": 8466,
      "Ġships": 8467,
      "ideo": 8468,
      "ĠDerby": 8469,
      "Ġaccompanied": 8470,
      "Ġcurren": 8471,
      "Ġappearing": 8472,
      "Ġwire": 8473,
      "Ġstable": 8474,
      "essing": 8475,
      "Ġilleg": 8476,
      "250": 8477,
      "ĠAuthority": 8478,
      "ĠRon": 8479,
      "ĠMorris": 8480,
      "Ġassaulted": 8481,
      "final": 8482,
      "Ġ1994": 8483,
      "Ġamounts": 8484,
      "ĠDubai": 8485,
      "ĠStuart": 8486,
      "ighth": 8487,
      "ructure": 8488,
      "Ġrepresented": 8489,
      "Ġtheat": 8490,
      "Ġcultural": 8491,
      "ĠKatie": 8492,
      "Ġfasc": 8493,
      "rets": 8494,
      "Ġextent": 8495,
      "ĠCommissioner": 8496,
      "armed": 8497,
      "berry": 8498,
      "ivalent": 8499,
      "!!": 8500,
      "Ġages": 8501,
      "Ġyes": 8502,
      "Ġrepresenting": 8503,
      "Ġdiplom": 8504,
      "Ġlawmakers": 8505,
      "ĠAmb": 8506,
      "ĠRome": 8507,
      "Ġcruise": 8508,
      "Ġmonitoring": 8509,
      "crib": 8510,
      "ato": 8511,
      "Ġramp": 8512,
      "caster": 8513,
      "Ġeleph": 8514,
      "Ġsubstant": 8515,
      "rehens": 8516,
      "Ġmask": 8517,
      "ĠSheffield": 8518,
      "ĠArabia": 8519,
      "Ġsustained": 8520,
      "Ġspin": 8521,
      "Ġstudying": 8522,
      "Ġprotected": 8523,
      "Ġachieved": 8524,
      "stri": 8525,
      "Ġmarketing": 8526,
      "ĠFur": 8527,
      "ĠTar": 8528,
      "Ġcounsel": 8529,
      "Ġlifted": 8530,
      "roit": 8531,
      "ded": 8532,
      "tt": 8533,
      "Ġdisturb": 8534,
      "enda": 8535,
      "ĠBusiness": 8536,
      "Ġmarry": 8537,
      "Ġsuspicious": 8538,
      "Ġconfron": 8539,
      "Ġessential": 8540,
      "ĠBon": 8541,
      "Ġbranch": 8542,
      "Ġpersonally": 8543,
      "Ġsensitive": 8544,
      "Ġ67": 8545,
      "Ġaside": 8546,
      "Ġunits": 8547,
      "Ġteens": 8548,
      "Ġindustrial": 8549,
      "Ġsch": 8550,
      "ĠReid": 8551,
      "ĠArmstrong": 8552,
      "ĠBos": 8553,
      "Ġspecifically": 8554,
      "........": 8555,
      "usal": 8556,
      "Ġreception": 8557,
      "Ġforever": 8558,
      "Ġnetworks": 8559,
      "Ġhunt": 8560,
      "ĠSwiss": 8561,
      "rete": 8562,
      "ĠAp": 8563,
      "Ġeverywhere": 8564,
      "Ġhandling": 8565,
      "Ġbacter": 8566,
      "Ġox": 8567,
      "raf": 8568,
      "din": 8569,
      "Ġsam": 8570,
      "dis": 8571,
      "ĠIndepend": 8572,
      "Ġcruel": 8573,
      "ĠChile": 8574,
      "Ġcomedy": 8575,
      "Ġskull": 8576,
      "Ġsignificantly": 8577,
      "Ġdrawing": 8578,
      "ĠNap": 8579,
      "Ġ64": 8580,
      "ĠBlue": 8581,
      "iki": 8582,
      "Ġshelter": 8583,
      "Ġimpressed": 8584,
      "Ġattorneys": 8585,
      "ĠHend": 8586,
      "Ġoutfit": 8587,
      "Ġcomprom": 8588,
      "Ġforms": 8589,
      "uting": 8590,
      "Ġactual": 8591,
      "ĠMargaret": 8592,
      "onz": 8593,
      "ĠNelson": 8594,
      "Ġchall": 8595,
      "Ġchicken": 8596,
      "ĠGreek": 8597,
      "ĠCastro": 8598,
      "ici": 8599,
      "iller": 8600,
      "AS": 8601,
      "Ġplease": 8602,
      "icts": 8603,
      "Ġtrick": 8604,
      "Ġproceedings": 8605,
      "Ġmystery": 8606,
      "Ġprospect": 8607,
      "ĠTou": 8608,
      "ĠMcL": 8609,
      "Ġbru": 8610,
      "Ġinspiration": 8611,
      "ĠBarcl": 8612,
      "ĠBarbara": 8613,
      "Ġawards": 8614,
      "anchez": 8615,
      "Ġracial": 8616,
      "Ġfishing": 8617,
      "Ġconstant": 8618,
      "ĠMaryland": 8619,
      "ĠPhillips": 8620,
      "ĠStation": 8621,
      "Ġhack": 8622,
      "Ġcope": 8623,
      "ĠPictured": 8624,
      "phones": 8625,
      "Ġregulations": 8626,
      "ĠCy": 8627,
      "ĠLes": 8628,
      "ĠWarren": 8629,
      "inion": 8630,
      "season": 8631,
      "terror": 8632,
      "Ġlegit": 8633,
      "Ġjurors": 8634,
      "Ġregul": 8635,
      "was": 8636,
      "Ġroughly": 8637,
      "ĠTes": 8638,
      "oty": 8639,
      "Ġshark": 8640,
      "Ġcomputers": 8641,
      "Ġflames": 8642,
      "Ġchannel": 8643,
      "lock": 8644,
      "ropolitan": 8645,
      "Ġerror": 8646,
      "Ġrepresentative": 8647,
      "omy": 8648,
      "ĠOthers": 8649,
      "Ġdisabled": 8650,
      "Ġrecru": 8651,
      "Ġcreative": 8652,
      "Ġawa": 8653,
      "ĠQPR": 8654,
      "ippi": 8655,
      "ĠAz": 8656,
      "Ġregret": 8657,
      "Ġinsurg": 8658,
      "Ġhotels": 8659,
      "ĠFund": 8660,
      "Ġpron": 8661,
      "Ġcitizen": 8662,
      "axy": 8663,
      "tra": 8664,
      "chi": 8665,
      "Ġiron": 8666,
      "Ġnurses": 8667,
      "ĠBad": 8668,
      "Ġobjects": 8669,
      "ais": 8670,
      "Ġtowns": 8671,
      "Ġactivist": 8672,
      "ĠHelen": 8673,
      "iro": 8674,
      "Ġtherapy": 8675,
      "ĠHit": 8676,
      "ĠAT": 8677,
      "Ġdemocracy": 8678,
      "Ġsymbol": 8679,
      "Ġtouched": 8680,
      "Ġministry": 8681,
      "Ġheadlines": 8682,
      "Ġtens": 8683,
      "Ġsongs": 8684,
      "ĠSgt": 8685,
      "Ġmedicine": 8686,
      "ogether": 8687,
      "iences": 8688,
      "ĠAaron": 8689,
      "front": 8690,
      "OS": 8691,
      "Ġannounce": 8692,
      "ĠSanchez": 8693,
      "Ġraces": 8694,
      "Ġpill": 8695,
      "ĠAy": 8696,
      "ĠFlight": 8697,
      "ĠShaw": 8698,
      "ĠResc": 8699,
      "Ġstriking": 8700,
      "43": 8701,
      "gage": 8702,
      "math": 8703,
      "Ġafterwards": 8704,
      "ĠAC": 8705,
      "riers": 8706,
      "beat": 8707,
      "ĠRand": 8708,
      "ilding": 8709,
      "ĠHamas": 8710,
      "ĠMercedes": 8711,
      "Ġfame": 8712,
      "Ġcourage": 8713,
      "ĠRet": 8714,
      "Ġdim": 8715,
      "ĠHope": 8716,
      "Ġabsence": 8717,
      "ĠTH": 8718,
      "ĠITV": 8719,
      "Ġpopularity": 8720,
      "Ġspectacular": 8721,
      "hat": 8722,
      "Ġequivalent": 8723,
      "ĠCabinet": 8724,
      "Ġhumanitarian": 8725,
      "graph": 8726,
      "ĠWelsh": 8727,
      "Ġobst": 8728,
      "Ġindict": 8729,
      "Ġbosses": 8730,
      "ĠBash": 8731,
      "Ġselection": 8732,
      "Ġattitude": 8733,
      "Ġdistr": 8734,
      "ĠKurd": 8735,
      "Ġassass": 8736,
      "Ġfrequently": 8737,
      "Ġencounter": 8738,
      "Ġretirement": 8739,
      "Ġmainly": 8740,
      "ĠForm": 8741,
      "ĠKey": 8742,
      "enging": 8743,
      "ĠMandela": 8744,
      "pes": 8745,
      "above": 8746,
      "erald": 8747,
      "Ġpaint": 8748,
      "Ġportray": 8749,
      "Ġmigrants": 8750,
      "Ġ1995": 8751,
      "ĠRice": 8752,
      "uable": 8753,
      "early": 8754,
      "Ġtraveled": 8755,
      "Ġpulling": 8756,
      "tletico": 8757,
      "inter": 8758,
      "oons": 8759,
      "Ġlessons": 8760,
      "Ġrestrictions": 8761,
      "ĠSafety": 8762,
      "ĠKay": 8763,
      "Ġcoord": 8764,
      "Ġlocals": 8765,
      "Ġtired": 8766,
      "ĠPC": 8767,
      "Ġdiscussion": 8768,
      "Ġtox": 8769,
      "ĠCivil": 8770,
      "Ġpages": 8771,
      "umph": 8772,
      "abilities": 8773,
      "ĠConst": 8774,
      "hill": 8775,
      "ĠRachel": 8776,
      "Ġshed": 8777,
      "Ġdisag": 8778,
      "Ġelim": 8779,
      "ĠGrant": 8780,
      "ointing": 8781,
      "Ġemotion": 8782,
      "Ġchap": 8783,
      "ĠBart": 8784,
      "AC": 8785,
      "ĠMicrosoft": 8786,
      "ĠCharlotte": 8787,
      "ĠClarke": 8788,
      "Be": 8789,
      "lee": 8790,
      "Ne": 8791,
      "Ġreference": 8792,
      "ullah": 8793,
      "Ġanticip": 8794,
      "Ġtwins": 8795,
      "ĠBerlin": 8796,
      "ĠKnight": 8797,
      "Ġdetention": 8798,
      "uters": 8799,
      "Ġgarage": 8800,
      "Ġupper": 8801,
      "Ġdial": 8802,
      "ĠJuan": 8803,
      "ĠMorning": 8804,
      "Ġeggs": 8805,
      "Ġtelephone": 8806,
      "Ġtypical": 8807,
      "ĠDetroit": 8808,
      "Ġaddressed": 8809,
      "Ġbreach": 8810,
      "ĠMalaysia": 8811,
      "ĠCrystal": 8812,
      "ĠExperts": 8813,
      "41": 8814,
      "regon": 8815,
      "Ġmere": 8816,
      "Ġbreakfast": 8817,
      "Ġsmartphone": 8818,
      "ĠEst": 8819,
      "Ġsty": 8820,
      "Ġrounds": 8821,
      "Ġshame": 8822,
      "Ġfeelings": 8823,
      "guard": 8824,
      "ĠScientists": 8825,
      "lar": 8826,
      "icing": 8827,
      "Ġprohib": 8828,
      "Ġ62": 8829,
      "Ġhorror": 8830,
      "ĠResearchers": 8831,
      "Ġreads": 8832,
      "Ġ66": 8833,
      "Ġcert": 8834,
      "ĠPentagon": 8835,
      "Ġimprison": 8836,
      "Ġwelcomed": 8837,
      "31": 8838,
      "ĠRaf": 8839,
      "ĠDor": 8840,
      "ometimes": 8841,
      "ĠDowning": 8842,
      "igger": 8843,
      "Ġliked": 8844,
      "Ġbones": 8845,
      "Ġtoler": 8846,
      "Ġmini": 8847,
      "cott": 8848,
      "Ġce": 8849,
      "Ġtodd": 8850,
      "Ġnervous": 8851,
      "Ġwebsites": 8852,
      "ĠWhere": 8853,
      "Ġcombination": 8854,
      "uer": 8855,
      "Ġconced": 8856,
      "Ġrebu": 8857,
      "ĠPoland": 8858,
      "list": 8859,
      "Ġrarely": 8860,
      "Ġmanaging": 8861,
      "Ġresigned": 8862,
      "erm": 8863,
      "orld": 8864,
      "actor": 8865,
      "ĠYes": 8866,
      "ician": 8867,
      "Ġpersonality": 8868,
      "Ġcloud": 8869,
      "Ġpilots": 8870,
      "zy": 8871,
      "Ġhighlight": 8872,
      "greg": 8873,
      "level": 8874,
      "ĠEth": 8875,
      "Ġnoise": 8876,
      "rastructure": 8877,
      "ĠMidlands": 8878,
      "Ġsafely": 8879,
      "Ġstamp": 8880,
      "ĠPop": 8881,
      "Ġscientific": 8882,
      "Ġsupermarket": 8883,
      "Ġrealized": 8884,
      "orage": 8885,
      "rous": 8886,
      "Ġdefensive": 8887,
      "Ġwarnings": 8888,
      "ati": 8889,
      "Ġforcing": 8890,
      "Ġtrains": 8891,
      "ĠBailey": 8892,
      "ĠAround": 8893,
      "Ġ250": 8894,
      "Ġhosts": 8895,
      "ucks": 8896,
      "Ġindeed": 8897,
      "Ġpainful": 8898,
      "ĠForest": 8899,
      "Ġadviser": 8900,
      "Ġcoroner": 8901,
      "Ġshell": 8902,
      "Ġdressing": 8903,
      "ĠSov": 8904,
      "ĠAgu": 8905,
      "accept": 8906,
      "ĠEastern": 8907,
      "ĠStat": 8908,
      "Ġgri": 8909,
      "Ġsomewhere": 8910,
      "Ġtaxpayers": 8911,
      "Ġridic": 8912,
      "Ġprobe": 8913,
      "second": 8914,
      "amedics": 8915,
      "ĠTravel": 8916,
      "iques": 8917,
      "Ġexhibition": 8918,
      "Ġ59": 8919,
      "Ġphysically": 8920,
      "ĠDomin": 8921,
      "Ġholidays": 8922,
      "Ġsmashed": 8923,
      "Ġfract": 8924,
      "Ġinappropriate": 8925,
      "Ġstole": 8926,
      "Ġspray": 8927,
      "Ġbeneath": 8928,
      "ĠVis": 8929,
      "Ġcommunication": 8930,
      "looking": 8931,
      "ĠDetective": 8932,
      "Ġcub": 8933,
      "Just": 8934,
      "Ġreass": 8935,
      "Ġgrateful": 8936,
      "rors": 8937,
      "ĠNight": 8938,
      "Ġflown": 8939,
      "Ġpolls": 8940,
      "\".": 8941,
      "ĠNottingham": 8942,
      "ĠOregon": 8943,
      "ĠTem": 8944,
      "bag": 8945,
      "ĠJong": 8946,
      "etch": 8947,
      "olar": 8948,
      "Ġmilitant": 8949,
      "Ġdivision": 8950,
      "Ġhunting": 8951,
      "Ġdirected": 8952,
      "viously": 8953,
      "Ġmissile": 8954,
      "issippi": 8955,
      "Ġstretch": 8956,
      "encer": 8957,
      "Ġdust": 8958,
      "Ġanalyst": 8959,
      "Ġnickn": 8960,
      "Ġstealing": 8961,
      "ĠSurrey": 8962,
      "abs": 8963,
      "Ġneighbors": 8964,
      "Ġmood": 8965,
      "Ġbottles": 8966,
      "Ġfoods": 8967,
      "Ġodds": 8968,
      "vy": 8969,
      "ĠKeith": 8970,
      "found": 8971,
      "Ġviewed": 8972,
      "ĠAtletico": 8973,
      "Ġspac": 8974,
      "Ġtargeting": 8975,
      "Ġlovely": 8976,
      "ĠWinter": 8977,
      "oir": 8978,
      "Ġearthquake": 8979,
      "Ġtransp": 8980,
      "Ġemployment": 8981,
      "bits": 8982,
      "ĠVin": 8983,
      "Ġec": 8984,
      "ĠBiden": 8985,
      "ructed": 8986,
      "ĠLawrence": 8987,
      "held": 8988,
      "ĠThanks": 8989,
      "gging": 8990,
      "34": 8991,
      "Ġadj": 8992,
      "ĠHawaii": 8993,
      "Ġpeak": 8994,
      "Ġblaze": 8995,
      "ĠIslamist": 8996,
      "Ġescal": 8997,
      "Ġalarm": 8998,
      "ĠEmily": 8999,
      "Il": 9000,
      "wife": 9001,
      "anne": 9002,
      "ipal": 9003,
      "lessly": 9004,
      "Ġstroke": 9005,
      "Ġcompound": 9006,
      "Ġcontrols": 9007,
      "enson": 9008,
      "door": 9009,
      "Ġentertainment": 9010,
      "ser": 9011,
      "Ġciting": 9012,
      "Ġdelayed": 9013,
      "Ġrecruit": 9014,
      "ĠEve": 9015,
      "Ġsevent": 9016,
      "Ġoperate": 9017,
      "ĠDevon": 9018,
      "ĠCher": 9019,
      "Ġentrance": 9020,
      "Ġsalary": 9021,
      "RE": 9022,
      "Ġbacking": 9023,
      "ING": 9024,
      "ĠGolden": 9025,
      "Ġsustain": 9026,
      "fortunately": 9027,
      "Ġsilence": 9028,
      "Ġminority": 9029,
      "idency": 9030,
      "aven": 9031,
      "nesota": 9032,
      "ĠLouisiana": 9033,
      "ĠHas": 9034,
      "Ġsurvival": 9035,
      "orable": 9036,
      "ĠVol": 9037,
      "Ġsmell": 9038,
      "Ġcarefully": 9039,
      "Ġpicking": 9040,
      "Ġcats": 9041,
      "ĠDonald": 9042,
      "nsic": 9043,
      "Ġtwin": 9044,
      "ĠTenness": 9045,
      "oen": 9046,
      "ĠNov": 9047,
      "ĠWolf": 9048,
      "Ġclip": 9049,
      "Ġrecommended": 9050,
      "Ġinstance": 9051,
      "Ġsail": 9052,
      "Ġneur": 9053,
      "Ġquoted": 9054,
      "ĠBah": 9055,
      "estone": 9056,
      "ierra": 9057,
      "Ġ68": 9058,
      "mans": 9059,
      "esity": 9060,
      "Ġtorture": 9061,
      "Ġfing": 9062,
      "Ġwildlife": 9063,
      "winning": 9064,
      "Ġconsultant": 9065,
      "Ġthroat": 9066,
      "Ġperformances": 9067,
      "bal": 9068,
      "ĠSweden": 9069,
      "Ġexit": 9070,
      "Ġflash": 9071,
      "Ġfortune": 9072,
      "Ġnights": 9073,
      "abe": 9074,
      "page": 9075,
      "Ġtrigg": 9076,
      "Ġhell": 9077,
      "Ġ600": 9078,
      "Ġconcert": 9079,
      "Ġdeployed": 9080,
      "mund": 9081,
      "wealth": 9082,
      "Ġbusinessman": 9083,
      "Ġappointment": 9084,
      "Ġposing": 9085,
      "sk": 9086,
      "Ġapproximately": 9087,
      "Ġbaseball": 9088,
      "ĠDougl": 9089,
      "Ġdestination": 9090,
      "pre": 9091,
      "Ġ72": 9092,
      "ĠMississippi": 9093,
      "orer": 9094,
      "Ġdates": 9095,
      "Ġunemployment": 9096,
      "Ġbitter": 9097,
      "Ġparked": 9098,
      "ĠKansas": 9099,
      "rolled": 9100,
      "Ġdistress": 9101,
      "Ġfitted": 9102,
      "Ġgraduate": 9103,
      "mile": 9104,
      "ĠMack": 9105,
      "Ġseed": 9106,
      "Ġrealise": 9107,
      "Ġoblig": 9108,
      "ĠProv": 9109,
      "Ġloving": 9110,
      "ĠSerge": 9111,
      "expected": 9112,
      "Ġadvanced": 9113,
      "Ġperfectly": 9114,
      "abetes": 9115,
      "uments": 9116,
      "Ġinvestors": 9117,
      "Ġphen": 9118,
      "Ġwet": 9119,
      "Ġroles": 9120,
      "ĠLatin": 9121,
      "Ġdancing": 9122,
      "asty": 9123,
      "ahl": 9124,
      "ifted": 9125,
      "Ġmidfield": 9126,
      "Ġinmates": 9127,
      "Ġbranded": 9128,
      "bey": 9129,
      "Ġregions": 9130,
      "Ġdonations": 9131,
      "Ġframe": 9132,
      "Ġmanagers": 9133,
      "Ġcrossed": 9134,
      "ĠQatar": 9135,
      "ĠAld": 9136,
      "ĠSomalia": 9137,
      "ĠSony": 9138,
      "Ġknock": 9139,
      "Ġteach": 9140,
      "ĠMurphy": 9141,
      "ĠDid": 9142,
      "ĠMas": 9143,
      "abis": 9144,
      "olved": 9145,
      "Ġ63": 9146,
      "Ġuncle": 9147,
      "Ġmistakes": 9148,
      "ĠTsar": 9149,
      "Ġreven": 9150,
      "etta": 9151,
      "idal": 9152,
      "orse": 9153,
      "ĠTok": 9154,
      "Ġlicense": 9155,
      "ĠIndonesia": 9156,
      "ĠKrist": 9157,
      "ĠCair": 9158,
      "cription": 9159,
      "Ġsurvivors": 9160,
      "ĠDiv": 9161,
      "Ġdeserve": 9162,
      "undreds": 9163,
      "ĠVen": 9164,
      "Ġunw": 9165,
      "iga": 9166,
      "erez": 9167,
      "ĠDy": 9168,
      "Ġtools": 9169,
      "Ġpractices": 9170,
      "ras": 9171,
      "election": 9172,
      "iture": 9173,
      "ĠFreed": 9174,
      "ĠCaptain": 9175,
      "ĠBarclays": 9176,
      "Ġdeemed": 9177,
      "oria": 9178,
      "Ġbears": 9179,
      "upid": 9180,
      "ups": 9181,
      "ĠPistor": 9182,
      "itis": 9183,
      "Ġfinds": 9184,
      "Ġencouraging": 9185,
      "iants": 9186,
      "idents": 9187,
      "Ġdiscrimination": 9188,
      "ĠMinnesota": 9189,
      "ĠKingdom": 9190,
      "Ġenemy": 9191,
      "Ġrocks": 9192,
      "Ġprobation": 9193,
      "Ġcamps": 9194,
      "Ġchallenging": 9195,
      "ĠOliver": 9196,
      "Ġrecovering": 9197,
      "Ġdeparture": 9198,
      "oping": 9199,
      "Ġintim": 9200,
      "Ġunfair": 9201,
      "rd": 9202,
      "Ġinfrastructure": 9203,
      "Ġtech": 9204,
      "Ġpocket": 9205,
      "oration": 9206,
      "ĠAustin": 9207,
      "Ġsequ": 9208,
      "thal": 9209,
      "Ġtensions": 9210,
      "acht": 9211,
      "ĠHon": 9212,
      "Ġcriticized": 9213,
      "Ġconsumer": 9214,
      "ĠBuckingham": 9215,
      "km": 9216,
      "Ġfright": 9217,
      "Ġ77": 9218,
      "Ġcongressional": 9219,
      "Ġtreating": 9220,
      "Ġelite": 9221,
      "Ġtweets": 9222,
      "ĠPistorius": 9223,
      "Ġtiss": 9224,
      "Ġtool": 9225,
      "ĠThatcher": 9226,
      "Ġoverwhelming": 9227,
      "ĠTed": 9228,
      "ĠNether": 9229,
      "rical": 9230,
      "ĠSavile": 9231,
      "TS": 9232,
      "inging": 9233,
      "Ġcousin": 9234,
      "ĠAvenue": 9235,
      "ĠMull": 9236,
      "ĠYour": 9237,
      "Ġfootballer": 9238,
      "Ġquestioning": 9239,
      "Ġcycl": 9240,
      "Ġdecline": 9241,
      "Ġresidence": 9242,
      "Ġstudied": 9243,
      "igious": 9244,
      "inder": 9245,
      "ĠAlaska": 9246,
      "Ġcore": 9247,
      "eling": 9248,
      "Ġintervention": 9249,
      "acceptable": 9250,
      "ĠFest": 9251,
      "ĠHad": 9252,
      "Ġbreaks": 9253,
      "Ġkidnapping": 9254,
      "Ġsettled": 9255,
      "Ġdiamond": 9256,
      "onduct": 9257,
      "Ġingred": 9258,
      "Ġsed": 9259,
      "Ġguess": 9260,
      "Ġdesigns": 9261,
[...]
