#version: 0.2
Ġ t
h e
Ġ a
i n
e r
Ġt he
Ġ s
o n
r e
Ġ w
e d
e n
Ġ c
Ġ o
a t
Ġ b
a n
Ġ f
o r
i s
in g
i t
Ġ h
Ġt o
e s
a r
Ġ p
n d
Ġ in
o u
a s
a l
Ġ m
Ġo f
Ġ d
Ġa nd
i c
l e
o m
Ġt h
i l
i d
i on
Ġ .
en t
Ġ l
Ġb e
Ġ n
Ġ T
Ġ he
Ġ re
v e
s t
o t
Ġ S
a y
Ġ g
u t
o l
Ġ on
a d
Ġ A
a m
Ġ M
a c
Ġ e
o w
l y
u r
Ġ C
Ġf or
i m
i g
t er
Ġw as
Ġ I
i r
v er
e l
e t
Ġth at
Ġs t
Ġ is
r o
Ġ B
Ġw h
u s
â Ģ
' s
e c
it h
ĠT he
Ġw ith
Ġs a
l d
Ġa t
Ġ H
il l
Ġ it
Ġ '
r i
Ġ P
Ġa s
u n
Ġsa id
Ġa n
c e
at ion
Ġ y
Ġa l
he r
er s
Ġh is
Ġh a
e ar
o s
r a
c h
Ġ W
an d
Ġ D
u l
ig h
o p
es t
t h
Ġ L
k e
r om
Ġ R
e m
a g
Ġc on
Ġ F
âĢ Ļ
Ġ 2
t s
o re
i f
Ġ 1
p p
Ġha ve
Ġ r
Ġf rom
Ġ N
Ġ E
ou r
Ġa re
Ġh as
Ġb y
Ġ G
a in
Ġs h
Ġhe r
e w
Ġc om
Ġ "
t ed
Ġc h
Ġ v
re s
o d
Ġ J
at e
ou ld
Ġw e
0 0
Ġd e
Ġ le
Ġn ot
u p
c t
en d
es s
as t
igh t
Ġs e
g h
u m
u st
ac k
Ġe x
Ġwh o
Ġ j
al l
Ġ O
it y
a b
Ġp ro
Ġh ad
s e
Ġ âĢ
is t
Ġw he
Ġ -
i ve
ar d
Ġa f
Ġs p
er e
ar t
Ġ U
a k
o c
ic e
m ent
Ġs he
r ou
o k
Ġs u
om e
Ġa b
or t
re d
Ġp l
Ġthe y
ou n
i es
i v
Ġbe en
Ġw ere
ou t
Ġthe ir
Ġ k
ic h
u d
g e
q u
Ġaf ter
Ġb ut
Ġg o
o st
Ġw or
an t
Ġo r
id e
el l
Ġ K
Ġth is
Ġo ut
Ġw ill
Ġof f
i al
r y
Ġc l
Ġy ear
ĠâĢ ĺ
b er
ow n
i e
on e
a p
e p
on g
d ay
Ġ up
Ġd o
c c
i a
ou s
in e
re n
f f
Ġa d
Ġa g
Ġwh ich
Ġ un
im e
an s
or d
Ġ (
Ġ2 0
Ġn e
Ġc an
u nd
ic t
ĠS t
m er
Ġin t
u b
Ġ us
ec t
ol d
am e
Ġon e
t her
al ly
Ġwhe n
Ġal l
ac e
ar y
ĠH e
Ġab out
ay s
ĠC h
at ed
Ġy ou
u e
Ġm an
ĠI n
Ġp e
ag e
Ġre s
Ġm ore
Ġw ould
. '
a il
s o
Ġm e
w o
p l
a ke
u re
i le
' t
ver y
Ġin c
op le
Ġh im
ion s
on d
Ġcon t
ol l
o ok
Ġo ver
a v
en ce
il d
Ġs o
os e
Ġal so
Ġ20 1
it e
i an
id ent
Ġa r
ou nd
in d
Ġpe ople
Ġre p
i re
as s
Ġd is
, "
ig n
o g
i p
Ġ im
i ke
Ġbe c
ĠT h
res s
re e
Ġp r
Ġp ol
k s
r u
Ġs c
a us
ot her
Ġth an
Ġt wo
Ġe v
is h
Ġa cc
a re
ĠI t
Ġat t
Ġcom p
n e
oun t
p er
m an
Ġ- -
Ġ V
f t
Ġint o
ĠM r
Ġ en
Ġa pp
Ġj ust
ou gh
i b
Ġf ir
he d
Ġthe m
Ġp er
o y
ic k
Ġn ew
T he
Ġre c
Ġto ld
r it
ac t
Ġt e
v ed
Ġt ime
. "
Ġk n
or s
Ġc ould
Ġthe re
Ġo ther
re at
ar k
Ġwor k
ation s
Ġp art
u c
Ġit s
Ġyear s
Ġl ast
p t
ac h
ad e
n ing
Ġm y
Ġ 3
is s
Ġfir st
Ġ Y
if e
o b
f ore
Ġl ike
an g
i z
a w
an ce
ab le
Ġt r
o ve
ĠB ut
Ġs ome
as e
il y
aus e
rou nd
Â ł
en s
o od
Ġb l
i ed
an c
at h
Ġb ack
Ġg et
Ġ ro
Ġf am
am p
Ġwh at
Ġan y
Ġ qu
Ġp re
Ġ1 9
Ġbe fore
ic al
at er
t ing
Ġd own
in k
Ġpl ay
or m
l and
Ġag ain
Ġn o
, '
n ed
Ġf l
i ous
e k
Ġin v
Ġbe ing
o ol
und er
Ġsh ow
w e
g ed
ur ing
Ġn ow
Ġd id
Ġc ar
ul t
on s
Ġs ec
Ġt ra
Ġin ter
ĠU n
Ġs er
ent s
Ġch ild
it ion
Ġc r
Ġm on
at es
Ġd es
Ġoff ic
Ġd ec
ĠA l
Ġa m
ve l
rou gh
o in
ing s
00 0
l ic
Ġh ome
Ġwhe re
l ud
or y
Ġa ct
ĠS he
en c
Ġ under
Ġ if
Ġad d
Ġb r
Ġs ay
it ed
ĠN ew
Ġbec ause
y ear
ver s
w n
ter s
Ġf e
v ing
ĠA n
Ġp h
Ġ Â
Ġc all
Ġpol ice
a u
h ing
u red
Ġ 4
Ġf ound
Ġre m
in ce
ak ing
t on
Ġon ly
o ot
al s
o ver
Ġinc lud
i er
Ġl ook
Ġ2 00
Ġh ow
Ġth ree
s s
ill ion
Ġw om
N N
oc k
at her
Ġcom m
f er
Ġbe l
ĠÂ £
Ġfam ily
Ġim p
Ġs ur
Ġo ur
Ġc ent
Ġmon th
Ġ ra
ation al
Ġc ount
a ir
Ġhe l
Ġbe t
Ġm ade
ĠL e
Ġex p
Ġch ar
Ġg r
ri b
Ġwh ile
ri end
at ing
Ġ 5
ub lic
ĠA nd
Ġm ost
os s
is e
s on
Ġd uring
our t
Ġagain st
Ġthe n
er ed
l ed
Ġwe ek
t y
ou se
el f
Ġa c
Ġth rough
f ul
Ġhel p
W e
. âĢĻ
p h
Ġa w
t e
ĠM ar
a im
I t
Ġin s
Ġe ar
Ġs ays
Ġev en
it ies
Ġd ay
Ġe very
Ġ very
he n
u es
em ber
Ġle ft
Ġrep or
v en
it al
ord ing
Ġkn ow
Ġf in
Ġsu pp
u ch
ĠS c
h n
at ch
op e
Ġp res
Ġm ake
ĠF r
i x
t le
Ġre l
Ġm in
Ġa round
Ġde f
ur n
as ed
Ġcon s
Ġle ad
ĠA f
ch ool
Ġwor ld
Ġe m
u g
Ġcl aim
Ġl ife
or n
ĠW h
Ġne ed
au gh
a red
ĠS p
al k
Ġk ill
as h
n ment
le ct
Ġt ri
Ġ ke
Ġs m
l es
o v
a h
Ġo wn
Ġd on
g er
m ed
Ġ 6
mer ic
ir l
Ġse e
ĠB rit
g et
Ġst ar
Ġre t
he s
or k
i ew
Ġt ake
Ġbel ie
Ġte am
Ġchild ren
Ġre g
Ġw ay
Ġin f
ers on
Ġth ink
Ġman y
Ġb u
Ġ end
oll ow
ĠE n
x t
Ġl ong
em ent
s h
u res
Ġas s
Ġin d
Ġf our
ĠA r
rou p
Ġsh ould
ec ted
b le
Ġw ell
od y
Ġgo ver
g an
Ġ $
d er
ou th
Ġs et
Ġg u
Ġgo ing
w ard
Ġh and
u al
Ġy our
E D
Ġhe ad
ul l
r ic
ĠB r
a z
ĠA meric
iv es
Ġw ar
S T
Ġth ose
Ġl aw
a ve
Ġm ay
Ġinv est
Ġst ill
Ġs ince
c ed
Ġatt ack
al th
Ġha pp
Ġm ed
al e
ot h
im es
Ġc o
Ġm il
. .
a ren
on t
Ġp ict
Ġst ud
is ts
Ġth ough
ĠS h
i el
Ġf riend
Ġpl an
ĠE ST
Ġr ight
os p
ĠW e
en e
Ġh igh
Ġw in
Ġv ide
Ġde ath
Ġt er
as on
ĠR e
us s
c er
ne y
Ġcount ry
Ġres p
ut h
is ed
l ing
Ġf ollow
ĠJ o
Ġcon f
Ġn ear
n er
an k
Ġg roup
an y
Ġs chool
we en
ĠâĢ ĵ
Ġsu ch
Ġo p
ib le
g g
Ġd if
ĠThe y
Ġoffic ial
l l
ad y
am a
Ġm uch
is ter
Ġt ak
am es
ul ar
v es
Ġc ap
Ġgover nment
ro ss
Ġn ight
Ġinclud ing
Ġb o
ĠUn ited
Ġbet ween
Ġm other
Ġp ut
t ain
Ġs ign
Ġus ed
Ġw ant
m s
Ġdis c
le y
c k
Ġ1 0
it s
b r
Ġc ourt
Ġp ublic
an ge
Ġm ar
Ġfor mer
Ġc ol
b s
Ġr un
ter n
Ġ 7
Ġ201 3
en ed
Ġle g
i o
Ġacc ording
Ġgo od
ot t
a x
Ġvide o
ur y
Ġc he
an ts
Ġp ass
ol og
Ġn um
e ver
ow er
Ġy oun
ec ut
h am
Ġpr ot
Ġsec ond
in a
r al
ĠI s
Ġs l
ur s
Ġf r
Ġas k
ĠC l
ĠC NN
Ġto ok
B y
Ġd ri
ĠEn g
Ġinvest ig
is ion
ĠP ol
Ġcall ed
Ġst r
Ġst at
Ġp erson
n ess
re st
g r
re t
Ġw r
or th
Ġex t
om et
Ġadd ed
Ġc are
Ġne xt
ot e
st er
ut e
Ġwom en
s ide
ic s
er al
in es
s elf
Ġs y
Ġ ent
Ġan other
in s
Ġc le
ĠA s
Ġs ent
a pp
Ġne ver
p le
Ġd ays
ĠCh r
ond on
Ġl ater
b ers
Ġcon d
Ġl oc
one y
Ġg irl
osp ital
Ġf ive
Ġv ict
Ġthe se
our s
et s
Ġa ir
ĠL ondon
is on
Ġb us
at ive
Ġre f
ĠA t
Ġcont r
ĠP r
Ġal le
Ġm em
ĠM on
re m
h ip
i vers
u ally
Ġaw ay
Ġcont in
Ġcom e
uth or
Ġse en
i ver
ment s
ĠO b
Ġg ot
Ġre le
Ġph ot
Ġbe h
Ġrep ort
iv ing
Ġd r
Ġs ame
m in
Ġ Q
us ed
ag es
Ġmonth s
Ġv is
om m
Ġf ind
Ġdo es
Ġc ase
ĠM c
p r
Ġb ig
Ġf il
Ġyoun g
ĠTh is
Ġp ost
Ġt ry
ĠD e
Ġ Z
Ġex per
v ice
Ġrepor ted
Ġb re
igh ts
Ġc ame
T h
ic es
l ine
Ġb oth
Ġe ff
Ġm illion
Ġto day
il ity
Ġm en
id ay
Ġw ent
i am
Ġin j
Ġp oin
Ġc amp
Ġ201 2
Ġpl ace
Ġtak en
b y
Ġst ate
' re
Ġsp e
e x
ire ct
Ġc re
os ed
i red
Ġsp ok
Ġpro v
Ġre ally
al f
Ġc ur
Ġ 8
Ġl it
at ur
I S
Ġre al
ĠJo hn
Ġs omet
a j
i ent
ĠOb ama
Ġan n
ĠB ar
Ġ 9
ĠC ar
Ġex pl
Ġto p
Ġm iss
Ġs ix
ĠR ep
ag ue
iv ed
and s
Ġf oot
Ġde p
ĠF or
Ġis s
g es
Ġfe el
enc y
on y
ĠO n
Ġh ouse
i k
Ġse x
Ġsp ec
if ic
Ġc ou
Ġto o
Ġdid n
d uc
n es
ri v
Ġus e
Ġwom an
ĠD av
y s
Ġre st
Ġar rest
Ġtr ans
Ġg reat
Ġf ar
Ġpre v
us p
c es
Ġnew s
Ġs k
c hed
Ġrec ent
u ct
Ġg l
t en
Ġhe alth
o ber
Ġsu b
Ġd et
Ġrem ain
e le
ri ed
Ġmil it
he l
Ġ1 2
Ġre ce
ĠS outh
Ġg en
Ġf ather
augh ter
ear ch
C NN
iel d
Ġsupp ort
Ġp ay
Ġd ied
or ts
ĠS y
' .
Ġb est
Ġman ag
ĠPol ice
Ġse ver
ren t
ĠB l
Ġnum ber
t il
ĠY ork
Ġl ar
A T
Ġw ife
ĠW or
t o
o ved
in ess
ĠE ur
Ġaf f
ur ned
Ġf ac
ir d
th ing
b all
Ġspok es
a ff
Ġall ow
Ġm et
Ġs usp
Ġper f
Ġin st
Ġpres ident
Ġs w
Ġkill ed
Ġs it
ur ity
Ġdif fer
ist r
i et
Ġs im
Ġp ar
am er
Ġf ew
Ġl ot
u ed
w ays
ĠChr ist
Ġb oy
Ġhe re
v iew
Ġp oss
Ġs on
Ġke ep
Ġg ame
m it
Ġd irect
pp ed
Ġst op
er ing
ĠP res
Ġt est
Ġm oney
ĠH ow
Ġp at
en se
Ġ1 5
Ġa uthor
ĠM ay
iv en
c om
ĠBrit ish
uc k
Ġtra in
ru g
c on
Ġb ody
Ġd em
Ġm ove
H e
ate ly
id ed
ĠEng land
Ġ ve
Ġle t
Ġ1 8
Ġo pp
art ment
ĠWor ld
ĠA ust
an ted
Ġpol it
ion al
an n
is m
Ġd el
ĠB e
' m
Ġapp ear
i ol
is hed
Ġthough t
Ġf ace
an e
r oll
Ġun til
Ġcl ub
end ing
Ġs ide
Ġp op
Ġinter n
Ġh ospital
Ġcomm un
Ġcomp any
Ġha ving
Ġsay ing
Ġre ve
Ġp aren
Ġsh ot
Ġst art
Ġ1 1
Ġwith out
Ġbu ild
ĠS und
Ġpro ble
Ġsu ff
id ence
Ġdes c
Ġse ason
Ġo ld
Ġrec ord
en n
Ġag o
Ġinv ol
Ġc ity
ĠPres ident
t he
Ġop en
Ġp ast
at ic
ial ly
ĠSund ay
' ve
Ġvict im
ĠM in
st em
p ort
Ġf ire
Ġs oc
Ġh ours
Ġsomet hing
Ġj ob
c o
ĠW est
at s
Ġo per
Ġm od
ĠMon day
ivers ity
ie f
ĠO ne
Ġlit tle
end ed
P D
Ġstat ement
r or
b e
Ġcomp le
ĠU K
Ġask ed
on es
Ġe ach
Ġh it
Ġh um
Ġw on
ĠH ar
ĠM iss
Ġt imes
el s
ent ion
Ġh ard
is ing
in al
Ġac ross
ĠThe re
Ġqu est
i ence
ues day
Ġw ater
Ġst and
Ġfollow ing
i or
ĠEur ope
ĠT uesday
ĠC ity
Ġp rom
Ġcle ar
c l
Ġkn own
Ġm ur
a ign
Ġapp e
Ġd aughter
Ġ 0
re ady
Ġab le
es p
l ier
vel op
og ra
Ġpict ured
er v
r ow
a ul
Ġb ro
al ed
ro p
ĠS e
am ed
Ġc ost
g y
ĠI nd
Ġare a
ĠFr iday
Ġal ong
y ing
ut es
Ġsy stem
Ġofficial s
ĠTh at
Ġp os
Ġg iven
ĠAmeric an
Ġe lect
ĠW ed
, âĢĻ
o ke
ĠA m
c ess
Ġalle ged
Ġal ready
Ġm id
Ġm ark
Ġal ways
Ġv iol
Ġcou ple
a id
Ġde ad
ail ed
Ġo b
Ġde al
un e
iz ed
ĠDav id
pl oy
r ight
Ġa v
ĠR uss
ĠA d
us e
re en
Ġmem bers
it ing
ĠJ an
AT ED
Ġst ri
Ġtra vel
Ġinf orm
ĠU PD
Ġbus iness
aj or
ĠUPD ATED
e ks
ĠAust ral
Ġf act
Ġd rug
ĠG er
Ġst ru
b and
Ġwork ing
Ġfriend s
re et
) ,
Ġbelie ve
ĠH er
Ġc oun
Ġsa f
ar ing
Ġcamp aign
c ent
ard s
nes day
over ed
ra in
ĠWed nesday
ect ion
Ġad v
um p
ec ts
B L
Ġcl ose
a un
ĠP h
Ġout side
Ġt ell
Ġ |
ĠP e
if ied
Ġh alf
Ġcon cer
IS H
Ġ3 0
Ġcur rent
a f
at ter
U BL
Ġparen ts
ISH ED
UBL ISHED
Ġmilit ary
ĠW hen
ĠN orth
Ġme et
ĠC o
Ġstar ted
Ġ19 9
Ġ est
Ġar t
Ġp ower
o or
Ġdesc rib
Ġt aking
Ġm or
Ġre qu
Ġinc re
ut ion
ĠH is
ep t
Ġt reat
Ġf ight
ĠC ol
ĠG e
ĠP UBLISHED
atur day
Ġl ess
Ġev ent
ri es
Ġc aus
Ġbec ome
ce pt
ĠM s
Ġear ly
Ġwhe ther
Ġbeh ind
Ġwe eks
Ġinc ident
ĠAf ter
ĠF l
ĠC omm
Ġde velop
ĠS aturday
ĠW ill
Ġpro f
at t
ious ly
urs day
Ġj oin
Ġse em
Ġc ele
i ans
ĠTh ursday
Ġdiffer ent
Ġm om
Ġhe ard
Ġc er
Ġm ight
cc ess
Ġsever al
Ġg ive
ĠA b
Ġloc al
Ġm aking
es ter
m ing
Ġw alk
Ġh old
re w
Ġsm all
p e
ĠLe ague
Ġf ore
ĠS ec
Ġp ress
us band
ĠC up
l ess
he ad
Ġus ing
Th is
ĠP ro
Ġth ings
Ġ ed
est s
Ġsec urity
ain ed
Ġl ove
Ġhis t
Ġv iew
ak es
Ġ1 6
Ġw anted
u ary
Ġspokes man
f ic
o on
gr am
Ġle ast
Ġs old
Ġcon v
Ġg un
Ġdes ign
ar s
b ook
Ġa p
Ġpr ison
Ġann oun
ĠMr s
Ġs n
j ect
up er
Ġsa w
Ġb ook
at ors
m ost
ĠSc roll
Ġbet ter
Ġe ver
Ġth reat
anc he
al es
en g
as es
B C
Ġt alk
Ġrele ased
Ġl ost
Ġm ajor
Ġj ud
ĠJ u
Ġm ess
Ġr is
w ay
ĠAl l
Ġh usband
us h
Ġc rit
s ecut
Ġfr ont
Ġe l
ĠH ouse
ĠM ich
ore d
a el
e b
Ġc ut
Ġtry ing
con om
ĠD r
Ġs ing
he re
Ġf ull
ĠSt ates
Ġro om
Ġt ax
Ġplay ers
Ġs um
5 0
Ġ1 4
Ġf ood
Ġpart y
Ġ1 3
Ġre d
m y
ĠC ourt
Ġb ab
Ġpro per
el t
ĠT r
Ġf ur
at or
ic ally
Ġcons id
ĠE d
Ġm ain
Ġm ust
ĠD ec
ĠBrit ain
ĠAf ric
Ġ1 7
Ġsu ccess
Ġpart ic
m illion
ress ed
Ġc ust
iz e
get her
Ġto gether
ist an
Ġmed ia
Ġshow s
ĠJan uary
Ġimp ort
e v
Ġsh ort
ĠM ail
Ġ201 1
Ġf ree
Ġwr ote
Ġam ong
Ġoffic ers
Ġor gan
ĠUn iversity
Ġe mer
Ġw atch
Ġpro gram
Ġbe gan
Ġlook ing
Ġch ang
o f
i um
qu e
Ġmur der
Ġcele br
Ġp ain
ĠD ep
Ġn ame
ĠG r
anc es
Ġarrest ed
Ġhim self
w it
le t
Ġsu gg
Ġfin al
Ġl ive
ec hn
Ġh ot
Ġear lier
ĠSy ri
g in
ĠC r
Ġsh oot
c her
g o
Âł Âł
Ġo cc
Ġdec ision
Ġch ange
l in
Ġmor ning
Ġatt em
ĠI f
as hing
st r
en al
Ġt re
Ġd ra
Ġinform ation
al if
Ġclaim s
Ġst ay
ur ch
Ġw a
le ft
Ġst aff
Ġle vel
Ġclaim ed
ac y
Ġmin utes
Ġpoin t
Ġhe ld
Ġen ough
Ġinvestig ation
ester day
Ġd i
oc r
Ġapp ro
Ġgr ow
ail y
Ġe conom
Ġon ce
Ġr ul
Ġwh y
Ġreve aled
ĠHow ever
Ġar ri
ĠF ace
ĠC ent
Ġ ident
u ge
er n
Ġp riv
Ġl and
g est
Ġbec ame
Ġc or
es c
Ġd one
ĠS ept
ĠY ou
âĢĻ .
Ġauthor ities
Ġhe art
l er
Ġd ist
Ġre ad
ĠI r
Ġfor m
Ġlar ge
Ġg round
Ġe y
Ġcom pl
all en
ro om
olog y
m ber
Ġl aun
Ġev idence
Ġdo g
ĠFace book
ĠO ff
Ġdo ing
ĠGe or
ac ed
ĠP ar
ec h
at ure
Ġc our
enc es
ĠC on
ward s
Ġk id
il le
Ġgo al
ĠD em
Ġvis it
ab ly
Ġother s
Ġfoot ball
l ish
Ġw ear
Ġh ope
ĠSept ember
Ġh om
Ġbl ack
Ġget ting
d en
re ed
op s
f ord
anche ster
ĠO ct
Ġde b
Ġcomm it
Ġdo ct
ove mber
ĠRep ublic
a ut
ĠN ational
un g
a i
ĠG u
st and
Ġe as
b ed
Ġexp ected
Ġth ird
Ġad mit
ĠN ovember
Ġen g
c il
The re
e y
e ad
av ing
th ough
Ġph one
ĠDec ember
ĠA ug
Ġinter view
Ġrel ations
al d
Ġth ing
as ter
Ġb an
Ġlike ly
Ġal most
Ġret urn
Ġbre ak
ĠOct ober
Ġs ite
Ġhapp ened
Ġb ar
re am
o le
Ġl ives
e e
Ġser vice
ĠMar ch
ĠM anchester
Ġp le
Ġcl ass
Ġ ide
Ġd am
igh b
Ġcomp et
Ġsoc ial
Ġse ven
d s
Ġcontr ol
ĠAug ust
Ġw rit
Ġt ar
Ġf ut
ĠGer man
ĠC ount
Ġpol ic
Ġl o
ĠE l
Ġimport ant
ĠJ une
Ġt echn
Ġcom es
m p
Ġf ell
iss ion
Ġp ot
s el
Ġf un
Ġpro duc
al y
Ġof ten
ĠM an
ĠWill iam
ĠMich ael
ĠN o
Ġpolit ical
o x
Ġe ight
Ġro ad
id ge
ĠW ar
Ġa ge
Ġhum an
d le
ĠA cc
Ġl ist
Ġbr other
The y
ur g
Ġd en
Ġ2 5
r ing
oc i
ap er
Ġstr ong
Ġintern ational
l am
om b
Ġm atch
st it
Ġoff ice
Ġins ide
Ġl ine
Ġd ue
Ġb all
Ġtri ed
her n
Ġwe bs
Ġfur ther
Ġl ate
Ġdes p
e f
id es
s p
Ġto wn
Ġsp ent
c hes
Ġex ecut
Ġphot ogra
Ġw ind
ĠU S
Ġacc used
Ġinvol ved
Ġh op
Ġfut ure
Ġf ans
Ġm us
Ġ201 0
ict ured
Ġspec ial
ang er
Ġter ror
i ents
Ġf ig
se a
it ions
Ġf und
ĠJu ly
Ġquest ion
Ġchar ges
ĠS er
pr il
Ġtri al
Ġy esterday
our n
ect ive
ĠCh ar
ĠP ark
ĠA ss
Ġdescrib ed
Ġan im
Ġem ploy
ĠP al
Ġn ational
Ġle ave
Ġy et
Ġrece ived
ail s
ĠSt ate
it ness
Ġgr and
ĠS o
Ġconf ir
ĠA pril
Ġe qu
Ġbelie ved
ĠO r
ra z
ort un
p ar
Ġl ed
Ġh ost
Ġan t
ap e
ir th
ock ed
Ġbab y
ap s
Ġb it
Ġfil m
Ġpro secut
Ġcommun ity
Ġpro cess
u ff
Ġg ave
fic ult
Ġcom ment
f or
an a
Ġplay ed
Ġsome one
ĠCh ina
Ġsp ot
w ork
ig r
Ġcol le
p ed
ĠIn tern
ĠAn g
ut ed
or ies
Ġdoes n
Ġbr ing
Ġmanag er
Ġposs ible
ra q
Ġsugg est
Ġwith in
Ġor der
ĠH am
Ġl iving
or ney
ĠS m
Ġ2 4
amp ions
a ur
Ġle ar
Ġoffic er
Ġon line
Ġtar get
Ġne ighb
Ġb ad
f riend
Ġleg al
wit ter
Ġsc ene
en ing
Ġinter est
Ġk ind
Ġdif ficult
il ar
oc um
ĠI raq
Ġact ion
ough t
Ġd ou
iv il
rem e
ĠJ ust
ĠR o
Ġdesp ite
ic le
Ġsu re
Ġ5 0
Ġl ight
n s
Ġact iv
n ot
Ġbl ood
i pp
Ġfam il
ĠJ ames
Ġst ory
ĠT V
Ġ2 1
Ġris k
ĠDep artment
ent ed
v ices
ĠJ ack
in c
y le
Ġs ol
Ġt y
Ġt w
Ġt urn
ĠP aul
Ġlead ers
ĠAmeric a
ru ct
Ġhist ory
Ġt urned
ed eral
Ġm ot
Ġany thing
ĠF eb
Ġfor ward
as k
Ġb ed
Ġwas n
Ġmom ent
le x
ĠMin ister
ĠT witter
Ġ201 4
ĠG l
Ġb ene
ac hed
ĠCount y
Ġs our
ĠM art
it ive
Ġme an
ĠM e
Ġchar ged
ens ive
Ġdirect or
ru ary
Ġte en
Ġf all
Ġcomple te
ill s
ashing ton
ar m
Ġp ub
i ber
ĠNew s
et y
Ġg ra
Ġcont rib
p ool
Ġqu ick
ĠFeb ruary
o ff
j oy
Ġn ation
ir c
ren ch
Ġb irth
Ġrelations hip
Ġor d
Ġtrain ing
Ġwebs ite
ret ary
Ġn et
ĠS en
Ġst ep
Ġre pl
Ġbuild ing
Ġwork ed
Ġresp ons
Ġcom ing
Ġst e
d uct
Ġrepor ts
Ġappe ared
ent ial
g ency
sel ves
ĠSt e
alif orn
ĠWh ite
Ġa head
u ation
2 0
m e
I f
Ġplay er
Ġcap t
id ing
Ġcar ry
ĠE m
p ictured
ec k
rough t
Ġ1 00
at tle
er ry
g ing
Ġs earch
ĠAcc ording
c ted
Ġm ass
ĠWh ile
Ġlead er
Ġ19 8
in t
in ation
Ġd ocum
ĠC aliforn
Ġadmit ted
Ġim m
Ġcour se
Ġr ights
is ted
Ġex c
ĠR oy
l o
Ġh or
Ġv ot
Ġnot hing
ĠK ore
Y ou
Ġm ag
Ġser ies
Ġproble m
Ġve h
* *
Ġcontin ue
ĠE ar
ĠE x
r ay
Ġch ief
ĠM or
Ġsum mer
ĠP l
Ġro le
ac her
ow s
Ġshow ed
ous ands
Ġmil es
Ġ4 0
S he
p or
t ime
Ġwh ose
Ġplay ing
or ing
Ġwr ong
ĠR om
Ġcount ries
Ġ i
ĠA ir
ell ing
Ġc amer
Ġh ig
p ted
med i
Ġen joy
Ġh ol
I n
Ġs qu
Ġannoun ced
' ,
Ġpro p
Ġt em
ĠCaliforn ia
Ġso on
Ġto ur
ĠD aily
ound s
Ġmed ical
ic ted
Ġar g
Ġiss ue
Ġcer tain
Ġc over
Ġp ick
re ad
g ress
Ġf av
ad es
Ġde ter
ess ion
ĠC hel
Ġcust om
Ġins p
it her
Ġrep res
ĠAustral ia
a ult
Ġgu il
ĠG o
un t
ord er
Ġperson al
Ġkn ew
ĠS am
ot s
Ġstud y
Ġl im
ĠW ith
Ġ ill
Ġl ow
3 0
ĠEurope an
ac es
Ġstud ents
ra el
Ġfor ced
augh t
Ġnear ly
ul ts
Ġhand s
Ġh uge
ĠF rench
Ġmark et
Ġpop ular
at a
Ġtreat ment
ĠA pp
Ġs en
Ġrecent ly
d ing
w h
W h
Ġch allen
ĠDem ocr
Ġgen er
Ġsh op
Ġf elt
Ġvictim s
Ġlook ed
Ġ2 2
ĠM o
fer ence
ĠS w
Ġwh ite
Ġdef end
ĠC an
we et
gh an
Ġcaus ed
er y
Ġtr ad
Ġm akes
Ġpl ans
os ing
Ġf ear
Ġ200 9
Ġto t
Ġdec ided
ĠâĢ Ķ
om p
Ġ ri
Ġproble ms
Ġen c
) .
av y
Ġsur v
ĠL ast
Ġc ivil
i ers
Ġpict ure
Ġres ident
ĠM il
Ġcan cer
in o
ĠW ashington
Ġst ore
' ll
ic o
ĠN e
i ec
r on
n a
iver pool
Ġfor ces
Ġv al
Ġsim ilar
' d
Ġme ans
Ġl at
ourn al
Ġcond ition
Ġres ult
ĠIs rael
Ġor ig
Ġb rought
ul ation
Ġjud ge
Ġim medi
Ġd est
Ġl if
s y
m as
ĠWh at
iet y
Ġch o
ro ve
Ġp air
lect ion
ĠL ab
Ġstri k
ĠC amer
ĠM ad
l im
Ġpartic ular
et h
u el
enc ed
ĠS ome
Ġstru gg
Ġfe at
s w
ĠR ober
f ield
ad ed
Ġdis app
s c
Ġs uper
Ġser ious
Ġcare er
on a
ĠAf ghan
Ġch ance
Ġguil ty
ip s
ĠL iverpool
Ġfamil ies
Ġalleged ly
Ġ er
min istr
Ġr ad
Ġpriv ate
le ar
ĠIs lam
ĠChel sea
ĠK ing
Ġcurrent ly
Ġm oved
Ġc oll
le v
ĠE ast
Ġt ro
Ġin it
Ġp aid
Ġg ames
Ġp ark
Ġlat est
Ġb ur
Ġ2 3
Ġm ember
Ġevery thing
Ġ. ..
in ed
ur ies
ĠP rem
Ġpost ed
Ġacc ess
k n
ĠAng el
ĠR ich
Ġviol ence
ĠM ark
et t
ain s
Ġweek end
Ġm ov
Ġcr im
Ġsex ual
k y
Ġexper ience
Ġpro b
Ġc ases
ĠH ol
Ġgirl s
Ġ esc
l ished
Ġf oc
Ġany one
Ġt it
ĠM ed
Ġthem selves
ful ly
und red
wo od
Ġunder stand
y n
ĠM id
id a
ar a
Ġremain s
Ġsuff ered
um b
Ġbo ard
Ġth ousands
as ing
Ġfor ce
Ġacc ount
ent al
ĠPh il
Ġwe ap
ĠIr an
Ġinclud e
Ġpre p
ĠA lex
Ġtr ack
Ġf ailed
Ġlaw y
ĠGeor ge
Ġrun ning
Ġacc ident
ĠR ob
or man
ĠQ ue
Ġp ri
Ġs le
Ġproper ty
Ġbene f
Ġ [
Ġhapp y
ĠFr ance
il t
ĠD an
Ġa ut
ib ility
Ġn amed
Ġc ause
it ch
Ġhe aring
pt ion
ag ed
Ġme as
ĠP at
Ġ200 8
ĠSyri a
ĠM us
ly ing
Ġtri p
ĠChrist mas
Ġf ederal
B ut
ĠMc C
Ġbe at
Ġattack s
Ġneed ed
Ġd anger
c ast
iv id
.. .
Ġr ather
c el
Ġact ually
ir t
re g
Ġr ace
Ġallow ed
i j
ra ft
Ġn ine
Ġsaf ety
Ġexp ect
at ives
Ġresp ond
ĠS ch
Ġdisc overed
ĠC or
p ing
Ġfl ight
Ġsupp or
Ġres earch
Ġide a
Ġc irc
ĠCamer on
Ġb ased
1 0
Ġmiss ing
o id
Ġdr ink
n ers
ĠPrem ier
Ġle aving
Ġarri ved
Ġav ail
ĠBr own
Ġmeet ing
Ġne g
Ġplan e
ent ly
ir on
b ack
Ġcom ments
Ġt al
Ġspe ak
ut y
Ġsaf e
Ġmess age
h ood
Ġhelp ed
Ġper cent
E O
Ġind ust
Ġh on
Ġf ail
Ġ2 6
Ġsit uation
Ġs elf
Ġc reat
is c
st on
z e
es e
Ġcrit ic
Ġb ank
Ġshoot ing
Ġmar ried
ĠS u
Ġevery one
Ġg one
Ġpat ients
ĠB er
im ate
ition al
ĠT ra
ĠM al
l ike
is es
e ase
u ce
Ġcr ime
Ġsp ace
Ġc ross
Ġcould n
Ġchar ge
Ġre ason
Ġv ol
Ġde ep
Ġ X
Ġmus ic
Ġwork ers
Ġr ound
ĠB BC
Ġlook s
ĠM ur
ĠAfric a
i od
Ġkill ing
Ġd iv
ĠN ow
Ġatt orney
b o
Ġlaw s
Ġwho le
ĠM ex
f orm
Ġpr act
Ġdisc uss
Ġare as
ĠFl or
Ġ2 7
ri age
Ġst ation
y an
ĠB en
ac ted
al ity
Ġcon n
ĠB o
Ġf em
as hed
r up
er gy
Ġab s
ĠW il
Ġstud ent
Ġrele ase
Ġgroup s
Ġconfir med
i ant
Ġp un
r id
Ġser vices
ĠG over
Ġm atter
ĠRuss ia
Ġw ants
Ġ19 7
Ġavail able
Ġneed s
Ġs at
b ody
Ġbe gin
Ġcap ital
ĠSm ith
Ġpolic y
ly mp
Ġd ress
Ġc and
ĠT o
Ġpos ition
Ġpres ent
Ġc al
ĠR es
Ġen s
ĠRoy al
ĠB ro
m on
og n
Ġpoin ts
h ire
n y
Ġche ck
Ġun c
Ġiss ues
if f
Ġw itness
Ġsur pr
Ġdri ver
ĠPr ime
Ġlong er
Ġim age
Ġ2 8
m a
Ġwor th
ĠN ot
Ġab use
Ġsing le
ver age
ĠIntern ational
ĠO lymp
Ġret urned
Ġbu y
ĠS an
Ġopp ortun
Ġem b
Ġde v
Ġcan not
ap an
Ġim ages
Ġb ill
Ġbe aut
Ġs ister
Ġb illion
Ġsen ior
W hen
Ġre ach
O n
Ġphot o
te e
Ġam b
Ġph ys
Ġdri ving
Ġperf orm
Ġinj uries
ep end
Ġhot el
Ġper iod
ĠL u
Ġprov ide
Ġke y
ĠU k
Ġt en
Ġw at
Ġcon st
Ġl ab
Ġb as
ĠAr s
Ġprot ect
Ġr ac
k en
Ġl oss
Ġqu ite
Ġlead ing
Ġind ivid
d e
ĠL ou
ic ated
Ġhow ever
aren t
Ġke pt
Ġattem pt
ĠB raz
ĠH ospital
Ġdo or
ĠR ed
ke y
h an
c he
er t
ou ra
ĠM P
ĠFlor ida
Ġcr ow
Ġpress ure
ĠEng lish
Ġprof ess
Ġwear ing
Ġbo x
Ġn orm
Ġha ir
ag er
all ed
om ing
ĠJ apan
Ġh undred
ĠS chool
iv al
ac ter
it or
ĠS im
ak er
ĠCh ampions
Ġst reet
ĠC ong
u it
Ġb orn
ĠH igh
Ġ z
Ġpro duct
Ġant i
ĠBraz il
Ġfin anc
Ġext ra
Ġfir m
istr ict
Ġed uc
ĠLab our
ur b
g n
ĠMart in
p ro
ĠSt reet
on ald
ĠD ay
Ġse par
Ġcontin ued
Ġinf l
Ġdoct ors
Ġdrug s
Ġpict ures
Ġcent re
Ġd om
Ġcomp an
re y
Ġp ack
h ol
ĠSec retary
1 1
Ġtak es
Ġv ar
oin t
Ġcar ried
act ion
Ġhe ar
ĠM y
ĠT wo
Ġad ministr
Ġro ck
Ġcom b
if t
ĠF er
Ġr an
us hed
Ġcompl ain
ĠP ak
ag n
Ġalle g
Ġe le
Ġre fer
Ġc ell
Ġab ove
Ġf at
Ġbeh av
Ġ Âł
Ġm at
ol a
Ġinj ured
Ġreg ion
Ġinclud ed
Ġsur ger
on se
Ġp iec
Ġal though
e al
ce ment
ific ant
Ġco ach
r is
Ġcre ated
ĠSc ot
Ġfe et
Ġan sw
Ġgl ob
Ġc aught
Ġst ra
ĠRuss ian
ĠC oun
Ġs un
Ġquick ly
o ving
pl ay
Ġass ist
Ġse ek
Ġb omb
Ġvict ory
Ġwar ned
ĠAmeric ans
Ġlet ter
Ġac cept
Ġre b
op h
p ly
Ġm ind
am b
Ġd ata
Ġte acher
ph y
ur t
Ġbig gest
ash ion
ud e
Ġperf orman
Ġwe ight
Ġdra w
or ter
Ġv ote
ĠK en
m ar
Ġch air
Ġp red
Ġn orth
if y
Ġcrim inal
ĠM ore
Ġst age
Ġag ency
Ġmod el
Ġfore ign
Ġdem and
Ġcontrib uted
Ġst orm
il ed
ĠG en
Ġw ed
Ġsur ve
ĠPak istan
ĠSc ott
Ġs al
ro vers
cher s
Ġoff er
Ġa verage
Ġm ob
Ġf ield
iz ation
Ġcr ash
Ġt ru
Ġs outh
Ġent ire
Ġst ates
Ġinj ury
Ġp age
Ġtot al
ĠI S
ines e
Ġelect ion
eng ers
ĠT e
Ġprev ious
Ġwor ks
u gh
ĠAss oci
esp ite
Ġj ournal
Ġp ort
ĠT ex
ro y
Ġimm igr
Ġhom es
Ġn on
ou l
Ġres c
er c
Ġre n
Ġ2 9
Ġdis ease
Ġinst ead
ur ning
Ġb oss
Ġsour ce
Ġdis p
Ġpot ential
ĠS ir
Ġf it
Ġlaun ched
Ġm ult
Ġimmedi ately
and er
Ġcall s
op er
Ġc ult
land s
Ġcamer a
ic a
i que
Ġv ill
Ġro b
ĠV ict
Ġb attle
Ġsent ence
Ġgo als
Ġexecut ive
n ight
Ġ esp
ĠPr ince
Ġey e
I D
av es
ĠGerman y
Ġresp onse
in ary
ad a
Ġj ail
Ġpr ice
o o
ber g
Ġrepres ent
Ġfam ous
Ġg iving
Ġfight ing
Ġmar riage
Ġkid s
p m
Ġprev iously
ĠBl ack
Ġatt ention
Ġ200 7
Ġ19 6
ec ially
Ġc red
ab ility
Ġreg ular
es tern
Ġsh are
M y
Ġb ag
Ġgen eral
Ġs il
amp le
e es
Ġis n
Ġass ault
Ġb rain
Ġl ink
o es
Ġex am
ĠCl in
Ġphot os
em y
ĠJ ud
ĠCh inese
p s
on str
Ġext reme
Ġdou b
ĠAustral ian
ĠP art
Ġcomm on
Ġsurger y
ĠGover nment
Ġ6 0
Ġcre w
Ġsc ient
Ġopp os
ir st
Ġt rou
Ġveh icle
ill ed
Ġp oll
sh ire
v iron
Ġte lev
ĠTex as
ver t
in ks
Ġrep e
Ġcont act
Ġus ers
od e
ĠApp le
Ġown er
Ġh our
ĠRich ard
Ġpre t
u k
Ġsp oke
ĠT ur
y l
ra b
Ġtechn ology
Ġsle ep
ĠB y
Ġrec ogn
ĠAfghan istan
id er
Ġmin ister
ec ess
Ġre view
Ġref used
ĠChr is
Ġfollow ed
Ġcomp ut
Ġprob ably
Ġsign ificant
Ġbu ilt
y a
ĠArs enal
Ġcond itions
Ġl ived
Ġe ither
Ġh ous
ĠRepublic an
ĠP er
Ġcompan ies
u le
Ġresident s
Ġden ied
Ġadd ress
Ġcon ference
ĠHe alth
Ġcl ot
Ġt able
Ġra ised
Ġfem ale
Ġev ents
Ġpre gn
he st
Ġbelie ves
Ġdam age
Ġbro ad
Ġwor ds
ĠMus lim
og le
Ġhapp en
Ġcre ate
ĠV al
Ġto wards
om s
Ġp enal
Ġjoin ed
Ġdet ails
ĠB el
Ġnews p
5 00
d own
Ġpro ject
Ġspe ed
Ġseem s
ol f
Ġv an
it iz
Ġd ro
g al
ĠD espite
Ġi P
ĠAn other
Ġcand id
ort hern
b or
ĠL ib
Ġhol iday
Ġquest ions
ic ide
Ġel se
Ġh ar
Ġher self
Ġth r
ĠO p
ĠCong ress
Ġc ard
om an
ĠWilliam s
Ġst re
Ġsp end
Ġesp ecially
ĠCoun cil
c ome
Ġimp act
Ġgo es
ĠSp e
Ġr ange
ast ic
Ġfin ally
Ġpe ace
Ġoper ation
ing er
Ġin qu
Ġrem ember
ĠE v
Ġcont rovers
ur al
ĠScot land
Ġm is
Ġc at
Ġpub lished
Ġa ud
Ġrest aur
Ġres ults
ĠAfric an
Ġindust ry
Ġpass ed
Ġsh own
f ort
T V
ĠA ct
Ġw ide
Ġend ed
Ġg old
ĠJ e
Ġsim ply
Ġqu ar
Ġc ru
ell ig
Ġfinanc ial
Ġconv icted
b ased
ĠP ort
he t
ĠQue en
Ġapp arent
ĠOff ice
Ġm ist
y c
ict ion
i res
g u
viron ment
g round
Ġ vers
ch ie
Ġcustom ers
wh ile
Ġr out
as ons
Ġdel iver
im b
Ġoff ered
c a
Ġcar s
Ġp il
Ġeconom ic
Ġatt r
ib ly
ĠFr anc
anc y
Ġfoc us
Ġtit le
Ġdem onstr
ĠPe ter
Ġcontr act
Ġhundred s
Ġtro ops
Ġpass engers
Ġre v
ce ed
Ġwin ning
Ġprev ent
Ġsp ending
ĠGo ogle
Ġal one
Ġfl oor
Ġgrow ing
Ġcr is
ar r
Ġcons um
Ġt rib
Ġra re
Ġconsid er
Ġchang ed
Ġphotogra ph
ĠK e
Ġincre ase
Ġb id
Ġt weet
Ġocc ur
Ġ ur
Ġwe ather
Ġsur round
ĠJack son
ĠJohn son
air s
Ġalleg ations
Ġemer gency
Ġo il
Ġj ump
Ġappear s
Ġcle an
Ġm ill
Ġp oor
ĠT om
Ġ ille
ĠKore a
h o
in ated
Ġent er
Ġo bs
ĠR od
Ġpart ner
Ġfig ures
ĠCent er
end er
m ark
Ġenc oura
Ġen ergy
Ġp an
ol ution
Ġpar ts
Ġstop ped
Ġcl os
Ġsn ow
a ud
ĠOff ic
se x
Ġag reed
Ġp ul
Ġam ount
ĠÂł ĠÂł
o very
ĠDe f
Ġsh ock
ish ing
s et
Ġweap ons
ĠD o
Ġlaun ch
u ing
Ġm ater
Ġdef e
Ġb ul
Ġl ack
ĠL os
ri ff
ÂłÂł ÂłÂł
ĠC am
H S
Ġopen ing
ĠB ay
ra w
Ġb order
Ġest im
ĠM ic
Ġind epend
ĠClin ton
un k
ĠAngel es
am ent
Ġg as
Ġey es
Ġp et
Ġtra ff
Ġspe ech
Ġafter n
Ġs ell
Ġadd ing
rup t
a ed
Ġs ens
all s
ri ef
Ġop ened
or ry
Ġun f
Ġnet work
Ġshow ing
Ġconsid ered
pt on
Ġchallen ge
ou d
Ġeff ort
ĠCar ol
Ġcoun cil
Ġtre ated
Ġtelev ision
ĠC ap
S A
Ġb ase
ott en
Ġeconom y
or ks
ig er
ĠC he
ad o
Ġaftern oon
Ġem ot
Ġtr ust
Ġdri ve
Ġcost s
Ġsk in
Ġsur f
Ġdanger ous
ĠF ore
Ġeven ing
Ġre ady
ear chers
i ation
Ġcrow d
ĠTh om
Ġ &
Ġn atur
Ġeff orts
ĠK im
Ġperf ect
at ory
Ġatt end
ens ion
nd er
Ġwed ding
ĠInd ia
Ġb od
r ol
Ġf ra
Ġc itiz
Ġto uch
Ġnear by
u x
Ġsc ored
Th at
Ġs ize
en ger
ic ation
Ġbr and
Ġperforman ce
al ing
c raft
Ġv o
Ġeng ine
Ġsign ed
Ġsold iers
Ġlawy er
in i
Ġopportun ity
it es
gy pt
Ġbro ke
Ġwould n
Ġemer ged
Ġj ury
Ġdoct or
ĠT od
ĠJ ones
m en
ĠIn st
Ġd in
Ġsh ip
ĠS al
co hol
h old
Ġex ample
Ġa im
Ġ ver
Ġint ro
Ġan g
ĠO ther
ri f
b re
Ġw ond
g ic
Ġchang es
A s
Ġconcer ns
Ġun able
ĠQ u
Ġa chie
Ġ3 1
Ġevent ually
if ul
ĠH ill
Ġmid dle
Ġf ast
Ġparticular ly
a res
Ġschool s
Ġiss ued
Ġsy m
Ġwar ning
Ġb ought
Ġk ick
duc ed
ĠS and
ĠE gypt
Ġsp read
Ġcall ing
Ġident ified
Ġb ott
rou d
Ġreported ly
l iam
Ġter ms
Ġord ered
ĠC le
Ġs ense
Ġsec ret
ĠG reen
p her
ĠMad rid
Ġco ast
Ġm oving
Ġag ed
Ġexper ts
Ġsp ort
ak ed
Ġf ashion
Ġanim als
Ġcon c
ad ium
ĠW ales
Ġav oid
Ġchar acter
Ġdesign ed
ĠMex ico
Ġadministr ation
ĠT imes
4 0
ĠD on
il ing
liam ent
Ġl ik
and a
i pped
Ġglob al
ol ute
ĠD uring
pl es
Ġl oved
il es
ad ing
Ġtem per
Ġcris is
ick et
Ġe p
Ġhig her
re l
ĠSp ain
Ġlar gest
Ġfac es
ĠRe al
Ġc ash
ar i
ĠRep orter
Ġdec l
Ġs end
ĠLou is
uc lear
Ġex act
Ġw ild
Ġfell ow
ĠSt ep
ĠM ary
ĠL aw
Ġ200 6
Ġboy s
ow ers
ac hes
Ġme ant
i h
Ġnewsp aper
Ġcap tain
Ġtell ing
am s
ĠRober t
il s
Ġar m
Ġsqu ad
Ġf le
ri an
Ġair port
Ġdis play
Ġrequ est
1 5
ear s
Ġo pt
Ġser ved
l ight
Ġmanag ed
Ġtalk ing
il ities
Ġsc ore
oun ts
Ġsa ve
ĠW ood
Ġchar ity
ill a
ist ry
out hern
Ġon to
Ġexper i
w ell
in y
Ġincre asing
Ġf air
Ġsusp ect
Ġtr ue
is ters
Ġf ul
c ial
g ent
Ġp ers
ĠV an
Ġp ur
Ġdi agn
ĠSp an
Ġsc reen
Ġsuff ering
Ġens ure
Ġch amp
ant a
Ġrul es
Ġimp rove
Ġstrik er
ĠVict or
k i
ĠAnd rew
Ġrel ig
t ies
Ġmov ie
Ġcomplete ly
Ġaw ard
ellig ence
Ġtw ice
ĠM any
igh ters
Ġstre ets
Ġfl ood
Ġsee ing
Ġeff ect
ad d
Ġfig ure
ĠM el
Ġanim al
Ġthrough out
l or
ic ks
Ġr ate
ak ers
Ġche m
az ine
ĠL ord
Ġcent ral
Ġd ate
ĠF ar
Ġch urch
1 2
ĠN or
ound ed
Ġair craft
A nd
i ate
v est
Ġits elf
in son
ĠB ill
âĢ Ŀ
Ġjob s
ĠThom as
Ġrespons ible
Ġb ra
Ġty p
ĠJ os
sy ch
ĠN HS
er ve
is l
ĠAr my
Ġwrit ten
Ġlevel s
uck y
Ġrepor ters
ag o
Ġit em
riv al
w oman
ell ed
Ġal cohol
ruct ion
ĠPar is
z a
Ġdis m
ig g
Ġprot est
Ġsu it
Ġass oci
ĠA uthor
Ġget s
Ġter m
ĠThe se
Ġhe avy
ĠIS IS
e ed
Ġwa it
Ġstra ight
Ġv ir
ĠA rab
ĠSen ate
Ġr ise
Ġsc hed
ĠChar l
ĠM ill
Ġinc red
Ġest ab
Ġf ine
ĠIt aly
ĠJust ice
Ġe at
rop ri
Ġrem oved
Ġnum bers
Ġ ice
Wh at
ĠO f
Ġask ing
Ġgirl friend
Ġsuppor ters
Ġexpl os
Ġf re
h aps
Ġp o
Ġcarry ing
ĠLe e
Ġmater ial
on ed
ĠIslam ic
Ġcent er
ress ion
ist ic
Ġpenal ty
ĠG ar
Ġwa iting
ĠC ons
Ġpul led
Ġmiss ion
Ġdeter min
ĠR os
Ġfeel ing
Ġhold ing
Ġre ached
Ġh y
Ġl ose
Ġpret ty
Ġrepe ated
Ġfoot age
ĠSyri an
ĠDan iel
ard en
Ġmob ile
ĠB al
g en
az ing
ers ey
Ġhe ro
ĠS ur
Ġfav our
ĠInd ian
Ġeduc ation
Ġn uclear
Ġdo z
Ġmy self
ĠAt t
cl us
Ġdocum ents
ust r
Ġocc as
ĠV ir
Ġmin ute
Ġra ise
ĠS ar
ĠA sh
Ġp aper
ĠH all
ct ion
j ected
Ġeas y
e z
Ġmill ions
Ġf an
Ġsuggest ed
? '
ĠM at
ud get
Ġnorm al
Ġconcer ned
ĠCr own
Ġd ream
ĠUn ion
Ġin n
Ġen for
Ġen vironment
ag ing
ub e
Ġsever e
as c
Ġact ions
Ġdeath s
Ġsl ow
Ġcl osed
Ġappro ach
Ġcompet ition
ĠC amp
Ġdec ades
Ġpop ulation
r am
Ġbl ue
Ġhop es
em ents
n or
b it
Ġsent enced
Ġhist or
ĠS un
Ġwalk ing
ra p
ĠW atch
as ts
ĠPe ople
Ġwh om
Ġop in
ĠAt l
Ġfour th
Ġse a
ID EO
Ġjust ice
Ġag re
Ġmot or
Ġsuccess ful
Ġbod ies
Ġd ark
Ġproduc ts
Ġra in
ĠV IDEO
ĠT al
Ġattack ed
go ing
Ġmess ages
Ġstru ck
Ġinclud es
Ġinfl u
un ch
Ġmajor ity
Ġpri or
Ġv ac
se qu
B I
ĠD et
ĠHar ry
2 5
b l
Ġr oll
Ġtrans fer
Ġref orm
Ġold er
Ġcol lect
Ġw el
ang u
Ġorig inal
ic ations
r ick
Ġa id
Ġbl ock
ack ed
Ġg ang
h ib
ĠIt al
ĠE ven
ect or
Ġhelp ing
Ġad m
Ġdro pped
Ġj ailed
ĠG od
Ġpl aced
ip le
Ġbenef its
Ġplan ning
Ġf ired
Ġreg ard
v ent
ra ine
Ġ3 5
om en
Ġdocum ent
h a
Ġown ers
Ġcer em
Ġsp orts
Ġm ach
Ġpos itive
Ġcomput er
Ġwor st
On line
es ters
Ġp ull
ĠS oc
ĠM ag
stit ute
Ġsw im
Ġmass ive
Ġappe al
ĠSer vice
it t
Ġb al
ĠAl though
r im
el ly
Ġap olog
Ġap artment
Ġg reen
ĠS uper
Ġdevelop ment
Ġcertain ly
Ġc old
Ġoppos ition
Ġplan ned
Ġbec oming
ĠG reat
Ġalong side
Ġappear ance
pp ing
Ġs ale
ĠM er
Ġl ay
ĠSec urity
Ġnatur al
Ġc op
ĠH um
Ġteam s
âĢĻ ,
Ġm ount
Ġhig hest
ĠâĢ ľ
ĠJud ge
Ġsp ir
Ġdog s
Ġquar ter
res h
Ġ7 0
Ġs ales
lin ed
ĠF A
Ġb reat
use um
Ġsh ut
olog ical
Ġl ower
ĠFranc is
Ġo w
ĠBar ack
m ates
Ġcomp ared
ĠJ on
d ney
ic les
Ġwatch ing
ild ren
Ġis land
i est
Ġd oll
Ġseem ed
ĠL a
ĠMe an
Ġpresident ial
ĠS n
ĠJ im
erv ative
Ġbro ken
w ide
Ġcoun ter
ĠGen eral
ĠEar th
Ġins isted
Ġ200 5
ĠIn ter
ar ian
ain e
Ġdef ense
Ġw ays
Ġn ecess
Ġre asons
Ġdou ble
Ġcont ain
Ġgr ad
Ġpl aces
ĠPart y
Ġst ab
f l
w in
ĠP ost
Ġbeaut iful
Ġs ong
j ects
Ġcol lection
Ġlear n
Ġaw are
Ġsh ared
ĠG ood
Ġmain tain
Ġwor d
y ond
Ġstar s
ber t
ĠU nder
Ġdep artment
ĠB ur
Ġrecord s
Ġfl ag
ĠF irst
Ġ und
ic ed
Ġsu icide
g ree
ĠFor mer
Ġcontin ues
c ks
ĠComm ission
Ġsp l
ĠRepublic ans
Ġve ter
Ġpr im
Ġclaim ing
ĠSy dney
ĠN et
Ġsomet imes
Ġf reed
Ġ9 0
ĠVir gin
Ġ3 2
br idge
Ġneighb or
ĠMail Online
1 9
ĠP ress
Ġdeb ate
Ġa irl
ĠM et
ren g
ĠD en
Ġille gal
ĠMean while
Ġtal ks
m ail
Ġf ix
Ġexpl ained
ĠO ld
Ġmag azine
Ġm ale
Ġstart ing
and al
ar ks
ĠE b
ĠMid dle
ang ing
Ġput ting
er o
cel ona
ĠB oth
ĠSte ve
o z
ĠPro f
Ġpartic ip
Ġp roud
Ġclear ly
Ġprov ided
Ġdev ast
Ġrestaur ant
Ġ ult
Ġcapt ured
Ġfil ed
or ial
Ġexp ressed
b orn
1 00
m ond
Ġinvestig ators
Ġsm art
Ġchair man
mon th
Ġwin ner
ĠB ush
ke ep
6 0
uct ion
Ġar med
app ed
Ġresp ect
ĠCh ief
ĠS ince
ul ed
Ġabs olute
ur ance
ri e
N A
Ġcommit ted
Ġd ie
ĠF BI
Ġst yle
an ks
Ġfeat ures
h ab
ĠTod ay
an ia
ap ed
Ġd ig
Ġspec ific
ir ing
ĠD is
Ġk it
ĠO l
Ġbe ach
Ġb rief
? "
Ġmod ern
Ġp sych
ra ge
Ġar ch
ĠItal ian
n el
Ġpro gress
ĠAssoci ation
Ġrece ive
b our
Ġn ames
Ġr ow
Ġcust ody
Ġto urn
Ġfe ed
Ġcon vers
Ġprofess ional
Ġthink ing
Ġ8 0
ter m
ĠM os
Ġpiec e
ĠL ew
ĠHol ly
Ġaff ected
ĠSpe aking
u f
Ġde vice
Ġintern et
Ġad op
Ġpat ient
est ic
Ġeff ective
ry ing
Ġcom fort
Ġvill age
Ġl osing
ĠBar celona
ant ic
Ġteen ager
Ġcent ury
y m
ĠThe n
Ġab ility
Ġwalk ed
Ġbehav i
ĠChar les
or row
v al
ĠW in
ĠH el
ad or
Ġvers ion
ĠF am
ĠW at
Ġdefe at
Ġbel ow
Ġbe g
Ġus ually
ĠGeor g
. ,
Ġstri ke
Ġst un
ĠG old
Ġcho ice
Ġon es
Ġchamp ion
Ġleg isl
h ouse
ĠN ick
c an
ĠOlymp ic
Ġindivid ual
Ġ4 5
Ġsign s
ĠR yan
v ille
Ġcitiz ens
Ġknow s
ĠUk raine
p ts
ĠSpan ish
F A
ĠE U
aed a
Ġrun s
im ately
u pp
Ġint elligence
Ġestim ated
ĠFr ank
Ġgl ass
Ġc orn
res p
iel der
Ġle ague
ĠG re
an i
ĠAr gent
Ġm ix
Ġmin or
ĠRom ney
Ġc overed
o e
Ġshe l
Ġb and
in ally
ĠR ec
our ney
ot ed
ud d
ĠJ ul
us ing
Ġsp ark
E R
Ġm ental
Ġrul ed
is er
Ġcaus ing
Ġim ag
Ġfac ing
ĠWe b
ar ily
im um
Ġg ay
ĠMur ray
Ġst reng
Ġatt ended
Ġhealth y
Ġapparent ly
Ġse at
Ġstand ing
is ions
el ess
k a
ĠD ar
Ġra pe
Ġwind ow
c hen
Ġto ugh
ĠB re
Ġcolle ge
2 00
Ġscient ists
Ġd rop
a it
Ġstr ate
Ġex ist
ĠA ri
ĠO s
ĠT ay
Ġtraff ic
sh ip
f ielder
ill ing
Ġreal ity
S t
Ġview s
Ġwond er
Ġar ms
Ġful ly
k ins
er ved
Ġob v
ĠT im
k ed
Ġcond uct
Ġbe yond
Ġex erc
Ġun s
on n
Ġextreme ly
ĠChrist ian
Ġb udget
ĠCh urch
he red
Ġs ad
ost on
Ġimp ro
Ġyoun ger
ĠG ra
Ġitem s
Ġspokes woman
Ġres earchers
ĠM ass
Ġoper ations
c y
Ġso ft
Ġrec omm
Ġsurve y
Ġg iant
Ġ200 4
ann el
Ġansw er
a e
ĠK ar
ĠD el
ig an
Ġbo at
Ġl angu
Ġsit ting
ok ing
ĠH ot
i qu
d o
ropri ate
um e
Ġpregn ant
Ġpr ices
Ġimmigr ation
are t
Ġdest roy
Ġdef in
Ġad vert
ĠR ad
Ġincre ased
Ġann ual
ĠPal ace
Ġs em
Ġbegin ning
c ious
' :
Ġcerem ony
ĠV e
Ġpract ice
Ġoccur red
ĠD u
1 4
Ġconcer n
m et
Ġbirth day
Ġb i
Ġdec ade
Ġmove ment
ian ce
Ġ3 3
Ġf ly
Ġvis ited
d uce
ph one
Ġe ating
Ġprot esters
at ures
Ġspot ted
Ġcl in
Ġpart ies
Ġremain ed
ul a
Ġs ick
Ġc ast
ĠW al
oin ted
Ġunder st
ant ly
ĠK n
ĠS om
z z
ent ially
Ġfl at
Ġresc ue
Ġsusp ic
Ġlear ned
Ġviol ent
Ġexact ly
Ġh arm
g ar
Ġsoc iety
Ġs ort
Ġam azing
F or
Ġlink ed
Ġl ic
Ġb ath
Ġact or
bo ard
Ġw id
Ġal ive
Ġtrad itional
ang ed
om atic
ang ers
Ġemploy ees
Ġp ounds
led ge
ĠB ob
ut ch
Ġconf l
Ġpre m
ĠB oston
ĠDemocr atic
ar ies
ĠEb ola
Ġinit ially
Ġgrow th
Ġvot ers
igh ter
Ġsusp ended
Ġbehavi our
Ġhand ed
w here
Ġw ood
ĠGr and
ĠC om
Ġex ch
Ġty pe
Ġmid fielder
ĠS il
ĠD own
Ġrespons ibility
Ġwat ched
Ġhop ing
ĠM ac
ow ing
Ġreg ime
c ing
Ġp ool
ĠJo e
Ġrad io
Ġcr imes
O ur
Ġqu ality
ĠK ate
Ġat h
Ġpolit ic
Ġb ird
end s
Ġun iversity
Ġdr am
ĠDemocr ats
Ġfind ing
Ġj ourney
Ġf resh
Ġple aded
ous ly
Ġphys ical
Ġch ampions
Ġf lying
ce an
Ġadd ition
ed s
Ġattem pted
it tee
ĠThe ir
Ġsc en
ĠM ost
Ġconfl ict
Ġp urch
Ġpower ful
ĠH en
b ury
ew here
Ġte xt
cast le
u als
Ġr ing
Ġpro ced
a ith
Ġdoub t
kn own
al a
Ġw all
Ġneg ot
ac ts
Ġshort ly
Ġv ia
ap t
Ġdevelop ed
re ct
ĠL iber
Ġterror ist
Ġvo ice
A t
iz ing
Ġval ue
ĠH oll
ĠIs land
ĠE ver
Ġth row
Ġwor se
Ġpr ay
Ġh urt
Ġn om
ĠG a
Ġb ail
n o
ĠC ont
ĠSt ar
ĠB ir
Ġl ux
ĠR iver
Ġrequ ired
Ġfav or
Ġcirc um
Ġsusp ected
Ġp ath
Ġagre ement
ag ues
ĠK ent
ĠR onald
ĠJ er
am pton
Ġbl og
ĠCol le
Ġfor t
Ġ ic
ad s
ic ate
Ġc ities
Ġcult ure
ĠI I
Ġprosecut ors
i us
ook ing
al ys
Ġconf ident
l ife
ess ed
e in
m ine
ĠBro ok
ed er
ĠT y
4 5
Ġrul ing
ĠB ig
Ġres ign
Ġban ned
ĠTay lor
g ra
a ire
ĠJ ord
igh ted
ĠD i
Ġtourn ament
Ġtest s
Ġpick ed
Ġexper t
Ġmean ing
ĠProf ess
re land
Ġmiss ed
Ġdrink ing
in ho
Ġexpl ain
Ġspe aking
Ġmeas ures
Ġsepar ate
ged y
ou red
Ġcomple x
Ġto m
Ġro y
ack ing
in als
it ude
ow ed
ĠM ike
ĠiP h
Ġdetermin ed
Ġapp l
Ġgu ard
ĠBr ad
Ġprep ared
ok ed
Ġr id
ĠW all
1 3
Ġfra ud
Ġgu y
Ġenfor cement
ĠI reland
Ġdism iss
ĠWil son
an ch
Ġc ab
Ġ ign
ĠP ut
enn is
Ġs ound
ĠH ome
ac ing
Ġcontrovers ial
Ġc atch
ĠJ ersey
Ġinvestig ating
Ġprop os
Ġtweet ed
Ġs an
Ġmur d
ĠD istrict
Ġhigh ly
Ġcommit tee
ĠNew castle
ĠC ast
ĠKore an
Ġdiv or
Ġseek ing
Ġg ives
Ġsub ject
Ġprot ests
ec ause
! '
Ġn eck
z er
ĠD un
un te
st ances
1 7
rib le
Ġfar m
lic op
Ġap art
Ġsecond s
Ġprogram me
Ġha ven
ul ated
Ġhe av
Ġsc r
ĠComm ittee
ĠC ost
ive ly
ĠCh ic
Ġup on
eng th
m ore
Ġun like
Ġhe licop
Ġs elling
Ġup d
ĠSh ar
ĠQ aeda
1 6
is ation
Ġsing er
Ġn orthern
Ġd istrict
Ġboy friend
Ġper haps
it ation
ĠP enn
Ġd aily
Ġdom estic
Ġser ve
ru it
Ġdram atic
Ġf al
ot a
Ġvar ious
Ġmet h
Ġbed room
Ġbel ong
ĠMo ham
en a
Ġcomm ission
ĠP re
if th
Ġwork er
ĠB ank
Ġf uel
ell ow
ent y
Ġrequ ire
ĠR am
Ġthreat ened
Ġbott om
Ġorgan ization
Ġg ar
se y
Ġsim ple
Ġvisit ors
1 8
Ġest ate
.. ..
Ġdes per
Ġcoun ts
Ġan aly
ĠF rom
Ġactiv ity
Ġfin ished
Ġe ld
us es
Ġp urs
Ġwe alth
ĠPro secut
ĠOp en
le ment
um ent
ĠIn vest
e ing
Ġl ines
Ġsit es
Ġleg s
oc ks
Ġt ack
Ġn ature
ri er
Ġclot hes
ĠK at
Ġto ward
ĠIsrael i
Ġfac ed
ĠStep hen
oun g
ĠTh ree
ĠCo ast
ect ions
m ate
ĠTr ans
Ġveh icles
Ġmult iple
Ġphotogra pher
ĠP et
us hing
ĠVictor ia
ĠW estern
ro g
Ġser ving
th ony
ian a
Ġe ast
ĠSar ah
r un
ath an
ĠG roup
Ġst ands
Ġsc andal
l aw
Ġpil ot
Ġapp lic
ĠT er
Ġb om
ict ions
w are
Ġp itch
Ġcom mer
C h
Ġact ress
g a
ell a
ĠEar lier
Ġp up
Ġs outhern
ĠE ll
ĠH aw
d den
f it
A meric
ĠS l
enc ing
Ġdiagn osed
ay ne
ĠGeorg ia
Ġb att
ĠJ ew
Ġpart ners
Ġabsolute ly
el a
ĠG ames
ĠL uc
Ġpay ing
Ġthan ks
Ġloc ation
id s
ic an
Ġbook s
Ġdiffer ence
Ġequ ip
ou ts
Ġser iously
Ġexp ensive
Ġsched uled
Ġsp ect
Ġ3 4
Ġst ories
Ġkeep ing
Ġcred it
ĠO ver
b ur
Ġ200 3
Ġ3 6
up reme
Ġrel ative
Ġsour ces
ĠHolly wood
ĠF ire
il ton
ĠChic ago
Ġnot e
enc ies
ĠT ony
ĠGu ard
Ġg arden
g ers
anc ed
ib an
Ġunder w
kn ow
Ġyou th
Ġchem ical
ĠCarol ina
Ġlo an
Ġart ist
in n
ĠJord an
Ġill ness
ol ic
Ġsu dden
Ġst uff
ĠAn thony
im ent
Ġconf idence
as ted
Ġf est
ĠAn n
Ġw est
d om
Ġbenef it
Ġkid n
ite ly
ĠS us
Ġcut s
Ġrec overy
Ġad vice
ol s
Ġr ule
Ġh un
Ġachie ve
ĠK h
Ġindepend ent
Ġsc oring
Ġrespond ed
ann y
Ġart icle
our ces
ĠSt ud
b urg
i ar
ĠP ri
Ġwar m
Ġar my
r ont
Ġvide os
Ġs ides
O R
ov ic
ĠW el
Ġun us
Ġr ates
ĠIntern et
r an
Ġdec lined
Ġun it
Ġam id
Ġleaders hip
Ġins urance
Ġc ool
olog ist
ĠRo ad
Ġsurf ace
Ġra p
Ġdefend er
ĠT ory
Ġpl ant
Ġequip ment
Ġtrou ble
ul ate
r ig
ĠI m
Ġrepeated ly
ĠA c
Ġp ra
ĠColle ge
r ison
ĠS ky
em an
are z
b illion
ĠY ear
w est
ony m
Ġtr ade
Ġrecord ed
Ġsh ocked
ĠT or
Ġroy al
Ġst ood
ific ation
ĠSim on
Ġmat ches
Ġdef ence
or ted
ĠTal iban
Ġcon stit
Ġset ting
ĠCar l
ĠAuthor ities
Ġrem ove
Ġcandid ate
Ġfin ish
ĠF ox
Ġco ff
Ġob tain
Ġfear s
Ġw ish
Ġb ot
Ġrelig ious
Ġus es
Ġto w
ug g
ĠN ic
ĠVirgin ia
Ġup set
ick ing
g us
ĠM em
ĠiPh one
ĠProfess or
Ġvol unte
ĠFore ign
Ġesc ape
Ġshop ping
Ġfal se
Ġinqu ir
Ġstep s
ly n
uf act
ĠJ enn
Ġb atter
ĠJ ess
Ġac know
Ġcrit ical
Ġr ub
Ġtru ck
Ġstru ct
Ġproduc ed
Ġbo ost
Ġdi pl
ev in
Ġd iet
om a
ĠSp orts
and ed
ĠCent ral
Ġpro ve
ol es
Ġpr ime
Ġf ish
em b
ĠS qu
ĠPal est
N o
Ġear th
in er
I A
ĠCan ada
Ġn ice
Ġoff ers
ĠE very
Ġcolle agues
p ay
anc ing
Ġdel ay
ĠAir port
ip e
ov a
Ġfail ure
ĠJe ff
ĠGa al
i en
S o
m other
ĠB eck
Ġlangu age
Ġst ret
re c
O N
Ġp ush
Ġcelebr ate
Ġwin ter
Ġab and
l ers
ĠE ric
Ġdirect ly
Ġn urs
ĠCl ub
Ġ3 7
Ġass aul
ĠV er
p ir
Ġdri vers
r ist
E very
Ġmeas ure
Ġsc he
app ing
Ġconn ection
Ġsurpr ise
Ġfun eral
Ġt ree
ĠAtt orney
ĠM ess
b on
ĠD ie
Ġus er
Ġphotograph s
ĠH ere
ĠT re
ĠN ations
Ġimp ress
Ġemot ional
Ġaff ord
ĠF ollow
Ġstat us
ial s
ĠCam bridge
Ġst ress
Ġdin ner
ĠN iger
ĠTh ose
Ġprom ot
Ġattr act
in cess
Ġclub s
ĠO x
Ġd er
ĠO h
ĠB oy
Ġbre ast
ach ing
ul ance
ate ver
Ġsym pt
9 9
d d
ĠDe v
O P
Ġwor ried
Ġun ique
Ġsupp osed
Ġe th
ut ions
Ġfe ature
Ġag ent
Ġare n
ce pted
b ing
Ġ ir
Ġh ur
ĠSt r
A ll
Ġacc ounts
Ġcontr oll
ĠLew is
Ġhas n
ĠO ut
Ġrel ated
Ġdecl ared
Ġgra b
ĠAnd y
Ġpolit ics
Ġaud ience
own ed
ĠKen ned
Ġlaws uit
Ġproduct ion
ĠMP s
Ġk ne
ĠS av
em en
Ġallow ing
ĠMic hel
ĠB or
Ġang ry
otten ham
f ile
Ġw ake
Ġent ered
Ġlawy ers
ĠMc D
Ġwhe el
Ġun p
Ġover se
Ġsec retary
Ġwill ing
Ġmom ents
Ġtre nd
Ġgu ests
ol en
k in
Ġconc lud
Ġex cept
Ġ200 1
ri al
le ts
g as
re p
c ow
Ġur ged
ĠM att
ĠRe g
Ġp en
Ġstrugg ling
Ġelect ric
Ġs we
l ig
ĠY oung
Ġthan k
Ġoff ering
8 0
Ġpro ceed
ih ad
ĠB u
P e
ĠK evin
ens ions
am ing
Ġwrit ing
ĠInvest ig
Ġadd itional
al ition
C A
is her
ph ic
ĠFer gus
all ing
Ġcommer cial
ul ations
Ġtra gedy
Ġm ans
Ġm um
u a
ov es
az a
it als
Ġtrans port
ĠBe fore
Ġcont est
Ġcont ent
ĠKenned y
Ġman ufact
Ġf ifth
ĠH ug
Ġbr ight
Ġred uce
Ġim pl
bre ak
ĠFam ily
m akers
Ġm ention
ven ue
Ġgreat er
v is
um n
Ġset tle
Ġb le
Ġde vices
ĠM ont
B S
ant age
Ġfr ustr
ĠTur key
Ġrec over
Ġshot s
Ġag ree
ĠK elly
ĠC EO
Ġl og
ĠF oot
Ġc as
Ġtarget ed
it an
Ġindivid uals
Ġback ground
ĠHoll and
Ġnecess ary
om es
Ġnot ed
Ġwith d
ĠA gency
v ention
augh ters
ming ham
ic it
Ġl ength
Ġret urning
Ġfre qu
Ġcorn er
Ġs and
il ly
Ġconfir m
Ġassist ant
Ġsuff er
ri fic
The se
Ġsec ure
Ġg ain
Ġcircum stances
Ġar r
Ġf aith
Ġd uty
Ġelect ions
Ġlux ury
Ġvir us
Ġg rew
ĠAb d
ĠB a
Ġl augh
ĠC ur
ap ers
Ġsk y
Ġpass enger
Ġcritic ism
Ġincred ible
Ġf ant
Ġfall ing
ĠF ound
Ġmilit ants
ul f
Ġinvol ve
ĠMar ia
ĠFergus on
Ġso le
ĠT ottenham
Ġ ess
m es
er ous
Ġstand ards
Ġs ending
Ġfl u
Ġreve al
Ġreg ister
Ġcom ed
ĠBir mingham
Ġrece iving
Ġtr uth
Ġcomple ted
Ã ©
Ġfl ights
m ission
T ube
Ġinvol ving
Ġbuild ings
ab les
Ġad ults
Ġspl it
Ġhor se
Ġqu iet
ĠS upreme
ĠPr ot
ĠÂ »
Ġintro duced
ore s
ĠM our
Ġquestion ed
Ġaff ect
ĠRober ts
ch ing
Ġs ession
Ġprot ection
ĠL ong
keep er
Ġfreed om
Ġlim it
ĠL ind
uc he
Ġinn oc
r ant
ile y
Ġbeaut y
Ġmach ine
Ġhe at
ĠM ir
ick en
Ġ200 2
ĠBe ach
ĠF ord
Ġtemper atures
Ġ201 5
A n
c ri
Ġbring ing
as hes
ĠA v
Ġfeel s
Ġinsp ired
ĠCon n
ĠA h
Ġfavour ite
Ġpr inc
Ġc art
f oot
Ġmay be
Ġt iny
ĠYou Tube
Ġenjoy ed
ĠChampions hip
id el
com ing
ĠJ ose
Ġdec ide
e en
Ġneighbor hood
t r
ĠPalest in
ct ions
Ġt urning
z ona
Ġsign ing
ĠAd am
on er
Ġ #
ĠPut in
l ong
ĠS a
Ġow ned
ĠInst ead
ĠR og
ĠA g
ĠL at
Ġs ust
ot ic
ĠD ou
Ġpur p
Ġcr ack
Ġ5 00
Ġunus ual
Ġrel atives
Ġre action
qu ar
Ġweap on
ĠMor gan
Ġlim ited
ĠMed ical
Ġcamer as
Ġregular ly
Ġg ather
ab eth
Ġres ul
u ated
ĠScott ish
f ire
ian o
Ġprov iding
ĠSte ven
ĠD es
ĠC ath
ĠW alk
Ġb ow
Ġfl ed
ĠB ow
Ġactiv ities
Ġopp on
ul ner
Ġsur ge
Ġret ired
3 5
ĠC omp
Â £
Ġd aughters
Ġsympt oms
is a
Ġkit chen
ĠD irect
rupt ion
Ġ3 00
Ġd ad
Ġc y
Ġsystem s
ĠM ount
Ġdeb t
ĠMill er
b ro
Ġcond em
i pl
2 2
ter y
ĠC orn
ĠZ eal
ĠN avy
b el
Ġd ed
ĠFor ce
Ġw ounded
os es
on ic
Ġbe ar
Ġag ents
Ġthreat s
uche ss
Ġag gress
ĠPl ay
ĠRo oney
ĠIn stitute
Ġt ight
ĠJapan ese
Ġsl ight
ĠSouth ampton
Ġbusiness es
Ġpres ence
Ġd ressed
Ġ4 2
Ġsurround ing
az i
Ġpl ot
Ġeff ects
Ġst olen
Ġ3 8
Ġdead ly
Ġact ive
ĠC ub
ĠEl iz
Ġdet ect
ĠMin istry
Ġsold ier
Ġp ushed
ĠB ol
ak en
Ġincreasing ly
Ġb urn
Ġkn ife
k es
arr ass
Ġenter tain
ĠR ay
the w
Ġneighb our
ĠAri zona
or ado
ĠE r
ĠJ am
Ġh at
Ġret ail
ĠE s
Ġunderst ood
Ġhold s
Ġf ighters
Ġinc ome
Ġlar ger
Ġinflu ence
Ġsugg ests
Ġ4 8
Ġs ight
Ġle aves
st ar
ĠL o
Ġsusp ects
ĠD am
Ġprim ary
Ġnegot i
it z
Ġm outh
Ġd rove
Ġw ore
Ġan c
ĠC ard
Ġspok en
Ġcons ult
Ġexerc ise
Ġmanag ement
oc al
et te
i at
ĠZeal and
ĠH ay
ĠS ol
Ġ2 000
Ġt on
Ġbr ut
Ġorig inally
ĠD NA
ĠHum an
Ġac qu
Ġr ide
ĠK ong
Ġrem ind
w ar
Ġke en
uc ted
ĠS ing
ĠY orks
in ing
Ġdisapp ear
ĠT our
Ġdep art
Ġsurv ived
ĠCh ildren
Ġg at
Ġhous es
Ġa uction
Ġdam aged
Ġsh ape
Ġpolic ies
ter ed
Ġs om
w ise
Ġmon it
Ġfail ing
ĠA BC
Ġmem ory
Ġarg ued
Ġm igr
Ġdestroy ed
yc le
Ġbrother s
Ġcomplain t
Ġaff air
ĠC oll
Ġm ort
ain t
Ġsub st
re ll
Ġr ank
iam i
ad er
ur se
et ts
Ġem ail
Ġannoun cement
Ġbig ger
e ared
Ġ urg
ĠL ake
ĠMat thew
az e
app y
Ġallow s
Ġ @
Ġstreng th
Ġdeb ut
Ġeld er
ad emy
it tle
Ġsupp l
Ġexperi enced
I N
l v
ĠCent re
Ġinst it
ĠDav is
Ġsa ved
Ġpro duce
ivers ary
H ow
Ġd ating
ĠOlymp ics
Ġhapp ens
Pe ople
ĠSt adium
l a
ill ance
Ġestab lish
ro ad
af e
Ġprofess or
Ġexp ress
os ure
le cted
i os
Ġ rival
Ġfor g
w orks
ĠDie go
Ġstore s
Ġv ulner
Ġep is
ĠWh y
Ġeas ily
ag h
ĠD uchess
ĠG P
ĠArgent ina
iv ity
ĠH art
Ġh am
Ġche st
ib and
g l
Ġ199 0
ĠM a
ĠF our
Ġal tern
ĠYorks hire
w ich
Ġspec ies
F L
Ġbab ies
ĠMour inho
Ġcreat ing
Ġfac ility
Ġed itor
ĠAl an
Ġsh irt
t own
Ġcont acted
Ġl ucky
ĠO sc
id den
ag ers
Ġpar liament
Ġo ption
Ġde ploy
ass y
Ġext rem
Ġfund ing
b oy
Ġdeter mine
Ġcol our
ut ation
ĠG al
ĠIn c
Ġan alys
Ġinit ial
k er
ic ient
Ġread ing
Ġpiec es
Ġad ult
Ġknow ledge
ry st
iz z
Ġadv antage
Ġm ic
b a
Ġs ought
ĠH ong
ove l
Ġpot entially
ĠCol orado
v a
Ġpro ved
ĠMil iband
Ġlegisl ation
in et
ock ing
Ġac cepted
ick ets
Ġs ons
ĠCost a
Ġhapp ening
ann a
Ġoccas ion
Ġb in
Ġinterest ed
ur d
Ġv ess
Ġhelicop ter
Ġbus y
Ġwitness es
Ġra il
Ġgover nor
Ġdoz ens
Ġs ear
ĠG ary
Ġmod els
p erson
Ġph ones
Ġath let
ĠEv ans
ĠH or
ĠBel g
el le
Ġj et
Ġpl at
ĠM iami
Ġplan et
Ġgun s
Ġcl imate
T o
le g
ĠN orthern
Ġon going
Ġqu alif
an o
ĠS aud
ab or
Ġact ing
ust ed
Ġdesign er
ach us
im mer
Ġm ir
Ġsk ills
p et
Ġdis aster
Ġcaus es
ĠEliz abeth
Ġver d
osp itals
Ġl ands
Ġcommun ities
Ġattem pts
w orth
Ġstrugg le
Ġconvers ation
as ters
Ġtrib ute
ĠC al
ell i
3 7
Ġdec isions
Ġdem ocr
Ġv ast
Ġbeat en
Ġrem ark
ortun ately
Ġposs ibility
Ġsc ience
ĠPar liament
Ġlik es
Ġann iversary
I C
h our
ĠM un
ch ar
Ġb oot
f ather
Ġt ast
Ġprosecut ion
ĠB urn
p art
Ġb are
ĠTr ust
Ġeas tern
Ġhous ing
Ġex hib
Ġcr ashed
Ġgener ation
Ġspir it
Ġh al
ĠHot el
u ana
b an
ĠG OP
Ġsm oke
Ġst one
Ġr ushed
u ate
Ġpan el
ĠF I
Ġ19 5
achus etts
Ġr ising
Ġint ended
Ġdep uty
ĠRes earch
h att
Ġchang ing
m osp
Ġpl astic
Ġtell s
ĠRe ad
ag ram
Ġloc ated
Ġst adium
Ġinqu est
Ġfat al
ri p
Ġprosecut or
it er
ĠEver ton
ad en
Ġcoll aps
Ġk il
stand ing
ĠAtl anta
A f
is f
Ġg olf
ob ody
ĠAb b
Ġsc ream
Ġident ity
ĠDef ense
Ġaff il
P R
Ġpl ays
h alf
m ad
ĠAr t
ogra phy
st ers
ĠAl i
Ġwe ak
Ġ4 3
Ġl iber
Ġlear ning
Ġunlike ly
ĠD er
if er
Ġmy ster
i as
Ġb ond
re ck
Ġrec overed
ij ing
Ġpun ish
Ġfind ings
Ġl ying
oc ol
ak s
Ġbre aking
Ġident ify
ĠD ub
Ġex clus
Ġhead s
Ġob ject
ask et
Ġstand ard
Ġinquir y
ĠD utch
Ġun ion
em ploy
Ġcond ucted
ĠN A
ij uana
Ġopin ion
ĠU s
Ġtem por
E A
et ic
Ġf illed
Ġ3 9
Ġvis iting
Ġacknow led
Ġdoll ars
and ez
oss ible
Ġgat hered
Ġcor rect
ron ic
Ġclos er
Ġmay or
Ġt ears
Ġcelebr ates
Ġ ut
st ate
Ġr ough
Ġass ess
ĠSn ow
Ġbe ating
ĠRonald o
Ġre act
end ers
ĠP ac
ĠSu arez
Ġamb ulance
ĠPort ug
ĠI v
Ġt ort
ĠIraq i
Ġsche me
os is
Ġfeat ured
ĠMass achusetts
Ġb ars
st s
Ġ4 4
ist ol
Ġref uge
Ġsurpr ised
A l
Ġspark ed
ĠC ru
ĠComm un
Ġdefin itely
ĠP an
Ġre jected
Ġpublic ly
Ġper man
Ġimmedi ate
ĠY et
Ġprop osed
Ġv ice
ve y
Ġn ations
ĠOh io
Ġemb arrass
ĠFound ation
n i
Ġf allen
ĠH od
riv als
Ġprov ince
Ġfoc used
bour ne
pp er
Ġkill er
er en
Ġme at
Ġe gg
Ġbl ame
ĠAn t
Ġjournal ists
Ġp al
Ġlet ters
ĠT en
Ġnot ice
ĠAnd erson
Ġcho ose
Ġteacher s
ipp ing
Ġbehav ior
Ġun ve
Ġcl ash
Ġhistor ic
Ġmist ake
ĠMc G
Ġs orry
b ell
ĠSw ed
Ġjournal ist
Ġorgan iz
ĠCo le
op p
Ġc up
Ġmost ly
ĠHar ris
Ġinvest ment
Ġsmall er
Ġcl ient
Ġrout e
Ġr um
o om
Ġres ources
Ġdevelop ing
Ġc oc
us ion
Ġde gree
Ġenc oun
Ġtravel ling
ĠW ell
Ġtra gic
Ġcons ervative
ĠO k
Ġri ver
ĠC ross
ĠB ern
ra h
Ġdeliver ed
Ġw ine
Ġnot iced
Ġc ook
Ġrel ax
Ġtax pay
Ġstay ed
ĠSt aff
Ġev ac
Ġtrans form
ol k
em e
Ġfl o
Ġstrugg led
Ġwide ly
Ġte le
Ġperform ed
Ġcor por
hatt an
Ġcon sequ
Ġpre c
Ġt icket
Ġrem ote
ĠHam ilton
Ġsex ually
Ġpass ing
Ġt um
Ġcomplain ts
ĠM and
Ġpro sp
Ġpres ented
ĠN BC
ep h
Ġear ned
ĠOn ce
Ġbas is
om in
ĠC ab
Ġch ances
ĠAm ong
Ġopt ions
ist or
ĠAll en
Ġinc hes
Ġleg end
ĠBr idge
ĠF eder
ĠSaud i
Ġchallen ges
ĠMan hattan
Ġcover age
ĠF in
Ġlarge ly
Ġroom s
bor ne
Ġn ar
Ġ4 6
h i
Ġpl ed
Ġparen t
ĠS ter
Ġext r
Ġincident s
Ġjoin t
ĠMos cow
Ġl ights
O ne
Ġbroad cast
Ġac ts
Ġcandid ates
Ġf ought
ĠT w
ĠC ook
ĠI an
Ġover all
Ġcell s
Ġfil ms
Ġexch ange
im p
Ġmeth od
ĠB us
Ġpass ion
ĠL ady
Ġbl ow
ĠHen ry
Ġl unch
Ġcomm and
ump ed
ro at
Ġgreat est
ow ell
ĠH un
ĠSqu are
Ġmus c
Ġperson nel
Ġ5 5
ing ly
Ġt ask
Ġsurve illance
Americ an
Ġcons ist
Ġview ers
ĠSe a
Ġfund s
ĠFrancis co
ĠMichel le
Ġposs ibly
Ġst ick
Ġoper ating
Ġt im
Ġprom ised
Ġ198 0
ag ement
Ġpre fer
ĠMay or
Ġairl ine
Ġwh atever
Ġw al
el ine
ĠBar b
Ġstay ing
aw ay
k o
Ġtest ing
Ġal b
rel ated
Ġland ing
Ġemploy ee
ĠBe ijing
ĠJ ay
Ġ0 8
Ġres ort
i ated
Ġwe igh
as tern
s ec
Ġreb els
min ute
Ġmag n
Ġpain ting
Ġobv iously
Ġmurd ered
Ġequ al
Ġro of
Ġn or
Ġnum erous
Ġtom orrow
ĠPr incess
Ġhouse hold
ĠLib ya
Ġter rit
e xt
if orm
Ġrout ine
4 7
Ġhop ed
ĠF ort
Ġcomp ens
Ġb urg
Ġn urse
ec e
I P
Ġw eren
Ġpolitic ians
Ġs up
Ġsh ar
Ġrob ber
Ġsqu are
we ight
Ġadv oc
Ġt all
ust er
Ġag encies
Ġst ock
Ġse ats
el and
est yle
Ġgrand mother
Ġsuppor ted
ĠL ar
Ġclot hing
Ġwr ite
Ġtre es
in ate
oun ced
ÂłÂłÂłÂł ÂłÂłÂłÂł
Ġtour ists
Ġdri ven
Ġat mosp
Ġbu ying
c ont
Ġ201 6
Ġgu ys
oun ted
Ġocc up
ĠR ock
ĠT own
ĠK ir
Ġhelp s
i able
ĠL anc
Ġb ull
Ġdivor ce
Ġcal m
Ġed ge
it a
ens es
ĠR ights
str ong
ĠL ike
Ġconsid ering
Ġmount ain
Ġsem i
ĠCo oper
ĠFoot ball
Ġch ain
ĠAs ia
Ġm ax
ate g
3 00
ĠShe riff
Ġ4 7
j ust
Ġvulner able
mit ted
Ġheav ily
Ġyour self
Ġposs ession
Ġst uck
ĠL y
Ġcelebr ity
Ġmet al
Ġv en
ĠOn ly
cent re
ĠPh ill
Ġbl amed
Ġwel come
Ġremain ing
Ġhead ed
Ġconst ruction
Ġs ection
Ġgr own
ĠA irl
Ġthr own
Ġveter an
Ġprof ile
Ġverd ict
ĠV illa
Ġproper ly
Ġhead ing
ree k
Ġdist rib
Ġfire f
ĠAb u
en ch
Ġauthor ity
ĠF ab
og ue
Ġrest r
Ġh ole
in ct
Ġexc ited
Ġcomb at
er a
ĠJ ac
Ġwat ers
Ġd ance
ĠT s
Ġpriv acy
Ġinvestig ate
Ġbath room
Ġfil med
ist ics
Ġacc omp
Ġland ed
Ġc ards
ul ous
ĠT op
ĠS her
Ġcompl ained
Ġ( Â£
Ġ4 1
est y
Ġan onym
Ġpoin ted
ir ts
ĠR a
ĠMil an
ĠInst agram
W ith
ĠAlex ander
Ġdismiss ed
ĠC ra
Ġdist ance
ut s
Ġactiv ists
ĠU p
Ġt end
ĠC are
ĠL et
ĠDu ke
ear ing
ĠN at
ĠMar c
Ġtrain ed
Ġbelie f
Ġlot s
ĠL au
Ġcivil ians
Ġsh oes
ĠB rian
rif ied
Ġoff ences
ĠLe ices
Ġadd s
w hel
ĠH amp
ĠVal ley
p oint
Ġdra g
Ġm useum
Ġqu al
Ġsupp ly
Ġbur ied
Ġsa v
Ġmem orial
ĠL am
st ein
ĠMess i
ag on
ĠCh annel
Ġsc ale
ĠR oss
st one
Ġret ire
Ġmar ijuana
s ewhere
ĠMex ican
Ġstrate gy
ĠN FL
Ġroad s
Ġevery body
Ġe ur
ff ord
iam ond
Ġtalk ed
Ġn one
Ġhon or
Ġstud ies
Ġh all
ass ador
Ġcrit ics
ab led
Ġk iss
Ġem pt
ĠMar s
Ġy ellow
2 4
ĠS ant
ĠB uck
Ġdet ail
ic ip
Ġpr in
ord on
ĠI ll
ĠB et
Ġban ks
ĠW ork
ign ed
Ġ rom
Ġteen age
ĠW omen
ĠSter ling
B A
Ġm aster
h y
ĠU t
Ġch ose
op her
Ġlit er
Ġneg ative
Ġint ent
Ġj ack
Ġg ym
Ġacc us
Ġhum ans
bur gh
ĠWh o
Ġrep utation
ag ger
Ġstun ning
ans as
Ġre vel
is hes
ĠH ou
ĠC C
Ġinf ection
as y
ĠP ublic
ĠGra ham
ar re
Ġp orn
Ġcapt ure
ol i
Ġdo ors
Ġprogram s
th a
ĠW ayne
Ġimpress ive
ar ch
ell or
ĠAssoci ated
Ġswim ming
st yle
ĠS ix
em ic
ĠFI FA
ĠOsc ar
str on
Ġrepl aced
ĠCharl ie
ĠR el
Ġm ap
Ġcl imb
ĠDo ct
ĠIran ian
Ġ15 0
f ast
Ġplat form
ĠPat rick
Ġpl enty
ost er
ryst al
we ek
Ġ6 5
ĠJ ane
Ġv irt
Ġsl am
Ġun iform
Ġt ennis
Ġr ich
urb an
ĠL as
sy lv
at to
Ġse ized
Ġterror ism
Ġan ger
R A
ac le
Ġthough ts
Ġpark ing
og an
ug by
Ġeas ier
ren ce
elf are
ac he
Ġsp ring
Ġsome body
ĠC at
Ġdis order
Ġmot iv
ar ant
Ġra ising
Ġrefer red
Ġassoci ated
ĠJ ournal
re es
ack s
Ġte a
Ġscen es
ĠB ul
Ġvot ed
Ġinter ests
Ġcour ts
Ġaband oned
l ines
mark et
Ġis ol
sylv ania
Ġback ed
ĠJos h
Ġtrad ition
Ġcontrovers y
Ġh ospitals
Ġbag s
Ġdesper ate
l ook
Ġc oin
Ġl ady
Ġp ension
Ġdeep ly
Ġarri ve
Ġtarget s
ĠM ax
ri a
ĠCr ime
Ġn ovel
Ġtra um
Ġimp ossible
2 7
Ġrem arks
in ating
ĠK erry
Ġ4 9
Ġas p
Ġfound er
Ġelder ly
Ġreal ised
hen s
Ġalb um
ĠMal ays
Ġestab lished
ĠAb out
Ġwonder ful
Ġdirect ion
Ġexp osed
Ġ7 5
ĠLe on
Ġb ills
ĠSom al
Ġopin ions
Ġprison ers
erv ation
Ġt ie
ĠÂłĠÂł ĠÂłĠÂł
ĠU N
Ġground s
Ġtra il
h ar
Ġworld wide
af i
Ġdisapp eared
quar ters
Ġpup ils
Ġtest ed
y e
Ġm er
Ġt un
Ġgoal keeper
Ġgr anted
pl ace
N ew
ĠM useum
y r
ĠWat son
Ġterror ists
ĠPenn sylvania
Ġbot tle
ĠSh ow
Ġsym b
h and
Ġcontin uing
Ġmed ic
Ġcomfort able
Ġj ur
Ġbr idge
Ġtru ly
ĠTur k
ad ian
Ġst om
** **
oint ment
ĠSt an
Ġth inks
Ġsupport ing
Ġg all
Ġr at
ĠL aur
Ġre duced
ad ow
Ġstab bed
Ġt act
ĠM u
Ġconclud ed
Ġar rival
ĠAirl ines
Ġapp ropriate
ĠJos eph
Ġl ie
âĢ ī
Ġres ol
er ves
Ġclose ly
ĠT ele
Ġse es
ord inary
ĠRom an
Ġsu bs
Ġ197 0
Ġcoff ee
ĠIr ish
ac ity
Ġthe rap
ĠJ ason
Ġappro ved
Ġstat ements
Ġaward ed
Ġmic ro
Ġ0 9
Ġste pped
Ġdoz en
S P
ie v
Ġsil ver
Ġter min
rom e
Ġn ose
f all
ĠSt ill
Ġele cted
ĠK han
I s
ĠF ederal
Ġdra wn
ĠB est
Ġl isted
ĠF ern
Ġz one
r um
l an
o ard
Ġsurv ive
cent r
Ġins ist
ĠVe gas
Ġun less
ĠM it
c alled
Ġtrou b
! "
ĠR ick
Ġarg ument
os en
ĠM en
ib r
Ġh ate
ĠT erry
aw n
Ġter rible
m ph
Ġfriend ly
ĠSw an
ĠL ife
ĠO ur
Ġatmosp here
Ġconv iction
Ġmed al
Ġprom pted
ĠB ru
Ġdisc overy
il a
2 1
all as
Ġrepl ied
Ġstrik es
Ġout break
Ġris ks
Ġfor get
Ġoff ensive
Ġab road
ĠG reg
Ġthreat ening
Ġdefend ant
Ġbal ance
ĠOx ford
c are
Ġco alition
Ġcustom er
ĠUS A
ĠCol omb
Ġcollaps ed
ĠAr m
Ġrel ief
Ġappro ached
Ġstom ach
Ġfle w
ĠSt and
Ġsol ution
Ġwind s
Ġnot es
Ġconsum ers
p orts
Ġl ocked
Ġstr ing
Ġhigh l
ĠAl so
Ġkne e
Ġcon gress
Ġtest ified
Ġsat isf
ĠQue ens
ĠJon athan
Ġp in
Ġdisc ipl
ĠSp ace
Ġexplos ion
w all
ĠOr gan
ob s
ĠJ r
Ġ0 7
ĠMuslim s
A R
Ġun employ
Ġ4 00
Ġwor ry
Ġover whel
Ġsc re
ĠAs ked
ĠEd ward
Ġknow ing
Ġunc lear
ĠAnd re
Ġs weet
ĠHou ston
ed ing
Ġintern al
Ġt or
ir a
Ġc raz
ĠN ev
as er
Ġstar ts
b ec
Ġpregn ancy
Ġwas te
ĠRob inson
Ġimag ine
ĠInd ones
Ġv ital
anc ellor
Ġbas ic
ag an
ig aret
ĠC op
el son
Ġencoura ge
ĠS anta
i ot
Ġsurv iv
t a
ĠSec ond
ĠW ild
ue z
Ġslight ly
Ġm ent
g un
ou ri
Ġcan c
Ġcou ples
ĠAsh ley
ĠTe am
Ġproced ure
old s
r ich
Ġc a
Ġint e
Ġcritic ised
2 3
Ġcon centr
um ber
g ment
Ġco oper
9 0
ĠCC TV
Ġhad n
ĠI ts
ra pped
Ġprov ides
Ġt ickets
Ġcut ting
ĠW enger
ĠB ack
Ġ0 6
ĠL ittle
Ġvac c
b rit
ĠL ove
ĠG aza
Ġsole ly
Ġt ied
ĠHer n
he ast
ord ers
Ġd ry
az z
Ġ199 9
ord s
Ġsan ctions
Ġ rivals
Ġfollow ers
l ah
ĠB ell
m o
Ġto ile
ĠLe v
ĠB ecause
Ġbeh alf
Ġexpl ains
ĠChrist ie
ish op
Ġmother s
Ġfe ared
ĠS ever
Ġsat ell
Ġw ave
Ġnew ly
ĠEm ma
Ġrock et
Ġtack le
ing ton
4 4
Ġsudden ly
Ġem br
ĠF red
Ġrec alled
Ġdeal ing
Ġsoft ware
w ater
ĠChrist opher
Ġdevast ated
ĠF riend
4 00
Ġhe ight
Ġappear ances
Ġout rage
if ying
pir acy
Ġm oon
ill iant
Ġunderstand ing
ĠJenn ifer
ĠG all
ĠFollow ing
ut ies
ok es
ĠCath olic
ĠPhil ipp
Ġ5 2
ĠAn ton
ĠSp ec
Ġbad ly
Ġtal ent
ĠG ulf
ĠZ immer
brit ies
ann ah
Ġimmigr ants
ir ation
omp son
Ġrap id
Ġun known
Ġdisc l
Ġshock ing
ĠDirect or
Ġp ose
ĠRod gers
Ġdisc over
er ted
Ġset s
I V
Ġsurround ed
ĠMo ore
ĠMel bourne
ĠN as
ĠW ind
ĠSc ient
or al
ap se
Ġres ist
Ġl ies
ĠM od
d y
Ġassist ance
Ġl aid
ĠLu is
Ġhon est
Ġult imately
ĠG un
ĠLeices ter
b u
Ġj ew
Ġf ro
ĠG ov
Ġapp rec
or ous
anc er
Ġtest im
ĠMich igan
em ble
Ġsub sequ
Ġlif estyle
Ġprep are
Ġpropos al
Ġcoc aine
Ġc ock
Ġst ro
Ġper mission
in ations
ask a
Ġdel iber
L e
Ġinv ited
Ġd u
ĠCra ig
n ic
Ġref lect
ĠG ordon
Ġp it
it ors
2 6
Ġepis ode
ĠY emen
Ġenjoy ing
S ome
ather ine
Ġanc ient
ĠSe e
ĠUk rain
Ġlab or
ĠWalk er
ĠCan adian
Ġhit ting
Ġpl us
ĠS orry
Ġjoin ing
Ġaim ed
Ġw ound
ra id
Ġp ed
ĠEx per
ro c
ort ion
Ġsp ons
Ġrev olution
Ġqu it
Ġesc aped
it arian
Ġempt y
Ġref ere
ĠRad io
Ġdisc rim
Ġb asket
Ġh idden
ĠM ot
Ġlead s
Ġp ushing
Ġnorm ally
Ġb ound
Ġmin imum
ĠPakistan i
Ġpat tern
U n
Ġc ateg
Ġeng aged
Ġple a
ĠBay ern
Ġattack ing
Ġw elfare
Ġdis s
Ġth rew
Ġn ative
ĠS af
ĠC IA
ĠT est
au g
2 8
ĠGl ob
Ġinvolve ment
Ġjump ed
Ġobtain ed
Ġw estern
Ġarri ving
Ġrecomm end
Ġrelative ly
Ġfant astic
L L
ĠT ime
oy al
Ġt ur
Ġhar ass
ĠBr other
Ġent h
Ġadop t
Ġshould n
Ġri f
Ġfac ilities
ĠCamp bell
M A
Ġp ock
Ġer up
Ġsearch ing
ĠHug hes
ĠOffic ials
ĠL and
im al
ess ions
Ġmov es
Ġrepl ace
Ġprep aring
Ġcle ared
ĠPalestin ian
Ġbl ind
Ġsm ile
Ġdef ending
Ġset t
ĠM ah
ad el
Ġinst ruct
re al
n am
ĠS erv
ac hel
Ġan x
ĠTh ompson
Ġd ub
z en
Ġaltern ative
Ġmin isters
Ġf inger
ĠW ater
Ġsc ared
man n
che ll
Ġinnoc ent
ĠG et
Ġover t
ĠAr ch
Ġp osed
id ers
Ġbec omes
ĠS ud
ĠB ang
Ġw reck
ĠSu pp
Ġd ying
Af ter
Ġjud ges
Ġf ake
stit ution
or ious
ĠS um
ro s
Ġgu arant
h ow
Ġmat ters
ĠJew ish
ir ates
iz es
Ġto uc
am in
Ġre in
Ġfavor ite
Ġl ung
Ġex cess
Ġdig ital
ĠH ull
ĠF al
ĠWh it
Ġf itness
ĠGre ece
ĠJam ie
Ġun n
Ġtot ally
Ġme al
under land
Ġinvestig ated
ĠEs sex
Ġentire ly
C C
Ġhor rific
ecut ive
ĠF il
- -
A F
ac re
ĠK o
ĠLe eds
Ġh ide
Ġro se
esp read
Ġturn s
Ġpurp ose
Ġaccept ing
Ġc ode
Ġdr unk
Ġp owers
ĠG h
E S
ĠMar g
ĠSp ort
ĠJess ica
Ġanalys is
ĠO per
Ġnar row
Ġb ike
Ġoverse as
ac ters
Ġdet ained
ĠHamp shire
ĠWe ek
Ġd ire
d on
it o
ĠN AT
Ġw alls
iz arre
Ġcompens ation
Ġ ing
ĠK l
ĠIn sp
it ary
ex p
Ġint ense
ĠHern andez
ut ional
ĠR ose
ĠY esterday
ĠRe v
l s
Ġch a
Ġsuspic ion
Ġdisappear ance
Ġrepor ter
Ġt orn
ĠP ope
ĠW right
Ġrad ical
ĠPhil ip
Ġcommit ment
ĠTurk ish
ĠTh ough
Ġch osen
Ġdr ama
Ġdocument ary
Ġconsequ ences
is ers
ĠE ach
cl ass
ra g
Ġsp ell
Ġide as
ĠJ en
Ġded icated
ĠH ear
ĠPe ters
Ġv ent
Ġst ated
em a
Ġinform ed
Ġdr inks
Ġo cean
ĠS k
Ġinterest ing
Ġrac ing
ĠNiger ia
Ġsleep ing
ob by
Ġbeg ins
im a
Ġlif t
m outh
ĠP erry
Ġch at
ĠR io
Ġincred ibly
ĠH old
am m
Ġany where
Ġa stron
ĠRod rig
2 9
Ġmar ks
Ġkn ocked
Ġadm its
ĠN ich
Ġw aves
Ġlist en
ĠSoc iety
Ġv ision
Ġextra ordinary
Ġchar acters
ĠS ub
Ġfor med
Ġcons piracy
Ġcan n
Ġ199 8
ĠAn y
Ġins ists
ĠCl ark
k ing
ĠS underland
ĠComm ons
de gree
Ġvot es
ĠQ at
O W
ath on
Ġfollow s
Ġbreat h
Ġspecial ist
Ġimp lement
Ġdescrib e
ick ed
Ġj ihad
ĠCle gg
Ġreport ing
Ġaffil iate
Ġcon ce
f ree
ĠB ry
3 8
Ġdisp ute
Ġwe b
az on
ĠG ib
um ed
Ġic onic
ĠD anny
e qu
Ġp ink
Ġve get
Ġcl im
Ġdec or
iver se
ĠZimmer man
Ġcomment ary
Ġopportun ities
Ġ( $
Ġkick ed
Ġcor ruption
y ard
Ġmax imum
Ġpost ing
Ġcompet e
Ġwin s
ĠOffic ers
Ġshould er
Ġconn ected
Ġcap able
g irl
Ġsm oking
ic ious
Ġent it
aren ess
ĠPol it
Ġmet res
3 6
Ġt atto
Ġbr illiant
ĠLaur a
Ġadop ted
Ġtestim ony
ep ing
ech an
ĠNAT O
i very
ĠD ave
Ġsh ops
led on
Ġsw itch
istr ates
Ġwind ows
t ic
Ġte eth
âĢ ¦
Ġtax es
Ġstruct ure
Ġpay ments
Ġclass ic
over ty
ĠAs ian
ĠSt ew
Ġother wise
od es
Ġb ench
ol itan
ĠF el
om pl
ocol ate
imb ledon
ĠServ ices
Ġproper ties
ĠSoc ial
Ġcele brities
ĠAc ademy
Ġhand le
Ġab used
Ġf ruit
Ġsol ar
Ġord ers
Ġmark ed
ĠH ard
ĠJe an
ĠCons ervative
Ġg ift
ĠA re
Ġt ear
ing ham
Ġm al
Ġst ream
it able
ĠBr istol
Ġwithd raw
ĠAbb ott
ĠTrans port
7 0
ĠTra fford
oot h
ĠProsecut ors
Ġperman ent
Ġscore s
Ġpro jects
Ġj oy
ĠT urn
c ia
ĠV ill
Ġext ended
Ġra ped
Ġarch it
Ġr ally
4 9
Ġaf raid
ir ty
Ġg e
ĠD allas
Ġ0 5
ĠBrazil ian
Ġt ank
ĠAtl antic
Ġapp ly
Ġr ural
Ġfamil iar
ol as
b ar
Ġt we
or ough
p an
Ġattempt ing
ĠR h
Ġreve als
b ut
Ġsh ares
Ġoff ence
on na
ĠUkrain ian
Ġra id
ĠAd ministr
Ġs ector
ĠR ub
ĠB ond
ell er
ĠMiss ouri
us ive
Ġpresent er
Ġchild hood
ul s
ĠSwan sea
ĠL yn
Ġwid espread
Ġint ention
Ġdef ended
Ġdevast ating
3 9
Ġt ies
ĠB as
ĠK er
Ġer a
Ġg ap
Ġplan es
Ġdemand ed
other ap
p ut
ĠEgypt ian
ĠBl air
ĠJim my
Ġsh ift
D A
Ġfew er
Ġbomb ing
Ġo d
ĠOk lah
Ġm os
Ġcomp ar
Ġprom ise
ĠW imbledon
Ġcon clus
Ġcru cial
Ġcas ual
Ġfest ival
Ġthe ft
m aker
Ġfe e
idel ines
aren ts
Ġburg l
Ġtra pped
Ġw ounds
Ġadv ance
Ġprof ession
ĠP ers
av al
Ġ5 4
ĠF air
or a
ĠH y
Ġbl ast
ol n
ĠL t
ĠEd wards
Ġatt ending
Ġple ased
Ġmil k
Ġdescrib es
duc ing
Ġp ig
min ster
ĠB ra
Ġenth us
Ġresc ued
Ġacknowled ged
ĠAn na
Ġupd ated
Ġent r
Ġexp and
ĠI d
Ġfir ms
Ġ5 1
ĠConn ect
Ġunve iled
iec e
Ġtemper ature
ĠHill ary
Ġsh aring
ors es
Ġf ile
Ġton ight
ĠBro ad
t wo
if ts
Ġy ards
Ġaggress ive
ĠW he
l ow
Ġover night
Ġn aked
Ġbrut al
in ced
Ġprior ity
Ġs its
Ġdemand ing
E N
ĠB all
Ġk ing
Ġtravel led
Ġsix th
u ine
Ġstr ict
Ġdep ression
Ġsc an
ĠH unt
Ġsc ar
Ġvar iety
ĠP en
ĠAm azon
ĠNe il
ĠOklah oma
ĠO cean
ph ia
Ġpri ze
Ġind ic
ĠP ot
Ġd rew
Ġj u
ĠMar sh
Ġj e
Ġofficial ly
olog ists
ĠDep uty
ĠMoham med
ren e
Ġear ning
ard o
ath y
ĠP ass
Ġche ap
Ġacc ompl
Ġprom ote
ĠCol umb
ino is
d ie
Ġbatter y
ate ful
Ġj oke
Ġm ile
Ġ5 3
Ġrac ist
Ġple as
Ġbul let
ver se
ĠJust in
Ġspokes person
Ġdisapp ointed
Ġsup erv
Ġen orm
d ad
m ers
r ard
ĠCar ter
Ġhead quarters
Ġarrest s
Ġinterview ed
Ġr u
ĠM ajor
ret t
Ġbird s
ĠRob in
Ġinte gr
rif ying
es h
adel phia
ĠC elt
ĠOs borne
Ġfl owers
Ġh ang
ĠEd in
Ġf ill
Ġpat rol
ĠComm on
Ġt aught
Ġre ward
ĠStew art
ch air
ĠNA SA
r idge
Ġ9 11
duct ion
Ġs isters
resp ond
ĠMit chell
Ġchampions hip
ĠâĢ ¢
ĠS outhern
Ġcolle cted
Ġear n
Ġv ig
por ted
ĠSt one
Ġpo ison
Ġprom pt
sh ot
Ġdem ands
ĠA ff
ĠL aden
ĠF ood
Ġcont ained
ĠDav ies
ine z
Ġclin ic
Ġgovernment s
Ġbom bs
w ick
Ġc rying
Ġadv ent
atter ed
Ġreach ing
Ġfe es
in ent
ĠF re
Ġend ing
Ġloc ations
Ġsol id
Ġbe er
ĠMed ic
ĠE duc
ĠMar ine
Ġrestaur ants
Ġsu c
Ġdel ighted
Ġcl ients
Ġc ous
Ġpos es
ĠSt oke
ic ut
het ic
inc oln
et ime
ĠPac ific
Ġregard ing
Ġrobber y
Ġg ained
Ġexpl o
Ġexc iting
Ġm ine
Ġdis pl
ĠB ab
e or
Ġ5 6
Ġh ired
ĠSe an
ĠCh ancellor
p ers
Ġreg ional
4 8
and o
bre aking
ĠHod g
Ġteen agers
Ġathlet es
ĠPh ot
Ġeffective ly
Ġpunish ment
d ef
Ġsu gar
id en
Ġwrit er
Ġaw areness
le te
Ġche cks
Ġsuc ceed
Ġgener ally
g io
Ġoccas ions
ro id
Ġperform ing
ĠM other
Ġwrit es
Ġterrit ory
ol ly
Ġw ard
ĠRuss ell
Ġimpro ved
Ġf ighter
ĠA le
ĠCl ar
Ġext ensive
Ġmans ion
d r
Ġl a
Ġearth qu
Ġsurpr ising
Ġcommun ications
Ġtyp es
ĠG irl
Ġren t
ĠCard iff
N ow
Ġplan ts
omm od
Ġs ac
Ġput s
Ġche f
Ġ199 7
** *
Ġfeat uring
ot te
ĠL ocal
Ġl oves
Ġmov ies
ĠRodrig uez
ĠS wit
ĠGer rard
Ġdes ire
Ġlab el
ĠDis ney
ĠL A
Ġtast e
ĠBru ce
Ġtyp ically
ĠSever al
Ġl inks
Ġacc ur
w en
ĠEn ter
Ġf ault
ĠH om
Ġaut omatic
Ġpos itions
Ġm isc
Ġcap acity
Ġcount y
Ġpack ed
c ol
ĠP ower
Ġsk i
ĠL isa
6 00
Ġgu ide
3 2
Ġl oud
ĠR oll
ĠG ill
Ġap ology
ĠPhil adelphia
Ġh ug
Ġre un
Ġde als
Ġapplic ation
ĠIll inois
Ġem p
Ġkill ings
Ġel sewhere
ĠJer emy
Ġus ual
et her
Ġany body
5 5
ar on
ĠG ab
Ġgood s
an es
ĠB ull
Ġcontroll ed
Ġvess el
Ġl ock
Ġcomm ander
Ġf ier
Ġt ail
ĠSand y
ĠAl ab
ĠAm anda
Ġgra ve
Ġcap s
ĠiP ad
Ġexperi ences
Ġs ter
in ch
Ġgu est
iss ions
u ous
as ion
ĠB rom
Ġgr ass
Ġsp r
Ġfact or
b ox
S h
Ġinit i
Ġcelebr ated
Ġt ip
Ġexecut ion
Ġmult i
g ow
g rees
Ġha bit
f e
Ġtri es
ac ular
Ġdub bed
ĠC BS
ĠGl as
ĠIn t
p ass
Ġ196 0
Ġc igaret
Ġl ad
cer tain
el er
Ġrequ ires
ĠDemocr at
Ġcamp us
Ġconv inced
ĠWood s
ĠL incoln
Ġcivil ian
ĠBrook lyn
Ġp apers
ic ial
Ġdel ivery
L A
Ġenvironment al
v ant
Ġregister ed
ĠConnect icut
ĠC os
w w
ĠR em
Ġthere fore
Ġab oard
Ġaff airs
Ġfound ed
Ġrepres ents
Ġstrong er
Ġsuggest ing
ay a
ĠE nd
Ġl oyal
Ġscream ing
Ġb urned
it age
so ft
Ġappl ied
ĠInvestig ators
Ġtempor ary
ay ing
ĠDoct ors
Ġst em
ĠP ear
Ġindepend ence
Ġp ace
ĠHe ath
z ing
ĠG ard
Ġstr ange
ĠLu ke
Ġwar rant
ĠG il
Ġs ounds
ĠWest minster
b urn
ĠH u
aw are
l ad
A ss
Ġtravel ing
ene z
Ġorgan isation
es us
Ġtrans pl
ĠAd ams
Ġbreat hing
Ġpost s
Ġform al
Ġte x
ĠN ad
act ive
ĠMcC ain
Ġn ut
Ġpack age
Ġb izarre
Ġpet ition
d ale
ced es
Ġbare ly
ĠR angers
Ġman age
ĠMun ich
ĠN ig
ĠL ane
Ġc os
Ġb on
ow a
oy d
Ġyoung est
Ġtrack s
Ġacc ommod
ĠSe attle
ĠP ent
ĠMart inez
ĠHaw ai
â Ĥ
Ġde grees
enn y
Ġsuppl ies
Ġrelationship s
w rit
Ġb at
ore n
Ġexist ing
Ġmark ets
Ġfun ny
ĠMcD onald
Ġattr acted
Ġresul ted
Ġexclus ive
Ġb ik
Ġh anging
ĠSt ev
ĠBo ard
end um
Ġs ke
Ġrec ording
Ġorganiz ations
t ar
Ġmeet ings
Ġsum mit
Ġre hab
ĠW ard
Ġg reet
Ġm echan
Ġth in
ĠH a
Ġneighb ours
Ġh ung
Ġsuccess fully
ĠH ills
Ġgen uine
Ġclass es
3 3
ac o
t es
Ġappro val
âĤ ¬
Ġend s
w ith
erv atives
Ġtour ist
otherap y
ĠAlab ama
br is
Ġw ing
. )
Ġn obody
d og
? âĢĻ
Ġval ues
ĠCr ist
Ġcon cept
ĠLe g
ĠDe b
Ġencoura ged
p hed
ow ered
Ġdet ailed
Ġp overty
Ġm ut
Ġbur ning
Ġcomb ined
Ġcont em
Ġkeep s
Ġobv ious
Ġdetect ives
Ġte aching
Ġcl osing
R ep
c ons
c ar
Ġsettle ment
Ġc ited
ĠL l
ik h
Ġfact ory
Ġcontr ast
Ġshe riff
Ġwel com
m ade
Ġcol or
Ġcondem ned
Ġstud io
ĠBelg ium
7 5
ac ement
Ġcrim inals
Ġreb el
ric ane
ĠSus an
ĠO K
Ġout come
ight on
Ġamb assador
Ġlands c
Ġne ither
c ase
Ġcan cel
Ġgrand father
Ġren ew
Ġoppon ents
Ġin app
Ġh iding
Ġslow ly
Ġshar p
ch o
ĠLe ban
Ġfir ing
Ġinvestig ations
Ġvis its
zer land
Ġrefer ring
Ġpred ict
Ġbasket ball
Ġh its
id ays
Ġsent encing
Ġdr one
Ġden ies
am ber
Ġdipl omatic
Ġaccomp an
j a
Ġwal ks
y o
Ġsatell ite
Ġinterview s
Ġpra ised
l ings
ĠF ive
ĠDun can
Ġcar bon
ĠG riff
ĠMc K
M r
Ġc ul
Ġa er
Ġcr icket
ĠFer r
Ġt ape
Ġwor n
w an
Ġem ph
ĠUt ah
ĠHe ad
Ġcre am
Ġf el
Ġatt ached
Ġal ert
ĠH ur
Ġch ocolate
Ġbl ank
lo aded
ĠB ook
b ie
Ġbr own
Ġconf ront
8 00
Ġimport ance
ter ing
ĠV iet
ĠT rib
ĠMic ro
Ġveter ans
ad h
ĠBr and
ĠHow ard
Ġadvert ising
Ġm and
Ġr ugby
Ġcon ver
Ġind icated
ĠSwit zerland
Ġme als
Ġgu ards
ĠPortug al
Ġopp osed
ĠGlas gow
Ġhard er
Ġtrans l
Ġinf ected
ĠSt u
Ġmem ories
4 6
Ġb one
ĠD ur
yc ling
od ed
ĠHodg son
4 2
Ġoppos ite
Ġ5 7
ĠP M
ĠAdministr ation
Ġmanufact ur
ail and
N ot
Ġbur st
Ġav o
Ġcelebr ating
Ġhon our
Ġc ry
Ġth ick
ĠL ow
Ġac ted
onn ell
ĠCelt ic
Ġto ll
Ġproced ures
r ast
ect ing
Ġcheck ed
Ġrefer endum
ugh t
T A
ab et
Ġsh out
Ġman ner
Ġent ering
Ġtit les
Ġvolunte ers
Ġadv ised
s ung
ĠR ow
Ġg ender
pro file
Ġsear ched
bor ough
ĠI b
ĠEx p
agh dad
Ġl uck
av ed
Ġfil ming
Ġtax i
Ġeth nic
ĠFriend s
H is
Ġmed ication
Ġpred icted
ĠRog er
Ġremark able
ink ing
Ġ0 4
Ġcontain ing
Ġart ists
ĠCorn wall
Ġn erv
os ition
Ġinn ov
Ġcolle ague
ĠSnow den
i ac
v in
Ġfun ction
Ġl iqu
ĠAn ne
Ġsy mp
Ġreform s
Ġgrab bed
ĠEduc ation
ĠSec ret
Ġn ick
ĠM oy
ĠCub a
Ġres olution
Ġmix ed
am i
Ġmaterial s
ĠC all
ĠBe at
d a
Ġem ails
Ġun ivers
Ġvot ing
Ġcop y
Ġaccus ations
ĠAm y
Ġflood ing
Ġarchit ect
ĠMar io
ĠA ston
os h
ĠTh ailand
Ġold est
Ġnegoti ations
D C
Ġproduc er
Ġpers u
ot elli
Ġr iding
Ġd ict
Ġmon itor
Ġord eal
w ing
ar ms
Ġrelig ion
Ġst ations
Ġtoile t
ĠEdin burgh
Ġall ies
Ġfiref ighters
ĠH IV
end ent
iat ric
ĠP y
Ġvis ible
ult ure
ch ildren
Ġr ig
ure au
ĠI owa
em ed
Ġbr ings
rain ed
Ġbra ve
R O
Ġst ages
Ġwitness ed
ĠH M
Ġsport ing
g t
ĠN Y
Ġwin ners
ĠH ait
ĠCh ap
w a
il st
Ġthe ory
ac c
Ġv owed
Ġg ro
ĠA ut
ĠE mer
Ġrec on
Ġwealth y
ĠColl ins
Ġhom eless
ĠTre as
ĠSpec ial
ĠSp ring
s m
Ġspec ulation
Ġtro phy
ĠNot ting
ap es
Ġexpect ing
ĠGar cia
Ġden y
Ġcraz y
Ġs ib
Ġfac ts
Ġelectric ity
ĠF ree
Ġentit led
Ġg est
ust ing
ct ic
Ġ199 6
ĠBal otelli
Ġrequ ests
ff ield
Ġfact ors
Ġgl am
Ġgun man
Ġansw ers
ol ph
Ġbl ocked
ĠBl oom
u ay
Ġwa ited
ĠS oph
Ġtechn ical
Ġb es
ĠC as
Ġfund ra
Ġcont ains
tle t
le ep
o is
he im
Ġj un
he m
nd rome
Ġpeace ful
Ġf aster
Ġp ump
Ġapp ointed
Ġac ad
Ġstrong ly
Ġoffic es
u ations
Ġ5 8
ĠL i
Ġcoll apse
Ġdiscuss ed
Ġapp s
Ġcelebr ation
Ġexc ell
gra v
Ġrefere e
ĠT am
Ġenorm ous
x imately
Ġpre par
ĠD j
t ure
Ġtrip s
Ġthrow ing
lo ad
Ġh orses
Ġcross ing
Ġcrew s
Ġt ent
Ġf ab
Ġspeak s
Ass ad
A r
upp er
Ġsm ugg
ĠB an
ĠP le
ĠL ive
Ġcompet itive
Ġcrow ds
Wh ile
ĠEm b
Ġarg ue
ĠBre nd
ra it
ĠDef ence
Ġpurch ase
ell o
. -
Ġmot ion
Ġent ry
ĠSud an
ĠBeck ham
ĠOffic er
um es
ĠH o
Ġl av
Ġcover ing
Ġtransfer red
Ġpartners hip
Ġour selves
Ġown s
Ġbeg un
Ġde bris
ist le
Ġconst antly
Ġse lect
Ġcal c
ĠKen ya
Ġt ag
ĠSam sung
Ġestim ates
Ġsh ips
ide o
ĠDer by
Ġaccompan ied
Ġcur ren
Ġappear ing
Ġw ire
Ġst able
ess ing
Ġille g
2 50
ĠAuthor ity
ĠR on
ĠMor ris
Ġassaul ted
f inal
Ġ199 4
Ġam ounts
ĠDub ai
ĠStu art
igh th
ruct ure
Ġrepres ented
Ġthe at
Ġcult ural
ĠKat ie
Ġf asc
re ts
Ġext ent
ĠCommission er
ar med
ber ry
ival ent
! !
Ġag es
Ġy es
Ġrepresent ing
Ġdipl om
Ġlaw makers
ĠAm b
ĠR ome
Ġcru ise
Ġmonit oring
c rib
at o
Ġr amp
c aster
Ġele ph
Ġsubst ant
re hens
Ġm ask
ĠShe ffield
ĠArab ia
Ġsust ained
Ġsp in
Ġstud ying
Ġprot ected
Ġachie ved
st ri
Ġmarket ing
ĠF ur
ĠT ar
Ġcoun sel
Ġlif ted
ro it
d ed
t t
Ġdist urb
end a
ĠBus iness
Ġmar ry
Ġsuspic ious
Ġconf ron
Ġess ential
ĠB on
Ġbr anch
Ġperson ally
Ġsens itive
Ġ6 7
Ġas ide
Ġun its
Ġte ens
Ġindust rial
Ġs ch
ĠRe id
ĠArm strong
ĠB os
Ġspecific ally
.... ....
us al
Ġrece ption
Ġfore ver
Ġnet works
Ġh unt
ĠSw iss
re te
ĠA p
Ġevery where
Ġhand ling
Ġb acter
Ġo x
ra f
d in
Ġs am
d is
ĠInd epend
Ġcru el
ĠCh ile
Ġcomed y
Ġsk ull
Ġsignificant ly
Ġdraw ing
ĠN ap
Ġ6 4
ĠBl ue
ik i
Ġshel ter
Ġimp ressed
Ġattorney s
ĠH end
Ġout fit
Ġcomp rom
Ġfor ms
ut ing
Ġact ual
ĠMarg aret
on z
ĠN elson
Ġch all
Ġch icken
ĠG reek
ĠCast ro
ic i
ill er
A S
Ġple ase
ic ts
Ġtr ick
Ġproceed ings
Ġmyster y
Ġprosp ect
ĠT ou
ĠMc L
Ġb ru
Ġinsp iration
ĠBar cl
ĠBarb ara
Ġaw ards
anche z
Ġrac ial
Ġf ishing
Ġconst ant
ĠMary land
ĠPhill ips
ĠSt ation
Ġh ack
Ġc ope
ĠP ictured
ph ones
Ġreg ulations
ĠC y
ĠL es
ĠWar ren
in ion
se ason
ter ror
Ġleg it
Ġjur ors
Ġreg ul
w as
Ġrough ly
ĠT es
ot y
Ġsh ark
Ġcomput ers
Ġfl ames
Ġch annel
l ock
rop olitan
Ġer ror
Ġrepresent ative
om y
ĠOther s
Ġdis abled
Ġrec ru
Ġcreat ive
Ġaw a
ĠQ PR
ipp i
ĠA z
Ġreg ret
Ġins urg
Ġhot els
ĠF und
Ġpr on
Ġcitiz en
ax y
t ra
ch i
Ġ iron
Ġnurs es
ĠB ad
Ġob jects
a is
Ġtown s
Ġactiv ist
ĠHel en
ir o
Ġtherap y
ĠH it
ĠA T
Ġdemocr acy
Ġsymb ol
Ġtouc hed
Ġmin istry
Ġhead lines
Ġt ens
Ġsong s
ĠS gt
Ġmedic ine
og ether
i ences
ĠA aron
f ront
O S
Ġannoun ce
ĠS anchez
Ġr aces
Ġp ill
ĠA y
ĠFl ight
ĠSh aw
ĠR esc
Ġstrik ing
4 3
g age
m ath
Ġafter wards
ĠA C
ri ers
be at
ĠR and
ild ing
ĠHam as
ĠMer cedes
Ġf ame
Ġcou rage
ĠR et
Ġd im
ĠH ope
Ġabs ence
ĠT H
ĠI TV
Ġpopular ity
Ġspect acular
h at
Ġequ ivalent
ĠCab inet
Ġhuman itarian
gra ph
ĠWel sh
Ġob st
Ġind ict
Ġboss es
ĠB ash
Ġse lection
Ġatt itude
Ġd istr
ĠK urd
Ġass ass
Ġfrequ ently
Ġencoun ter
Ġretire ment
Ġmain ly
ĠF orm
ĠK ey
eng ing
ĠMand ela
p es
ab ove
eral d
Ġpain t
Ġport ray
Ġmigr ants
Ġ199 5
ĠR ice
u able
ear ly
Ġtravel ed
Ġpull ing
tlet ico
in ter
o ons
Ġless ons
Ġrestr ictions
ĠSaf ety
ĠK ay
Ġco ord
Ġloc als
Ġt ired
ĠP C
Ġdiscuss ion
Ġto x
ĠC ivil
Ġp ages
um ph
ab ilities
ĠCon st
h ill
ĠR achel
Ġshe d
Ġdis ag
Ġel im
ĠGr ant
oin ting
Ġemot ion
Ġch ap
ĠB art
A C
ĠMicro soft
ĠCharl otte
ĠClar ke
B e
le e
N e
Ġre ference
ull ah
Ġant icip
Ġtw ins
ĠBer lin
ĠK night
Ġdet ention
ut ers
Ġgar age
Ġ upper
Ġd ial
ĠJu an
ĠMor ning
Ġegg s
Ġtele phone
Ġtyp ical
ĠDet roit
Ġadd ressed
Ġbre ach
ĠMalays ia
ĠC rystal
ĠExper ts
4 1
reg on
Ġm ere
Ġbreak fast
Ġsmart phone
ĠE st
Ġst y
Ġr ounds
Ġsh ame
Ġfeel ings
gu ard
ĠScient ists
l ar
ic ing
Ġpro hib
Ġ6 2
Ġhor ror
ĠRes earchers
Ġread s
Ġ6 6
Ġcer t
ĠPent agon
Ġimp rison
Ġwelcom ed
3 1
ĠR af
ĠD or
omet imes
ĠDown ing
ig ger
Ġlik ed
Ġb ones
Ġto ler
Ġmin i
c ott
Ġc e
Ġto dd
Ġnerv ous
Ġwebs ites
ĠW here
Ġcomb ination
u er
Ġcon ced
Ġreb u
ĠPol and
l ist
Ġrare ly
Ġmanag ing
Ġresign ed
er m
or ld
act or
ĠY es
ic ian
Ġpersonal ity
Ġcl oud
Ġpil ots
z y
Ġhigh light
g reg
le vel
ĠE th
Ġno ise
rast ructure
ĠMid lands
Ġsafe ly
Ġst amp
ĠP op
Ġscient ific
Ġsuper market
Ġreal ized
or age
rou s
Ġdef ensive
Ġwarning s
at i
Ġfor cing
Ġtra ins
ĠBa iley
ĠA round
Ġ2 50
Ġhost s
uc ks
Ġind eed
Ġpain ful
ĠFore st
Ġadv iser
Ġcor oner
Ġshe ll
Ġdress ing
ĠS ov
ĠA gu
ac cept
ĠE astern
ĠSt at
Ġg ri
Ġsom ewhere
Ġtaxpay ers
Ġrid ic
Ġpro be
sec ond
amed ics
ĠTra vel
iqu es
Ġexhib ition
Ġ5 9
Ġphys ically
ĠD omin
Ġhol idays
Ġsm ashed
Ġfr act
Ġinapp ropriate
Ġst ole
Ġsp ray
Ġbene ath
ĠV is
Ġcommun ication
l ooking
ĠDet ective
Ġc ub
J ust
Ġre ass
Ġgr ateful
r ors
ĠN ight
Ġfl own
Ġpoll s
" .
ĠNotting ham
ĠO regon
ĠT em
b ag
ĠJ ong
et ch
ol ar
Ġmilit ant
Ġdiv ision
Ġhun ting
Ġdire cted
v iously
Ġmiss ile
iss ippi
Ġstret ch
enc er
Ġd ust
Ġanaly st
Ġnick n
Ġste aling
ĠSur rey
ab s
Ġneighb ors
Ġm ood
Ġbott les
Ġfood s
Ġod ds
v y
ĠKe ith
f ound
Ġview ed
ĠA tletico
Ġsp ac
Ġtarget ing
Ġlove ly
ĠWin ter
o ir
Ġearthqu ake
Ġtrans p
Ġemploy ment
b its
ĠV in
Ġe c
ĠB iden
ru cted
ĠLaw rence
he ld
ĠTh anks
gg ing
3 4
Ġad j
ĠHawai i
Ġpe ak
Ġbl aze
ĠIslam ist
Ġesc al
Ġal arm
ĠEm ily
I l
w ife
an ne
ip al
less ly
Ġstro ke
Ġcomp ound
Ġcontrol s
ens on
d oor
Ġentertain ment
s er
Ġc iting
Ġdelay ed
Ġrec ruit
ĠE ve
Ġse vent
Ġoper ate
ĠDev on
ĠC her
Ġentr ance
Ġsal ary
R E
Ġback ing
IN G
ĠGold en
Ġsust ain
f ortunately
Ġsil ence
Ġminor ity
id ency
av en
nes ota
ĠLouis iana
ĠH as
Ġsurv ival
or able
ĠV ol
Ġsm ell
Ġcare fully
Ġpick ing
Ġc ats
ĠD onald
ns ic
Ġtw in
ĠTen ness
o en
ĠN ov
ĠW olf
Ġcl ip
Ġrecomm ended
Ġinst ance
Ġsa il
Ġne ur
Ġqu oted
ĠB ah
est one
ier ra
Ġ6 8
m ans
es ity
Ġtort ure
Ġf ing
Ġwild life
win ning
Ġconsult ant
Ġth roat
Ġperforman ces
b al
ĠSwed en
Ġex it
Ġfl ash
Ġfort une
Ġn ights
ab e
p age
Ġtr igg
Ġhel l
Ġ6 00
Ġconcer t
Ġdeploy ed
m und
we alth
Ġbusiness man
Ġapp ointment
Ġpos ing
s k
Ġappro ximately
Ġbase ball
ĠDou gl
Ġdest ination
p re
Ġ7 2
ĠMiss issippi
or er
Ġd ates
Ġunemploy ment
Ġbit ter
Ġpark ed
ĠK ansas
roll ed
Ġdist ress
Ġfit ted
Ġgrad uate
m ile
ĠM ack
Ġse ed
Ġreal ise
Ġob lig
ĠPro v
Ġlo ving
ĠSer ge
exp ected
Ġadv anced
Ġperfect ly
abet es
um ents
Ġinvest ors
Ġp hen
Ġw et
Ġr oles
ĠLat in
Ġd ancing
ast y
ah l
if ted
Ġmid field
Ġin mates
Ġbrand ed
be y
Ġreg ions
Ġdon ations
Ġfr ame
Ġmanag ers
Ġcross ed
ĠQat ar
ĠA ld
ĠSomal ia
ĠS ony
Ġkn ock
Ġte ach
ĠMur phy
ĠD id
ĠM as
ab is
ol ved
Ġ6 3
Ġunc le
Ġmist akes
ĠTs ar
Ġre ven
ett a
id al
or se
ĠT ok
Ġlic ense
ĠIndones ia
ĠK rist
ĠC air
cri ption
Ġsurviv ors
ĠD iv
Ġdes erve
undred s
ĠV en
Ġun w
ig a
ere z
ĠD y
Ġto ols
Ġpract ices
r as
e lection
it ure
ĠF reed
ĠCap tain
ĠBarcl ays
Ġde emed
or ia
Ġbe ars
up id
up s
ĠP istor
it is
Ġfind s
Ġencoura ging
ian ts
ident s
Ġdiscrim ination
ĠMin nesota
ĠKing dom
Ġen emy
Ġro cks
Ġprob ation
Ġcamp s
Ġchall enging
ĠOl iver
Ġrecover ing
Ġdepart ure
op ing
Ġint im
Ġunf air
r d
Ġinf rastructure
Ġt ech
Ġpock et
or ation
ĠAust in
Ġse qu
th al
Ġt ensions
ach t
ĠH on
Ġcritic ized
Ġconsum er
ĠBuck ingham
k m
Ġfr ight
Ġ7 7
Ġcongress ional
Ġtreat ing
Ġel ite
Ġtwe ets
ĠPistor ius
Ġt iss
Ġto ol
ĠThat cher
Ġoverwhel ming
ĠT ed
ĠNet her
r ical
ĠSav ile
T S
ing ing
Ġcous in
ĠA venue
ĠM ull
ĠY our
Ġfootball er
Ġquestion ing
Ġcy cl
Ġdec line
Ġres idence
Ġstud ied
ig ious
ind er
ĠAl aska
Ġc ore
el ing
Ġinter vention
accept able
ĠF est
ĠH ad
Ġbreak s
Ġkidn apping
Ġsett led
Ġd iamond
ond uct
Ġing red
Ġs ed
Ġgu ess
Ġdesign s
ĠN ob
Ġass ets
Ġmention ed
iss a
ĠAr k
t op
am o
rep rene
ĠR y
rug uay
le c
ĠTreas ury
ĠSp urs
Ġexcell ent
ĠF e
ĠBar ry
ĠCh ild
ĠSil ver
ĠT un
ĠTenness ee
ĠL ion
Ġilleg ally
Ġengine er
ĠL ater
Ġjack et
um s
ect ors
port ion
ĠCl ass
ĠSt ock
ĠV lad
Ġal t
Ġmod er
enez uel
Ġcar ries
ĠS ierra
Ġpay ment
Ġ id
at ched
ĠH aving
Ġto ug
Ġun certain
ri ve
Ġprom inent
im s
ĠColomb ia
B l
Ġtreat ments
x ual
ĠE t
ĠPl an
adh afi
ĠB aghdad
Ġlow est
ĠC ele
Ġ0 3
ok o
h igh
ĠB at
ĠW y
ĠR en
le ton
st ep
ĠJ esus
ĠAl b
Ġkil ome
ĠC rit
j o
Ġg ent
Ġ199 2
Ġexpl an
Ġsh adow
Ġf urn
Ġphotogra phed
Ġgu idelines
th at
ĠF ro
Ġinvol ves
Ġincre ases
u an
ĠF ather
il it
ĠBrit ons
Ġord inary
ĠU ruguay
Ġlic ence
Ġcl ashes
Ġfl ow
Ġfound ation
ob i
Ġsing ing
Ġbook ed
Ġcoll ision
het t
Ġprotect ing
Ġemph as
Ġfin ed
Ġi Rep
yl um
Ġche er
Ġpub lish
ĠHol mes
Ġexper iment
Ġse asons
ar th
st an
ace y
Ġleg acy
Ġyoung sters
ol is
Ġsa ving
form ation
Ġ199 3
Ġhost ed
Ġb uck
Ġstun ned
h ost
ĠJ un
Ġele ment
ĠAh med
u its
Ġp ending
Ġpolitic ian
Ġab ortion
ĠDe an
h um
g ate
Ġh o
Ġelect ronic
Ġup coming
Ġsepar ated
Ġany more
m m
Ġappe als
Ġpurs ue
el d
he w
ĠV enezuel
ĠSh ort
it ched
ĠB ox
Ġexecut ed
Ġrep air
Ġdream s
Ġemb assy
ĠSp encer
on i
Ġtranspl ant
ĠNether lands
is an
Ġsy n
ag ne
Ġarr ang
ĠV ice
ĠLib yan
Ġen h
ĠS C
ĠSim p
st ream
ĠH al
Ġresp ective
ĠNig el
Ġcor respond
Ġmean while
Ġso il
ok en
ĠKn ox
ap ing
ĠSov iet
ĠAss ad
Ġremember ed
or g
ĠSom ers
ĠIn f
Ġunc ons
ĠLou ise
Ġpurch ased
l b
hn er
ĠD iana
Ġsent ences
ĠQ C
Ġp upp
ĠN BA
Ġcourt room
Ġcoll abor
Ġoppon ent
5 6
Ġag grav
7 00
over nment
ĠMag istrates
Ġdescrib ing
ĠRom a
Ġg ear
ak h
Ġcol umn
ĠFeder er
Ġpl ate
Ġsub urb
Ġpropos als
aw a
ĠMem orial
Ġtatto o
ĠC ase
cl ub
Ġign ored
ve land
Ġpain ted
Wh y
cri pt
re nd
aw s
Ġdet ain
Ġmaintain ed
ĠDougl as
I T
Ġc ow
Ġse lected
ap ore
ĠMc Il
Ġadmit ting
ĠMoy es
ĠMet ropolitan
Ġw rapped
Ġmusc le
ĠOb am
Ġdon ated
Ġlif etime
ion e
ĠP owell
Ġ8 00
ĠS U
Ġbatt ling
ĠSus sex
Ġle aked
Ġafter math
Ġext end
Ġkid ney
ĠAff airs
ĠS ad
ĠRe bec
Ġopt im
ĠNet work
ĠH az
Ġoff enders
Ġimp osed
Ġvig il
Ġun expected
ĠUk ip
ĠBow l
ac on
ĠN azi
na ev
Ġm el
ĠTele graph
Ġcha os
Ġresul ting
Ġthem e
Ġm ad
Ġparticip ants
Ġre venue
Ġf ed
ĠS ut
ĠS in
Ġs oph
ĠAnd roid
ĠAnton io
am ous
ĠC row
for ce
ig hed
im ir
Ġreturn s
Ġpro of
uck er
Ġele ments
Ġliter ally
Ġenthus i
ĠRebec ca
Ġtr igger
Ġrequest ed
ĠDar ren
ul ating
Ġyoung ster
l aughter
or ge
our ing
ĠAd d
bed room
ĠTsar naev
m are
Ġexp osure
Ġdis char
Ġcons cious
Ġgl ad
Ġhear ts
as ks
Ġwant ing
Ġbel t
ĠLuc y
Ġnation wide
Ġsh ore
Ġsevent h
ĠB aker
ĠSimp son
b i
Ġst ressed
Ġcampaign s
Ġdemonstr ators
o ch
Ġimp ression
ix on
ĠBrad ley
ĠU l
Ġg rey
Ġpray ers
Ġe lev
w alk
Ġharass ment
Ġre ar
ĠA wards
be an
Ġag enda
Ġanonym ous
Ġ7 8
res ent
p at
es ome
ond e
Ġmach ines
ĠDen ver
let t
Ġca ution
Ġl ake
ĠCle veland
Ġdrag ged
s en
it ting
Ġsh r
od ge
ag a
Ġtri umph
ĠTok yo
Ġdis g
Ġfier ce
uss els
ĠBo eing
qu ir
Ġdes k
ĠRe f
ĠBo e
Ġleg ally
Ġhy p
Ġrefuge es
1 50
Ġpr ide
Ġeng agement
Ġdest ruction
ĠBurn ley
Ġth orough
Ġcorpor ate
ĠK yle
ĠPark er
ĠV iew
rah im
th ur
ĠCommon wealth
ĠT echn
Ġven ue
m un
t im
w ill
Ġdis gr
c omm
Ġv s
R C
est ed
rain ing
ĠOp inion
Ġconc rete
Ġmurd ers
ĠM ade
ced ented
igg s
Ġlo ose
Ġdiagn osis
Ġpr ol
ĠHear t
ĠMcIl roy
ĠMan uel
ar io
Ġr ush
ĠHolland e
ang es
Ġan k
ĠBer g
ĠJul ie
Ġ8 5
Ġto y
Ġdi abetes
Ġextr ad
Ġpron ounced
ĠS ab
Ġf ires
il i
Ġgather ing
Ġair ports
Ġreal ize
ĠSing apore
Ġf ence
ops y
Ġri ot
Ġz ero
O h
atic an
Ġpers p
Ġw ider
uc r
Ġdist inct
Ġfall s
ul es
Ġe ase
Ġtrad ing
on ing
ĠA ud
Ġr ic
Ġvol can
h all
ou ted
Ġisol ated
f ace
Ġrel ie
l i
Ġtrans ition
Ġgen etic
ĠTes co
o a
Ġc rop
ĠE lect
ĠCor por
ĠD ick
Ġl ibr
Ġsec ured
Ġbox es
emb ly
oc a
Ġcr own
Ġco at
ĠF le
5 9
ĠV ideo
Ġinst all
Ġser v
ĠViet nam
st orm
av ig
Ġsched ule
Ġdes ert
ĠKent ucky
Ġbel oved
al i
Ġm o
Ġbre ad
Ġph il
Ġhand ful
Ġ6 9
Ġlet ting
in ts
Ġsm iles
ĠEmer gency
ĠT ories
I I
Ġscr ut
Ġc ycle
ĠH annah
ey mar
w ear
Ġshop pers
ĠB enn
Ġdeal t
ĠIndian a
Ġfro zen
ĠNe ighb
Ġbo ats
How ever
ĠTurn er
ĠV atican
ĠLau ren
Ġprof it
ĠP elle
Ġover come
ons in
Ġcann abis
y gen
Ġvac ation
Ġsubst ance
Ġpass port
Ġsurge on
Ġobs er
n ity
Ġas ylum
Ġunder ground
Ġpled ged
Ġkilome ters
Ġst im
b ian
Ġbl ocks
ob ile
Ġcare ful
ĠKurd ish
Ġs oul
ters hire
ĠIs lands
Ġstri p
Ġprof its
Ġreve aling
ĠIv an
Ġuncons cious
Ġover s
ĠCr im
isc onsin
Ġs acked
ar ted
iven ess
Ġfin ishing
ĠBrend an
ĠEur o
u z
om ed
Ġsm iling
Ġsav ings
0 8
and om
ĠN ancy
Ġmans laughter
ĠNas a
Ġsoc cer
ĠPro ject
Ġqu e
W ashington
Ġdiffer ences
e ff
Ġemploy ed
ug s
ĠB ent
ans on
c ot
ĠG adhafi
Ġcl ock
ĠCar ib
Ġfel ony
ĠR ight
b ul
Ġassess ment
Ġdis h
Ġunder go
ĠBr ady
gr ade
Ġdefend ants
Ġfort un
Ġcab in
emble y
a ver
ĠT ower
Ġtodd ler
Ġhope ful
Ġcal ories
Ġvir al
Ġnot orious
ob b
Ġorgan ised
Ġto ys
Ġclass room
5 7
ĠEn vironment
an ing
ĠC irc
ĠCh an
Ġinstit utions
Ġpr int
Ġble eding
u zz
in th
Ġrepl acement
Ġlandsc ape
Ġent reprene
iz za
Ġb orrow
ĠStaff ord
ri ving
ĠW ars
Ġre ign
Ġunderw ent
ĠSports mail
ĠEm irates
s pe
Ġaff ects
Ġf ate
Ġdel ays
Ġham mer
ĠW embley
ott i
Ġpass es
Ġconvers ations
ĠC atherine
ĠGreat er
ĠAl bert
5 8
sh irt
Ġh ip
is ons
ash ire
an tha
Ġrec k
ĠR AF
Ġcl er
ĠBrook s
Ġaim s
Ġfield s
Ġg ifts
Ġsign al
ard y
ĠB M
Ġcre ation
h appy
ĠD ale
Ġarri ves
Ġ6 1
Ġis lands
our ce
Ġev al
au x
m ind
Ġ urban
ĠKir k
Ġsib lings
Ġlim its
Ġcho ices
Ġmethod s
Ġp ip
Ġgener ations
Ġunder t
Ġide al
Ġp ure
l ie
ĠN eymar
Ġob esity
un ning
Ġbo asts
ĠDe velop
Ġrapid ly
E ven
Ġconf essed
ĠBoe hner
ig ible
Ġfin ance
Ġbul lying
ĠCap ital
Ġastron aut
ak i
Ġdis e
Ġarg uing
Ġliqu id
Ġproduc ing
Ġassoci ation
Ġurg ing
un al
Ġdifficult ies
Ġs que
Ġconclus ion
ĠT ri
st airs
Ġcl iff
Ġco vers
Ġconv ictions
aim ed
Ġdiscuss ions
Ġtraff icking
Ġimpro ving
D o
l iest
ill o
Ġal ter
Ġglob e
ĠB ou
ĠW isconsin
S p
r ad
Ġhero in
Ġanaly sts
Ã ¢
Ġ19 50
Ġrepresent atives
Ġt ips
ĠSoph ie
Ġr ot
Ġseem ingly
Ġscreen ing
ĠA k
Ġinv asion
Ġmid night
Ġwood en
ĠAss ist
ĠSupp ort
end ment
Ġdef icit
Ġath lete
am ental
Ġres erved
in f
Ġeng age
Ġd iver
ĠM itt
ĠG M
Ġdress es
Ġh ook
Ġex ha
Ġtrigg ered
d am
ĠCl aire
ĠStud ent
le ans
Ġrec all
ĠBr id
ogra ph
ĠEnter tain
ĠMon aco
Ġboot s
ah u
Ġsw ept
Ġblood y
Ġval uable
Ġsn ap
ĠL amp
Ġcateg ory
Ġcompet ing
ĠLanc ashire
im m
ul pt
b ound
Ġ rib
Ġh acking
ĠD og
iv an
Ġwh ilst
Ġtable t
S W
ight ing
Ġhost age
Ġl obby
Ġde leg
Ġor ange
ogra phic
ĠH ond
ĠEx pl
Ġdam ages
Ġbacter ia
ĠFest ival
Ġwe ighed
ĠBr ussels
Ġintim id
ĠO wen
ab ul
ĠOl iv
ĠCast le
Ġran ks
en z
Ġl asted
av i
Ġmove ments
Ġfor th
A ny
ĠCarib bean
ok ovic
add y
ĠN athan
ĠL ut
Ġ199 1
ĠAngel a
Ġc ake
f its
j an
Ġsh all
ĠShe l
Ġfore st
ĠEmb assy
Ġinter ior
gr at
ĠB ark
ĠF OR
Ġf o
Ġexplos ive
ĠB ureau
ĠNev ada
Ġhope fully
Ġ198 9
Ġrec ip
oc key
Ġconfron ted
ĠH undreds
Ġtre as
ĠT an
5 2
Ġrom antic
ac co
th rough
Ġhard ly
Ġevery day
Ġche ese
Ġult imate
Ġp ound
ĠM aur
Ġmus ical
Ġhol es
pro fit
ĠQueens land
Ġcon ven
ĠCh air
ĠDj okovic
ĠD ream
Ġconsist ent
ĠVlad imir
Ġt rem
qu es
ĠW ol
Ġprinc ipal
Ġox ygen
v ard
ĠM aj
ĠBr ighton
Ġint ens
Ġrecogn ition
Ġpl un
ĠY an
Ġref using
ut en
Ġtox ic
ĠW itness
Ġairl ines
ie ber
Ġwheel chair
Ġfrustr ated
ĠBr is
Ġprom ising
Ġsal t
Ġjud gment
Ġexp enses
Ġlist ening
Ġw age
Ġsam ples
Ġcar ing
ĠSc ience
ant e
ope z
M ar
Ġm amm
pl ess
ĠNe xt
Ġc ease
ĠG ay
Ġinter ven
Ġ12 0
on ia
Ġslam med
ĠCont rol
Ġbr ands
Ġwar n
ĠMed ia
Ġind ec
Ġstop s
ĠC u
Ġkidn apped
Ġtact ics
Ġo dd
ĠC a
ir m
ri ages
Ġstop ping
ling ton
ĠLam bert
Ġout standing
ĠPh oen
ĠBen j
Ġtechn ique
ĠOr leans
ĠPers ie
ĠForm ula
Ġb ite
ĠTra gic
ĠResc ue
Ġs essions
Ġvolunte er
Ġs ne
ĠR oc
ĠSomers et
C H
Ġtour ism
Ġiniti ative
Ġst ake
ĠLe ader
ĠBr on
ird s
ain ts
Ġful f
ĠCarl os
ĠFerr ari
Ġinc or
Ġdown town
ins ula
ub b
Ġas ks
Ġnight club
ĠS ent
ĠY ard
Ġcol ours
Ġcurren cy
os a
Ġtri als
ĠE conom
Ġwat ches
ĠCarol ine
Ġn ort
Ġw inger
ĠY e
Ġprev ented
Ġsusp ension
ĠAn field
Ġbrief ly
k el
ar o
Ġchallen ged
Ġtraum a
ay ed
G B
Ġover d
Ġadd iction
Ġind icate
Ġlaunch ing
Ġstorm s
Ġfeed ing
ac are
ĠNic ole
Ġact ors
ĠC DC
Ġb ol
com fort
Ġnecess arily
Ġweek ly
al o
Ġg room
Ġill ustr
ĠT ro
od ay
ist ent
Ġapolog ised
ĠJ oy
Ġprot ective
it i
Ġz oo
5 3
ĠK ath
Ġc ooking
g iving
ĠLiber al
l bs
ĠC ape
Ġexplan ation
Ġmet eor
ĠSam antha
Ġgent le
ro v
Ġcompl icated
Ġdemonstr ations
Ġroll ed
ĠPhilipp ines
Ġprom ises
ring ton
Ġtow er
m aking
Ġansw ered
Ġshout ing
Ġw oke
Ġair stri
Ġexecut ives
Ġanx iety
Ġhor rible
Ġas leep
Ġtroub led
Ġdesc ri
ĠSer gio
Ġexam ined
op ping
Ġcon grat
ĠB ale
Ġme ters
Ġspot s
ĠB ed
Ġunc overed
Ġdise ases
Ġmass acre
Ġapplic ations
ĠGr ay
Ġint r
Ġrun way
ĠPhoen ix
Ġfur ious
ĠPer haps
Ġg otten
ident ified
g overnment
ĠCele br
Ġm ud
ĠInd eed
Ġunp re
ag en
Ġj oked
Ġl over
ĠPr ice
Ġresign ation
Ġc able
Ġlength y
Ġaw ful
Ġlab our
s elling
y ang
Ġshoot ings
Ġlaugh ing
F rom
ov al
Ġdro pping
agger ing
Ġstar ring
ĠL opez
Ġbas ically
Ġsevere ly
Ġst orage
ĠStev ens
ĠIn s
ĠNor way
Ġconstit utional
Ġextrem ists
ĠL ank
ĠG ates
Ġp aed
ĠP ier
Ġjump ing
it ated
Ġaggrav ated
Ġengine ering
5 4
Ġsome how
Ġint ensive
sc reen
ĠEntertain ment
Ġunpre cedented
Ġf er
ine e
Ġdam aging
ĠGover nor
Ġd uties
ĠFor ces
Ġc am
Ġfarm ers
amb ling
un ction
ĠM ick
Ġsit uations
ĠHait i
ĠS el
Ġf oul
ĠBol ton
ĠHold er
ĠS uch
ou ces
ĠCon f
ĠFreed om
Ġa ston
Ġexplos ives
Ġdesper ately
Ġburn s
Ġdec e
Ġprison er
Ġdramatic ally
ĠFar age
ĠEn ergy
it ted
Ġr andom
ver e
Ġres ear
Ġtiss ue
ĠC ancer
sh ine
eme tery
Ġgr ant
ĠBob by
Ġtaxpay er
Ġw ishes
Ġcelebr ations
th ree
ĠCru z
Ġstr ang
Ġoper ated
ĠO ak
Ġtechn iques
ĠProt ection
ĠVin cent
Ġcont am
Ġter rified
Ġexpl oded
Ġun t
Ġaccident ally
Ġhistor ical
ĠColumb ia
Ġg ard
ĠD al
ĠO bs
ĠP ict
Ġsy ndrome
Ġfix ed
Ġfing ers
k inson
Ġpar ade
id i
Ġdisplay ed
Ġevac uated
b ow
h as
et a
) :
ĠLeban on
Ġad apt
D on
ĠG onz
n esty
Ġst upid
ĠI l
ĠInsp ector
Ġd umped
ĠE c
og a
Ġorgan ized
lim inary
m od
Ġfac ial
ult ural
Ġpan ic
ĠLab or
Y es
Ġl ip
Ġglass es
Ġtal ented
Ġc in
are th
Ġrelax ed
Ġerup ted
cept ion
Ġmount ains
ĠTh ousands
R S
j ud
Ġpriv ile
ĠProsecut or
Ġpoin ting
c ill
ĠMem bers
Ġfab ric
Ġunder c
ĠW als
Ġpre st
Ġbr ide
Ġexpect ations
Ġl iver
The n
Ġopen ly
Ġwh istle
id d
ash a
Ġhigh way
Ġche ek
ĠS ri
ib ilities
Ġshow er
Ġmed als
Ġpar ole
Ġdu o
Ġinf ant
ĠG i
Ġcomed ian
ĠSt ur
enc ia
Ġpar amedics
ows ki
er g
ĠS ot
ec raft
Ġun acceptable
rop ical
ĠWeb b
ĠSe ven
ĠGuard ian
Ġstat istics
ĠC ass
Ġequ ally
ate ur
our se
0 5
ĠL an
ĠHit ler
f ect
Ġrif le
ist ory
b eck
Ġreason able
ĠBenj amin
ĠH appy
ĠSh i
Ġinst alled
ĠGl ouces
Ġin her
Ġfore cast
Ġsp y
ĠComp any
Ġpersp ective
ĠC hen
Ġcol on
Ġrepe at
ĠC ust
az ed
Ġsen ator
Ġw rest
Ġpublic ation
ĠGr ace
ogra pher
Ġbomb ings
Ġl apt
ĠPal in
Ġrecogn ize
Ġclin ical
Ġapprec iate
ĠIb rahim
0 9
Ġbut ton
Ġpercent age
Ġclos est
Ġprompt ing
Ġm ph
Ġg own
ĠB attle
Ġan ch
Ġkeep er
Ġtable ts
Ġf lex
Ġwatch dog
Ġlong est
Ġdeter ior
Ġball s
rit ion
ĠAh mad
Ġwh is
ĠR esp
Ġsc ulpt
ĠMiddle ton
am ford
Ġdom inated
Ġhighl ights
ĠCh amp
ĠFern ando
l us
Ġfore nsic
Ġle ather
Ġpost er
ĠCos by
ine a
Ġnight mare
P S
Ġsuff ers
ĠS at
Ġresol ve
Ġarg uments
Ġcar pet
ĠP ard
ĠD aw
ĠFer din
Ġrec ession
Ġd ign
ĠPri x
Ġclean ing
Ġg ate
land o
Ġkind s
Ġconn ect
ĠLl oyd
am bers
Ġcompar ison
Ġg od
ĠP o
0 1
z ed
Ġcanc elled
Ġg al
hel ess
is le
iz on
Ġspot light
ĠObam acare
c uff
ap h
ub ar
E n
Ġcy ber
ĠB ishop
ĠHeath row
n an
ĠIn n
Ġmar ch
Ġbuy ers
E FA
d es
ĠFerdin and
Ġe ighth
ĠPe ace
Ġpun ched
Ġguarant ee
Ġloss es
Ġviol ation
ĠN a
Ġb orders
Ġexper im
ĠGlob al
p iece
Ġacc using
Ġhar sh
ĠMoham ed
ad get
ĠF ield
Ġa ired
it ol
id ance
Ġsupp orts
ĠJ ill
y on
Ġf iance
Ġgover n
ĠF ul
Ġfair ly
Ġch ase
ur a
Ġindict ment
ĠHar vard
ĠH an
ĠPolit ical
0 7
atch ing
Ġp ets
Ġal erted
Ġrec re
Ġfamous ly
ĠK it
ĠC z
Ġpromot ing
ĠP ed
Ġm ail
ĠP erez
Ġatt rib
ĠBr un
act ions
ew ay
Ġconstit u
Ġg ru
Ġpro ven
Ġforg otten
Ġper pet
Ġtrain er
Ġst unt
Ġsl im
Ġrecogn ised
Ġste el
Ġliber al
Ġemer ging
Ġcontin ent
l ay
ĠP S
ĠTod d
Ġel abor
f ish
p ol
Ġexp ects
T oday
id av
Ġpenal ties
ĠAl f
ĠN SA
Ġclimb ing
Ġhom icide
Ġnatur ally
em or
Ġhighl ighted
R uss
e ter
ĠT rip
op a
Ġregard less
Ġcrack down
ĠF ashion
Ġrecogn ise
ont o
Ġt ons
Ġe ager
Ġdivor ced
ous es
Ġad s
y ou
ĠAbd ul
ĠLar ry
Ġ7 6
Ġburgl ary
Ġst aggering
ĠH ud
ĠP rest
ard ed
Ġdisapp ointing
Ġpres idency
R e
Ġrel uct
atur al
Ġdep th
do ch
Ġmotiv ated
Ġin ner
as p
Ġvacc ine
Ġsoph ist
A N
b ane
m art
F C
Ġaff idav
t ail
Ġbut ter
Ġrele vant
Ġapolog ise
g ement
ĠP it
Ġbatt les
t hen
ĠJul ian
ĠJew s
ĠCair o
ĠBl ake
Ġdom in
Ġdeliber ately
Ġche aper
Ġwid ow
ĠSU V
Ġw ages
H O
Ġfast est
it ar
Ġd yn
Ġsn apped
Ġsubsequ ently
Ġrob ot
Ġment ally
b us
Ġhe els
gh azi
Ġb oun
Ġvol unt
p ower
Ġst rain
ra ged
Ġnew born
rehens ive
ple te
Ġrad iation
ĠAlex and
O b
by e
Ġscient ist
Ġmisc onduct
ous and
ĠGal axy
ose xual
Ġph r
isc al
Ġ0 2
Ġflood ed
ĠSil va
if ting
Ġexam ination
Ġemploy ers
ĠVal ent
orm al
ĠSc ene
ĠK aren
ĠCamp aign
f und
it ement
ĠSen ior
d ro
Ġc raft
ement ia
ĠZ oo
Ġsub mitted
Ġmurder ing
ĠCrist iano
Ġl un
ĠH us
ĠA ge
m ir
ĠMc M
Ġfund ed
Ġdiv ided
Ġparticip ate
ĠVe ter
Ġexist ence
ĠFr ont
ĠHar rison
Ġexpl ore
ol an
Ġsh ake
row ing
c i
ĠTe h
Ġawa iting
Ġfe ver
0 6
Ġdemocr atic
ipp er
ĠSpe aker
en h
Ġre op
Ġste al
ĠQu est
Ġfund amental
oth y
Ġcar rier
hett ino
Ġd angers
Ġscre ens
ĠM all
ack er
Ġrel ation
Ġcoin c
s ized
Ġjun ior
Ġclos ure
Ġfrustr ation
d i
Ġh oney
ĠH op
Ġor bit
ĠSh an
ĠMur doch
Ġnewsp apers
Ġ7 1
Ġre ducing
Ġpres ents
oc ated
v on
Ġg ross
ann on
Ġrac ism
a o
Ġc ord
ĠOn line
Ġaut opsy
Ġjew ell
am ic
Ġsign ature
Ġest imate
Ġrecogn ized
ĠO z
Ġdead line
ĠAd rian
ĠIndepend ent
ĠC ou
ĠL ight
ĠNad al
Ġcons ent
ĠBen ghazi
ĠAr thur
p ret
id ges
Ġspir its
d les
Ġgrand children
ĠU EFA
ren a
Ġacc eler
Ġun identified
Ġattract ive
ĠB ase
Ġport rait
Ġl ists
Ġre ly
Ġdin ing
L S
ĠG ame
ĠAb ove
5 1
ĠOr lando
Ġspons ors
Ġm ol
ri ot
Ġform ally
Ġsol ve
ĠAb bey
ĠCommun ity
Ġphen omen
hed ral
Ġavo ided
ĠG areth
ĠSp r
Ġany way
Ġa x
Ġresp ected
Ġmiss iles
Ġend ors
Ġconsum ption
Ġnow here
Ġhand led
Ġexplain ing
ĠRoberts on
ew hat
Ġaut umn
ĠU r
ian g
Ġread ers
a ired
Ġ7 00
Ġgall ery
g ans
ĠBloom berg
Ġoper ator
ĠW as
ĠAlex is
Ġter rifying
Ġveget ables
Ġfr anch
ca o
Ġw ww
ĠT oy
Ġrest ore
Ġun rest
om ers
B ecause
ĠAr med
O T
Ġunderw ater
ore y
Ġc afe
Ġregard ed
ew ork
ĠSen ator
Ġrespond ing
ĠStep han
Every one
ad ers
ĠF oster
ens us
Ġel igible
heim er
comfort able
Ġa st
Ġse as
Ġgu idance
f eed
Ġmir ror
Ġthe ater
Ġst ability
ĠE ight
Ġsl ipped
r ank
Ġqual ified
Ġank le
ĠN ever
Ġph ase
enn a
Ġbank ing
Ġvirt ually
ubar ak
Ġg rief
ĠSun ni
ĠSt ra
Ġsubsequ ent
ĠOper ation
Ġsuff icient
ĠPer u
ĠN early
Ġpart ly
ĠPelle gr
M ost
Ġcal end
st ead
Ġgra phic
ĠI D
Ġmotor c
Ġrat ings
ĠJ av
res ident
ĠS aint
ĠK u
Ġp od
ĠBris bane
y es
ri en
ĠWe ather
Ġdet ective
Ġgold en
ĠB illy
ĠL amb
ĠF all
Ġunder going
ĠCur rent
Ġconver ted
Ġsuppor ter
b es
Ġpet rol
Ġcoast al
Ġin ev
ot ing
G A
ĠH erald
ĠMus ic
and y
Ġstrate g
Ġfurn iture
an or
Ġind ication
ĠC old
d aughter
ĠB und
Ġch ronic
Ġvess els
Ġco aches
Ġop ens
ast ro
Ġw ip
ĠAr n
Ġsub jected
Ġrad ar
ĠS ex
Ġbas ement
Ġroll ing
ĠAir ways
em ies
ĠN SW
ĠIn formation
Ġac res
il ia
Ġy ard
Ġmind s
ave z
Ġless on
E C
Ġqualif ying
Ġsub stitute
Ġdra ft
Ġport ion
ĠII I
Ġn avig
Ġattack er
Ġnetwork ing
ĠBelg ian
ĠC ow
ĠK y
H er
ĠP oll
ĠHun ter
ĠPard ew
ĠH ass
ĠL in
Ġlong time
Ġdep ort
Ġrank ed
Ġlegit imate
Ġprofession als
Ġper ce
ortun ate
ĠA N
Ġbut t
Ġexp ans
Ġmiss ions
Ġcont ext
Ġpre liminary
Ġemot ions
ĠLion el
ĠDe ad
Ġdon or
Ġbar r
ĠTor onto
Ġtrack ing
Ġacad emic
Ġris es
Ġur ge
Ġsear ches
rup ted
Ġmort gage
Ġsubstant ial
v o
Ġsh outed
ect ives
ĠCz ech
ĠC roat
th reat
ĠWith out
9 5
Ġmen u
Ġbul lets
Ġnom ination
h aul
ĠT M
Ġsm ooth
ĠSwed ish
ĠC ro
Ġf are
Ġbr on
Ġha iled
Ġdep end
Ġv it
Ġsu ed
old ed
Ġun ions
Ġmos que
ĠHis pan
ĠPellegr ini
ĠA st
ur st
Ġbe ef
Ġr ating
Ġser ves
Ġchem otherapy
g ain
v ity
Ġt one
ort mund
Ġcommun icate
ĠE T
Ġback l
Ġcontr acts
L et
r ated
ĠA ward
Ġfil es
Ġhal t
z h
ĠS ara
Ġep id
ĠLiber ia
Ġautomatic ally
z es
ĠC er
Ġev il
ĠMer kel
Ġhand cuff
Ġtri o
Ġaffidav it
ĠBrad ford
k g
bel iev
Ġt urb
Ġflag s
Ġarr anged
it ious
ut t
aff e
Ġbe aches
Ġsl ip
Ġextrem ist
ĠD rug
Ġje ans
Ġintro duce
ĠRos berg
ĠBern ard
if ford
ĠM H
ne ath
ues e
Ġfest ive
Ġm all
Ġclass ified
Ġrem oving
Ġelect rical
Ġorgan is
Ġwreck age
Ġl es
ĠD ortmund
ĠDel hi
Ġp ole
ĠK el
ĠCo hen
Ġart ific
Ġhost ages
s ay
we ather
ĠGab ri
h t
Ġd ementia
m oon
ĠD J
Ġed ition
Ġfree zing
Ġri pped
or ters
Ġl ap
ĠPalestin ians
Ġprec ise
g ood
ĠB ath
ict ing
ĠCh avez
ĠVal encia
ĠW ay
Ġgr ade
Ġpra ise
Ġexcept ion
do ing
Ġfire arms
ĠSing h
Ġdisturb ing
Ġrem em
igr ation
k ick
ĠM ors
Ġwa ist
sc ale
ĠAg ain
ĠLanc aster
Ġsurv iving
f a
o h
ĠF arm
Ġcl ar
ip er
ĠTh ames
Ġspac ecraft
ĠCap itol
ĠJ erry
umb led
Ġse iz
ump ing
Ġst ance
ĠV ar
ĠFal cao
Ġpolit ically
Ġdemonstr ation
ĠI mp
ĠG ro
Ġcent uries
Ġant ib
Ġinsist ing
ĠI V
Ġred uction
ĠM ason
ĠO pp
ĠRe agan
vent us
ĠCase y
ĠR ou
Ġav iation
Ġle ts
ĠMar ie
Ġchar ities
i ere
Ġl atter
Ġsu its
ik a
ĠPortug uese
ĠTeh ran
Ġh ik
oc ation
be ing
Ġtouch ing
Ġad just
Ġaccur ate
Ġ7 3
Ġcar go
ĠBor is
ĠM ubarak
ĠD ak
Ġle thal
Ġsatisf ied
I L
ĠN ine
ĠD ise
Ġfrequ ent
Ġcommon ly
Ġstab bing
Ġingred ients
ag le
ĠBash ar
I M
Ġsp an
ul ent
Ġtum our
Ġstri pped
Ġchemical s
ĠCount ry
Ġappe aled
bro ken
ĠTransport ation
ul ting
ĠE sp
ors et
int endent
ing u
ass ion
ĠMay be
ĠD ennis
ĠR ic
Ġj ets
Ġassaul ting
Ġ7 4
Ġinstruct ions
ra ught
reg as
Ġce iling
alk ing
ull ivan
Ġpsych ological
Ġrevel ations
ens ed
Ġvan ished
Ġfle et
out heast
Ġoff ender
Ġar ts
ĠTh rough
Ġsp are
ĠA ber
Ġl ined
ĠSt amford
resp ons
ĠArgent ine
Ġ +
Ġscrut iny
stit utes
Ġup loaded
Ġhead er
ĠBar n
Ġdifficult y
u ccess
Ġha z
ĠCo alition
Ġannoun cing
is p
year s
ic y
Ġpr ince
ĠL iga
Ġnurs ing
ĠRog ers
s l
Ġfle e
ĠLamp ard
G en
Ġpl ain
Ġconf used
ĠTh ai
ĠRober to
Ġtun nel
Ġb ust
ve t
ĠCor p
Ġdeliver ing
ol ks
ĠG ene
Ġa unt
op ed
6 5
ong yang
Ġsom ewhat
Ġembarrass ing
Ġvirt ual
S E
Ġe cho
Ġmar athon
Ġjewell ery
ĠJosh ua
Ġpattern s
Ġth ousand
Ġra w
Ġdep os
p arents
ĠG arden
Ġresident ial
ra e
Ġex ceed
Ġdr ones
ĠArs ene
Ġfl av
Ġair pl
Ġsw ift
Ġrub b
f ers
ĠH istory
Ġattack ers
Ġinf ections
Ġbi ological
Ġinter rog
Ġexp ression
ĠiRep ort
ĠFab regas
Ġ198 6
Ġgover ning
Ġengine ers
Ġl one
Ġchar ging
ĠRes idents
Ġor gans
Ġcou p
ĠPal mer
ĠCub an
Ġh ij
Ġpol ar
on so
ĠL ine
ĠT ake
Ġsp aces
Ġrem oval
ĠOrgan ization
Ġpro portion
Ġend ured
ĠPeters on
ĠHur ricane
ĠChair man
Ġdon ate
min ister
ĠAgu ero
Ġun aware
Ġa ide
Ġc ycling
ud es
ĠB es
Ġ198 8
ie ge
Ġcome back
Ġmembers hip
f olk
ĠP riv
se in
ĠK r
ĠK iev
Ġhuge ly
Ġlo ans
Ġpurp oses
z ai
Ġris en
Ġassoci ate
Ġstat ue
Ġstrugg les
Ġpublic ity
Ġimm une
ĠDevelop ment
h al
ap olis
ond er
Ġcomp on
Ġcreat ures
ĠLe one
Ġuse ful
ĠS uff
ra wn
Ġunn ecess
ĠH ind
Ġend ang
ĠChrist ine
Ġgreet ed
Ġ x
ĠB eth
Ġunder neath
rie ve
ĠF o
olog ies
mun ition
Ġfocus ing
OW N
Ġcons ecutive
ĠN ik
ĠBar nes
Ġp ants
Ġprevent ing
C on
t ion
ĠB ieber
M ay
Ġbed s
Ġunn amed
omm y
Ġweigh ing
Ġ198 2
l ain
Ġas h
ou ds
Ġman ip
Ġpres cription
Ġviol ations
Ġproduc ers
ĠPr ison
ĠWar ner
Ġspread ing
Ġprest igious
Ġg adget
ĠInter ior
Ġcasual ties
P r
ĠD iamond
il er
ĠCol in
ford shire
Ġcom a
Ġrel ating
Ġembr ace
ĠUn til
Ġph arm
ster oid
ent er
Ġspeed s
Ġretail ers
Ġlibr ary
Ġconced ed
Ġsuggest ion
ĠM oss
Ġmor al
Ġvo ices
Ġhelicop ters
c r
Ġdev oted
ĠPy ongyang
Ġse aled
Ġsophist icated
ĠDiv ision
l u
ar ia
ĠWith in
ID S
ĠHend erson
il itation
Ġtransform ed
f inals
ou b
kn app
Ġqualif y
Ġkick ing
Ġc ure
0 4
Ġcancel ed
0 2
Ġw ings
ep hew
Ġqu een
Ġviol ated
Ġdefe ated
Ġdis ability
ĠRed knapp
Ġcommission er
ĠA M
Ġunderw ear
Ġsw ing
Ġvill ages
he nd
ĠInvestig ation
i y
Ġh orm
ĠAl most
Ġconv ent
Ġupd ate
ĠK enn
Ġpar ks
Ġeng ines
Ġt ong
O f
Ġam munition
omet own
ĠOr ange
ress ing
sp ec
ĠE p
ĠNat al
ĠM aine
um m
Ġsle pt
Ġbill ions
ĠN orman
Ġbes ide
J o
Ġd ated
Ġshould ers
Ġtrib unal
ĠGriff ith
Ġshe et
Ġprosecut ing
ĠCor ps
usal em
ĠTun is
B ay
ĠPr im
w estern
ort on
Ġt ab
Ġtravel ers
ĠJu ventus
Ġridic ulous
Ġtru cks
ĠPri ze
ot al
Ġbl onde
Ġimprove ment
Ġowners hip
ĠFr ances
ĠB erry
ump s
Ġpun ch
ĠAbd ullah
ĠH ung
ĠGl ass
Ġra ises
Ġaccept able
r ising
ĠK as
ĠFeder ation
Ġprepar ation
ĠA th
ĠCh o
Ġra b
Ġdemonstr ate
ĠBenn ett
Ġwor rying
Ġneighb oring
Ġcontrib ution
Ġrespective ly
Ġpaed oph
ur red
ĠG as
ak a
Ġappe aling
asc us
ĠM ans
ab out
Ġf oss
Ġqu ant
ĠHom eland
ĠGu inea
ĠRichard son
ĠNich olas
r ac
ĠH ag
Ġo k
Ġm ate
Ġrun ner
ĠPol ish
Ġh ood
ĠT ai
ĠR est
Ġj okes
Ġve t
ĠMan agement
the re
lin ing
0 3
Ġy acht
Ġfil ing
ĠLuc as
omet hing
ĠDe ath
Ġpromot ion
Ġd iving
ĠNY PD
ĠLu k
ĠInt elligence
ab ad
anc ial
Ġdec iding
ĠAustral ians
c asters
ĠB udd
Ġdec ent
ĠChrist ians
B rit
Ġret ain
Ġunivers ities
Ġher itage
yl an
Ġdetermin ation
Ġcollect ing
Ġurg ent
M any
Ġover weight
Ġbox ing
Ġbillion aire
Ġdoll ar
Ġbatt led
Ġf ool
Ġmotor ists
Ġflo ating
Ġtermin al
Ġgest ure
Ġs ink
ĠSh ah
Ġdoub led
Ġbom ber
ĠZ h
Ġst ir
ĠL ock
Ġcheck ing
Ġperiod s
ĠAl z
Ġaut hen
Ġconduct ing
Ġcontrib ute
f our
ĠE xt
Ġfle eing
Ġelabor ate
Ġcalend ar
ĠC re
ĠG ot
Ġse al
Ġdes erves
ĠDam ascus
Ġparliament ary
Ġconv ince
ic ians
os c
Ġpres crib
ag u
Ġdem ol
Ġdispl ays
Ġun comfortable
Ġexpl icit
ĠP a
Ġc ared
ĠMil itary
Ġdescri ption
Ġt ipped
Ġtrack ed
ĠC hes
Ġrec alls
ĠAn imal
ĠB order
ric ted
Ġat e
ĠK ings
Ġcond ol
ĠEx ecutive
Ġf ights
Ġrequire ments
Ġinv ent
ĠRaf ael
m id
in ity
ĠRy der
Ġb ug
raw l
Ġreven ge
er ie
Ġb old
Ġsign als
ĠRe ed
Ġcountry side
ĠSam uel
Ġlegend ary
ten ance
Ġ198 4
Ġstruct ures
Ġh ometown
8 5
Ġd ock
ĠD OWN
h op
ĠPre vention
Ġac ademy
Ġarch ae
Ġha ul
Ġcop ies
ĠMount ain
Ġ Ġ
ĠComm and
Ġexc itement
ĠT iger
ĠI T
Ġfra g
any ahu
Ġcirc le
Ġdiscuss ing
st e
ĠTH E
in h
ĠA rena
m ont
er ation
Ġsh ield
Ġn ephew
ĠW ool
ast ing
Ġrest ored
Ġp ione
ĠN az
Ġab using
ĠAl ice
Ġvers ions
Ne ill
Ġf iscal
ing e
Ġbank rupt
ĠT ob
W ell
un a
Ġdec re
ĠB ear
E T
ĠF alk
Ġland mark
ĠP oc
Ġcent ers
Ġbo om
Ġclim bed
Ġapolog ized
amp a
b ast
w ord
us ky
Ġmon arch
Ġtravel lers
Ġprin ted
Ġle ak
ign ment
ĠNor folk
ĠIm m
ĠM asters
Ġdemonstr ated
Ġmere ly
ĠF ull
ĠAl ger
Ġrail way
Ġv om
Ġ9 5
Ġlo aded
ĠWals h
Ġball oon
ĠNet anyahu
ind ing
ĠLind a
tim ore
ĠB ever
umb ling
Ġcoach ing
Ġpup il
ĠHud son
Ġview ing
Ġunf ortunate
Ġswe at
ĠE qu
Ġconstit ution
Ġen v
Ġmusc les
ĠArk ansas
ard ash
ruct ive
Ġcommission ed
ĠJ obs
Ġattr action
Ġobs erved
h r
ol o
Ġ8 2
Ġic on
r ane
Ġpub l
Ġexc use
Ġhousehold s
RO LL
Ġporn ography
Ġn erve
Ġexam ine
Ġtempor arily
Ġb out
Ġp izza
tern al
Ġr anging
Ġcos met
Ġnot ing
Ġac id
Ġalleg ation
ĠK ob
Ġha bits
Ġsac rif
ĠAlz heimer
T wo
Ġspend s
Ġm art
Ġun con
ĠCar roll
ĠF at
Ġwar ming
ĠDur ham
U S
ĠL iam
ĠTr ade
ĠB P
ĠB ened
Ġenjoy s
Ġnom inated
Ġt ub
ĠBab y
terror ism
ĠStur ridge
Ġsc ri
Ġinf amous
ific ations
Ġcreat es
Ġhand gun
ad i
Ġwhe els
ok er
Ġadv is
Ġbelief s
ipp ers
ĠU g
ro se
ĠL iving
ĠR aj
ub ble
l ass
ang el
Ġcost ing
Ġwas h
Ġtw ist
Ġsepar at
Ġreun ited
Ġd ivers
Ġs ample
ĠH ans
Ġsp ill
Ġmot ive
Ġapproach ing
Ġsu ing
O r
Ġd irty
Ġrece ives
Ġself ie
ER E
Ġh ill
Ġd ies
ĠS ale
Ġle af
lud ed
uten ant
Ġt ap
Ġen able
Ġstar red
ĠHar per
Ġm ourn
ch ild
Ġsub jects
ĠAndre a
at ab
Ġref use
Ġsil ent
Ġaccommod ation
Ġin aug
ĠD ian
ĠMarsh all
on ies
em pt
ĠWeek ly
Ġf erry
Ġgang s
Ġbelong ing
ĠBrother hood
Ġunderc over
i ples
Ġl ion
ĠTy ler
p it
ĠK ardash
ia h
Ġm ath
oz y
ĠB anks
Ġrubb ish
y er
Ġeff icient
Ġconfident ial
Ġdiscipl inary
Ġhe ated
ĠCrit ics
ĠW i
ĠD C
ĠTor res
Ġa uth
ĠP R
ĠCo x
Ġmoder ate
ĠAssist ant
Ġphenomen on
ĠStan ley
m ons
Ġs in
ĠC amb
ĠB ald
Ġen cl
Ġrele g
Ġcampaign ers
Ġrev ol
ĠS T
ĠCh ad
ĠAr ctic
Ġsl aughter
Ġinst antly
Ġbur den
Ġfundra ising
Ġd olph
Ġphotogra phy
Ġdial ogue
ĠP ap
ie ves
Ġfat ally
ĠSC ROLL
ĠV ik
Ġop ted
Ġwear s
ĠTou re
M e
p o
u ers
Ġf olks
Ġe t
op es
Ġra ping
Ġcapt ion
Ġshoot er
Ġgener ous
Ġgener ated
ĠGh ana
ĠPot ter
lic ted
Ġhapp iness
Ġfriend ship
Ġresist ance
Ġexcess ive
Ġst ored
ĠR ail
Ġinvestig ator
E L
oll ah
Ġmanufactur ers
Ġsupport ive
Ġhuman ity
ĠJul ia
m al
Ġg iants
Ġschool girl
Ġdep ending
ĠBal timore
ĠNiger ian
Ġresear cher
Ġtorn ado
Ġachieve ment
Ġrefuge e
Ġtr ace
Ġsmart phones
ĠD V
Ġconsider ation
Ġun iverse
Ġdec k
is ive
ĠBe aut
Ġmod est
E W
Ġt anks
Ġspeed ing
ĠAct ion
Ġa steroid
Ġwas hed
ah a
Ġaer ial
Ġairstri kes
ĠH ook
pl ed
Ġaccident s
Ġtrem end
ĠI P
pr ise
ĠUs ing
Ġcigaret te
S c
r ary
Ġmar ine
um ing
Ġhel met
Ġfin es
Ġthr illed
ĠDise ase
Ġwh ale
ĠJ ama
am an
Ġdet ected
ĠPro gram
ĠKe ane
Ġcigaret tes
Ġfranch ise
Ġch amber
Ġret reat
ĠExp ress
Ġto oth
Ġdisp uted
ĠStephan ie
ĠFul ham
ĠShar on
s ic
Ġwar s
Ġbron ze
Ġp el
Ġun law
sh ips
Ġtim ing
a uthor
Ġbroad caster
ĠD orset
ĠF C
ĠL iz
Ġthan ked
Ġdon ors
Ġext ension
Ġdifferent ly
elt a
g ie
ot es
Ġcons ervation
Ġdesign ers
Ġcert ific
ur ation
ĠH ague
ĠSc ar
Ġl orry
Ġ197 9
Ġt ube
Ġobs c
el esc
in ted
Ġm ild
ur er
Ġpriv ately
Ġbur ial
Ġtransport ation
ĠWitness es
ĠB ot
Ġn arr
ĠEv ent
! âĢĻ
us c
ĠL ang
Ġtrans ported
Ġob ese
Ġcompet itions
ĠMan ning
Ġstr anded
ĠHar am
B O
ĠDen mark
P ol
Ġimp ose
ĠE ri
Ġcomp rehensive
Ġpre cious
Ġtest ify
Ġbar rier
ĠSal v
ow der
ellig ent
ri ent
ĠP as
ĠP ep
ag anda
Ġinst rum
Ġboard ing
um per
Ġcreat ure
Ġth igh
Ġre vers
ĠL enn
Ġpassion ate
Ġeur os
ĠB ian
ĠP ay
um er
Ġrum ours
Ġbr ace
Ġcirc uit
Ġspeak er
Ġtex ts
h or
s a
are st
Ġexp anded
Ġcho osing
Ġasp ects
Ġscen ario
ĠP rop
Ġab usive
Ġinfl ation
Ġem issions
ĠKar l
Ġp ills
ĠM om
Ġdel ight
Ġreview s
Ġear s
Ġbreat he
Ġess entially
Ġglam orous
Ġrele asing
duc ted
Ġaud io
Ġble w
Ġpainting s
Ġlav ish
Ġhung ry
ĠEur opa
Ġpray er
Ġs ou
ĠIn side
Ġren ov
s un
Ġc roc
ĠP ick
ud ge
Ġad minister
Ġbre asts
ĠLu x
he astern
al le
Ġchamp agne
ĠMel issa
ĠJeff rey
Ġindec ent
ĠS i
r ace
gh ai
Ġass umed
Ġvis a
Ġhost ing
m atch
Ġstr anger
Ġsol ic
Ġbedroom s
Ġg ren
ĠD ist
Ġun happy
ĠMc N
Ġbar rel
Ġre ject
Ġ9 9
ĠTh ank
raw ling
Ġcooper ation
Ġadvent ure
cill or
Ġf u
ĠS old
ĠRep resent
ĠH off
ĠCrim inal
lo e
m at
s he
Ġsa fer
Ġ0 1
i op
ĠM uch
d rop
o ft
Ġrecommend ations
E x
s or
se e
aw i
Ġm erc
ĠS ark
Ġfin als
Ġhealth care
ab we
ĠUn like
Ġm akers
ĠAust ria
Ġ8 8
ĠStafford shire
ĠJack ie
ĠN ash
ĠAl ong
s ers
Ġto pped
ĠJac ob
ain es
Ġp ile
imb abwe
ĠHug o
Ġc ops
Ġsh oe
Ġprov ision
om ic
Ġens uring
Ġdes erved
Ġpled ge
Ġphil os
ĠRich ards
Ġaston ishing
he alth
Ġre nd
ĠHar vey
Ġintegr ity
Ġper mit
Ġneg lig
l on
Ġopen er
r ice
Ġ *
ĠS aints
ĠSh ak
Ġbelong ed
ĠG at
found er
vere ign
Ġh ire
ÂłÂłÂłÂłÂłÂłÂłÂł ÂłÂłÂłÂłÂłÂłÂłÂł
ĠT ax
Ġjud icial
Ġsuper b
Ġlad ies
Ġsh y
Ġ7 9
Ġcondem n
ĠD ew
ĠJer usalem
z b
ĠV ick
we g
ĠCap t
ĠThanks giving
Ġwr ist
threat ening
Ġre verse
Ġinflu ential
Ġpal ace
ĠR un
Ġsc am
Ġgu itar
ĠEc u
Ġartific ial
Ġst airs
Ġg ig
ĠThe res
Ġapp oint
Ġtrail er
ĠC ant
Ġpl um
Ġun believ
ĠWh ich
Al though
a ab
or i
iv a
Ġfit ting
ĠHay es
Ġeleph ant
Ġle ct
Ġmonth ly
em ark
ant an
âĢ Ķ
Ġbe head
ĠMar athon
work ing
oz one
Ġpred ecess
Ġconfront ation
Ġexam ples
Ġchief s
Ġco al
Ġdri ves
Ġgun shot
Ġgard ens
r ina
ĠP am
ĠL en
Ġexperi encing
Ġut ter
Ġsure ly
olute ly
isher s
Ġgrand son
it ches
Ġlung s
Ġs od
ĠD ylan
G o
g one
ĠCl ose
cel and
ĠL ooking
if fer
ĠMar ines
Ġdon ation
bo at
ĠSpan i
rie ving
ĠL ook
Ġout door
ĠNob el
ĠT ib
Ġpri est
ĠZ imbabwe
ĠMan ager
c m
Ġmag ic
ĠHigh way
Ġcomplain ing
lec ts
Ġvis ual
Ġcomm emor
Ġinstit ution
arth y
Ġsc ary
Ġs id
ĠM ills
Ġout lets
ĠEvery one
ĠPrest on
Ġball ot
st age
Ġcost ume
Ġgun men
Ġequ ality
por ary
id y
ĠW rit
Ġuns uccess
Ġcomprom ise
E P
ĠEd die
Ġmain tenance
Ġconsider able
Ġin ch
c ut
Ġs ew
Ġgrand parents
ist a
Ġab ducted
Ġform ation
Ġconn ections
ĠY ah
Ġsw all
Ġinsp ector
Ġprem ium
ĠVenezuel a
ĠLank a
ĠC urt
Ġcomment ed
On ce
Ġaddress es
Ġsp o
erv atory
Ġcompl ications
Ġs add
ĠF DA
Ġexp ed
Ġmist aken
ĠCons ervatives
ĠB orn
Ġadopt ion
ĠRam sey
Ġb ic
ĠMor rison
) ;
Ġcart oon
Ġdistrib ution
ĠPer th
h ard
ĠB oko
ĠMay weather
Ġsens ation
Ġdischar ged
ĠT SA
ĠB uff
Ġprom oted
ĠGl enn
ĠFrank lin
Ġprem ature
ĠK i
Ġmeas ured
Ġtrou sers
ĠShan ghai
Ġr all
Ġstrate gic
Ġembarrass ed
Ġf isher
Ġst aged
Ġo v
Ġso vereign
Ġped est
Ġrecon st
p ack
Ġpract ical
Ġign ore
Ġremind er
Ġp ave
acher s
Ġto b
Ġl ane
ab outs
Ġro ots
Ġmanufact uring
Ġmyster ious
Ġpoll ution
Ġrout es
ĠSand usky
Ġadvoc ates
th rop
Ġbl own
d ahl
ale z
ĠMark et
Ġto urs
app er
Ġsw itched
Ġrelie ved
Â ¿
on ly
iol a
ĠSu z
c al
ab y
Ġprep ares
âĢĿ .
Ġunderst ands
an ed
Ġback s
ex pl
Ġgro cer
Ġdr un
ĠEd itor
Ġtit led
un ity
Ġsecret ly
O L
E G
Ġcommit ting
Ġunf ortunately
Ġsh aking
Ġpe er
Ġann oy
Ġgl ory
ĠTM Z
ĠI celand
ĠBened ict
Ġsc are
Ġhard est
Ġb ip
ĠE aster
Ġstorm ed
ĠFin ancial
friend ly
Ġweigh s
ĠR ud
Ġest r
Ġs iege
Ġprot ein
Ġpolic eman
m ith
op ard
Ġr ings
pl aced
h urst
ĠGard ner
p ot
ning s
Ġinsp ire
af ter
Ġdevelop ers
ĠJen kins
ĠCar ney
ri ots
. âĢĿ
ĠGu y
Ġarrang ements
ĠNor wich
Ġcitizens hip
ĠMot or
ĠUK IP
Ġlast ing
ĠAl onso
Ġdirect ors
Ġj aw
Ġprogram mes
ĠSum mer
f rom
st ock
Ġme ets
Ġgrad u
Ġal ly
ĠSo chi
Ġ198 7
ĠBlack pool
Ġvent ure
ĠB rew
ĠG rey
Ġ8 4
ĠIr on
Ġfix ture
Ġprinc iple
rane an
ĠRe yn
Ġh ub
Ġwas hing
Ġpun ished
em outh
Ġentreprene ur
ĠK ane
Ġtrust ed
Ġprefer red
Ġobser vers
at on
ĠR ush
Ġch ann
ĠDak ota
ĠEcu ador
f are
ĠMah m
ĠWel beck
Ġinnoc ence
ĠLe ft
de ep
am ine
ig e
ug ly
ĠSy stem
ĠH ob
Ġam ateur
Ġpass age
ĠPhill ip
ĠD ra
Ġcons ervatives
Ġtong ue
A d
ĠVictor ian
Ġnom inee
ĠWhe ther
f air
ĠMcC arthy
B r
ĠCl ay
Ġfem in
ĠR uth
ĠK atherine
Ġster e
Ġc ried
Ġth us
th ouse
ĠOs ama
ac les
ul us
Ġwe ird
Ġor ph
wh o
ro ck
ĠJ ar
ir i
sp oken
Ġblank et
ĠA j
her s
ĠSt ef
Ġstr angers
Ġmatch ing
Ġren ted
Ġpro s
Ġg ut
ott age
ĠCar r
Ġaut om
back s
st ed
ia o
Ġsun shine
g reat
en k
Ġmar riages
O U
Ġtob acco
Ġag ric
Ġcle ver
int age
s ur
ĠM es
ĠN ation
iz er
Ġteam mates
Ġad equ
ĠCon stitution
ĠRev olution
ĠF ans
ĠAd v
Ġdevelop ments
Ġaffect ing
Ġsn ake
ur ious
ĠWild life
Ġsub urban
Ġra ids
Ġcomple ting
Ġbreak through
ĠE mp
Ġequ ipped
ent ry
Ġcr ushed
Ġexp ense
Ġval ued
ĠNev ille
Ġm aps
anc hes
Ġunder way
gr and
Ġref lected
Ġanc est
ĠGirl s
ĠK al
ĠVill age
am as
ant ing
Ġconf usion
ĠTechn ology
Ġexpans ion
Ġf et
ri pp
ĠSe bast
ur o
ĠSh a
Ġmonit ored
Ġtheat re
ĠC oul
ĠPort land
Ġd atab
Ġsh orts
esc rib
P A
ĠM S
Ġep ic
v as
ĠT ampa
ĠRe uters
Ġcontr acted
imp se
ĠH ERE
Ġcom ic
ĠK ens
ĠEng ine
ĠNe ither
Ġsc rap
Ġju ven
Ġlapt op
Ġple ading
stan bul
n ia
Ġw and
ro e
Ġele g
ĠDet ectives
Ġauth ors
t urn
ĠI ce
Ġste pping
Ġdeep er
ĠAnt ar
it udes
am el
ĠH em
Ġ8 6
Ġprinc iples
ĠHus sein
c or
Ġ8 1
ĠAd eb
Ġtri ple
ades h
Ġeat en
Ġmer ch
ĠS ometimes
Ġrest ricted
Ġsol utions
ĠNic olas
Ġdepart ments
ĠR u
ĠR ivers
ĠV A
Ġtr ash
P ro
ĠD ame
Ġneg lect
Ġ ,
Ġg am
ĠE le
Ġne ut
Ġhand ing
ĠHer itage
Ġrehab ilitation
Ġestr anged
Ġint imate
Ġbelie ving
Ġcompet itors
Ġinsurg ents
c ony
Ġs orts
sh aw
Ġemb ark
Ġres ume
Ġisol ation
ĠAl v
Ġhospital ized
Ġvol ume
Ġeur o
j i
Ġinst ant
ĠP oint
Ġcl ouds
Ġpe ers
Ġl ips
ĠUn fortunately
ĠCole man
Ġp y
Ġev olution
Ġalle ges
Ġcampaign ing
ĠI RS
ĠCh allen
Ġreview ed
Ġbod ily
Ġlight ning
Ġ198 5
ĠW igan
ĠSam ar
Ġc ours
Ġcr ashing
Ġamb itious
Ġunnecess ary
Ġg ates
ĠD elta
ast e
Ġconv ention
ĠMalays ian
antan amo
ĠM ey
ĠW ang
Ġattend ance
Ġafford able
ĠL im
Ġass ured
Ġt ension
ĠN av
Ġhom osexual
Ġprosecut ed
ĠChap man
Ġorganis ations
on el
Ġal ien
Ġsh arks
ĠCh ange
Ġgl impse
ĠPat rol
ĠF inally
Ġdis rupt
ĠWall ace
Ġestablish ment
ĠTh or
Ġstreng then
Ġcondol ences
ĠR SP
ĠCon cer
Ġm aker
ĠP ie
ĠEll is
Ġimprison ment
ĠS ullivan
v ol
Ġ u
Ġc ave
ĠPl ace
Ġt ropical
Ġmy th
Ġemer ge
ĠRo om
ĠRos ie
ĠM atch
Ġen emies
uss ia
uck ed
Ġpleas ure
j ection
Ġpre y
ĠRob b
Ġdrun ken
um a
u is
Ġm ug
Ġlight ing
Ġanonym ity
Ġbal cony
ĠK a
Ġcl ues
Ġ8 7
Ġorig in
act ing
Ġcab inet
Ġrub ber
n ormal
ĠA S
am ents
aug hed
if ies
pl us
ot ton
Ġcl ick
ĠJo an
ets k
ĠS lo
Ġg rip
ĠP ul
Ġass ume
Ġgood bye
us hes
Ġste ady
Ġcatch ing
ot ion
Ġbreak down
aly mp
ĠCor oner
Ġwood s
Ġdetain ees
w ind
Ġn ude
Ġch ains
ĠHe ather
te en
Ġ8 3
weg ian
ĠGu antanamo
Ġeng aging
Ġdiscipl ine
Ġcon vert
Ġnegot iate
g i
k ward
Ġbu zz
ĠBl ues
ĠSer b
Ġgrad uated
Ġres erve
Ġch ips
Ġcent res
Ġdecor ated
p owered
Ġl od
ĠT aking
ĠS ally
Ġreg ulation
ĠCar n
Ġmain stream
Ġadvoc ate
Ġv ocal
ĠKardash ian
Ġg onna
ĠL ie
ĠG em
Ġassaul ts
Ġsch olar
Ġout fits
Ġteam mate
Ġren owned
Ġshut down
n ew
ĠTh orn
Ġinsp ection
ĠMid dles
Ġbon us
Ġmanufactur er
ĠSerge ant
n et
ĠC L
Ġv ary
amp ed
ĠDes ign
Ġt ale
Ġdep uties
Ġhor rified
Ġperce ived
ĠRe ading
r in
Ġadm ission
h ift
i ors
Ġpro st
oy le
i ability
Ġp oured
Ġre acted
Ġste ep
Ġrenew ed
Ġf oster
it zer
Ġsuggest ions
pro of
ĠLind say
Ġconsist ently
oty pe
Ġauthen tic
Ġcare ers
Ġstrong est
ĠCrime a
Ġepid emic
ĠA P
ĠR ah
Ġsend s
z i
ĠM erc
Ġgener ate
Ġappl aud
Ġearning s
Ġwhen ever
ĠZ ucker
Ġl aughed
Ġn od
Ġn inth
ĠC av
Ġoccup ied
Ġrom ance
Ġsh ipping
Ġra ge
s ky
ke ys
R I
Ġpension er
Ġb unch
ĠD ark
up t
iff s
IC K
Ġphr ase
ĠMar co
Ġvol ley
Ġtoug her
O M
ut er
um in
Ġpl acing
Ġpre ced
Ġapolog ize
Is lam
Ġunemploy ed
b ishop
ĠW o
Ġra pper
Ġconcentr ation
c Ã©
Ġprim arily
ĠTai wan
Ġflo ors
ĠAny one
e a
it ter
ĠR ab
Ġinter im
Ġtrad emark
het or
Ġd read
ĠR ain
Ġstr oll
ĠBar on
Ġval id
ĠB in
Ġsh irts
Ġrem orse
Ġplan ets
ig ers
Ġcred ited
Ġremem bers
ĠTheres a
Ġn avy
Ġpart ially
Ġident ification
ĠMor oc
Ġdisapp ointment
Ġdoub ts
Ġjump s
ed ed
Ġgl oves
ĠD awn
sh ore
Ġexerc ises
Ġpurs uit
n ie
Ġl aser
ĠP ipp
ric s
Ġ198 1
Ġreck less
ĠF ried
Ġke ys
Ġmed ium
ĠH S
Ġins ight
Ġmusic ian
ĠSal t
Ġe Bay
ĠP el
Ġshe ep
ĠK ier
Ġupd ates
C l
ill as
ĠH ugh
r ise
Ġwrong doing
Ġd ug
ĠO mar
ĠOp rah
Ġnickn amed
r ange
Ġp ad
Ġsuit able
Ġhero es
Ġprem ier
off s
Ġprop aganda
Ġgrad ually
k ok
ĠJ ake
Ġsk ies
iff e
Ġcoff in
ĠBerg dahl
ĠSark ozy
ĠC our
Ġcount less
am mar
Ġover haul
ĠE lection
ĠChampionship s
S hab
Ġpres erve
Ġemploy er
ĠPoc hettino
f ts
Ġwhere abouts
Ġphotographer s
d em
j ad
Ġbus es
ĠGun ners
Ġra ided
Ġmir acle
Ġresol ved
he art
Ġb ats
ĠG olf
ĠHe y
ĠAm nesty
Ġsk ill
ĠTr ump
Ġdim in
en berg
Ġr hetor
Ġspirit ual
h ad
Ġin mate
ĠF ig
Ġint elligent
Ġar ray
hold ers
Ġtradition ally
Ġd rought
Ġfl aw
Ġovert urned
ĠE sc
Ġex ists
Ġcomp assion
Ġmat ched
Ġpurs uing
ĠR over
ĠLaw son
Ġswe eping
ĠBry an
ĠTar get
s ki
Ġser ial
at oes
ĠGr an
Ġassass ination
ĠBM W
Ġshot gun
Ġ13 0
ĠWell s
ar an
Ġkne es
Ġt ables
Ġdeal er
ĠWil s
ĠO cc
Ġgr id
Ġresp ects
Ġpress ed
ĠDon etsk
ĠAndrew s
l av
ĠF un
Ġr ang
Ġreal istic
Ġp ope
Ġhum il
wh ite
Ġc ater
ĠAv iation
ss on
Ġretail er
Ġcin ema
ro be
ĠG ove
Ġres erv
Ġimmigr ant
Ġbackl ash
ĠNatal ie
Ġc emetery
ĠI stanbul
ĠAth let
ĠGonz alez
e ast
Ġkill ers
Ġlif ting
ĠM ul
ur i
ĠC raw
ĠJ ail
ĠF if
ĠP ast
per ed
Ġaccomp any
" ,
Ġun l
ĠBr ig
ĠInd ust
ĠH alf
ĠH istor
Ġdet on
Ġdefend ers
ĠL ions
Ġintro duction
s ize
ĠP age
Ġasp ect
Ġd ent
ĠH orn
ĠBrit t
Ġtop ic
in ction
Ġspec ially
ĠBal i
ĠFur ther
Ġt sun
er ts
ĠN ixon
Ġinc ent
ĠRoll ing
Ġref lects
ĠEar ly
Ġult ra
ĠSuff olk
Ġun armed
Ġpost p
ĠFranc ois
hy dr
ici ency
Ġban ning
Ġpost ers
Ġtravel s
Ġcouncil s
Ġanch or
pp o
Ġdef ined
ĠAss embly
Ġste am
Ġtrib al
ĠM I
Ġsub mar
ĠBlack burn
Ġcruel ty
ic ating
ĠCh ambers
Ġtremend ous
Ġh acked
ĠP arents
os er
ch ange
ĠK az
Ġind icted
Ġbrief ing
Ġoccasion ally
s ign
ĠR ica
Ġch asing
ĠBe yon
ĠCon ference
iter ranean
Russ ian
Ġg re
Ġout p
Ġfire arm
ĠBang l
ĠRam os
ios ity
ĠKens ington
Ġg ene
et ary
Ġthreat en
par ts
ĠPl us
ih anna
ag les
Ġsub way
Ġsymp athy
ĠTib et
que z
i ago
Ġs ect
Ġshe er
k ill
Ġdece ased
Ġdest inations
Ġdeb ts
ar n
ĠN one
Ġbar gain
Ġcroc od
L C
Ġcomp at
Ġchap ter
ĠPar alymp
Ġinsp ectors
Ġphilos oph
Ġnot ified
lear ly
Ġshel ves
ĠP ic
Ġdest ro
Ġdispl aced
Ġchann els
ish a
Ġguil t
ĠR ig
sh aped
ott a
t aking
Ġrock ets
Ġmakes hift
Ġto pp
Ġp atch
ĠG iven
ĠGer mans
Ġgain ing
er ies
Ġst ones
Ġrub ble
Ġf illing
ĠC ov
Ġbl asted
con i
Ġintern ation
Ġeduc ational
ĠLiber ty
f i
Ġto ss
Ġpresident s
Ġer rors
Ġextrad ition
ĠB ourn
ĠL is
re ated
le ading
el ed
Ġpro stitution
ĠK le
C an
Ġc ro
ĠD ow
est on
Ġsurviv or
f ar
Ġimprove ments
ĠV iol
Ġpop ulations
Ġl ied
qu er
Ġbroad er
ĠShi ite
ĠT a
Ġbre ed
Ġnort heast
he ster
ĠSt orm
Ġfeed back
Ġr it
atter ing
ĠNor wegian
Ġc age
ĠÂ ©
Th ose
con f
Ġp ir
ĠRom ania
Ġoverwhel med
ĠF inal
Ġrequ iring
Ġaud iences
ĠPear son
ĠW end
Ġcomp ly
ĠMed iterranean
oura ge
Ġru ined
ĠPle ase
Ġplun ged
ĠReyn olds
Ġ14 0
Ġpoison ing
w yn
un ct
ĠE lement
ric ia
Ġconv oy
Ġt an
ĠP orts
ĠUn it
ĠAsh ton
Ġdistrib uted
eal ous
Ġst ark
Ġreluct ant
Ġh orn
ĠAll iance
D av
m and
ĠBre ak
ĠPen insula
ĠCorpor ation
el lect
ater nity
ĠL az
Ġs ung
Ġfirm ly
Ġspect ators
Ġt ire
Ġs izes
ĠCroat ia
en ess
ĠB urg
Ġdign ity
ĠMad ison
Ġquar ters
ĠHispan ic
g ot
ĠS et
Ġr ice
Ġass isted
Ġlot tery
part y
g ender
Ġmoment um
Ġoper ators
er r
Ġp or
ow een
Ġbr ows
Ġadv ances
Ġhack ers
Ġw ives
Ġbr ush
Ġpro ving
ĠBe h
ĠWils here
Ġs ounded
ĠGet ting
ot ted
Ġre aches
ĠS earch
Ġsa iling
b led
onn ie
Americ ans
Ġpersu ade
Ġflu id
Ġrevel ation
Ġth ieves
Ġeleph ants
ig ue
Ġsub mit
Ġabs or
k ind
ff ic
ĠDou g
6 6
Ġth under
ĠGar ner
ĠAle ppo
s ub
ĠV i
Ġsecond ary
Ġsl ide
ĠPaul a
Ġdisp os
Ġdict ator
Ġendang ered
ĠJo el
Ġquiet ly
Ġcorpor ation
Ġoptim istic
ar ming
ĠF actor
ĠHam mond
l isted
ĠR ory
te am
Ġinquir ies
ĠMont ana
Ġanticip ated
Ġunbeliev able
Ġm our
ur ches
Ġdr um
Ġdist raught
Ġcont ents
ĠGl en
ĠChurch ill
ĠFil m
W est
ne ver
Wh o
Ġfl ower
mark ets
Ġpsych iatric
Ġf ib
ik es
ĠJenn y
Ġd ive
Ġd irt
le ase
ĠOr ig
ĠP ad
Ġfl ies
Ġeur ozone
ĠGib son
f ly
ĠDan ish
spe ed
d eme
Ġreg istr
wh ich
ĠFA A
Ġcounter parts
onym ous
B rien
ĠS ong
ĠG ir
ĠJ ol
ĠI ss
ĠAm endment
Ġepis odes
Ġbu ff
Ġperman ently
ac ent
Ġacknow ledge
ĠM agn
ĠR ihanna
Ġapp alling
Ġunp aid
ucr ative
S ince
Ġfin ances
in os
Ġd iverse
ĠC and
ĠMar tha
Ġaccount able
uster ity
r era
Ġgreat ly
Ġadministr ative
ĠM oon
Ġflood s
ĠYah oo
at ile
il ies
ĠR ut
Ġfar mer
Ġesc orted
Ġtrib utes
ĠHaz ard
Ġup rising
h ole
Ġbe aring
Ġmaintain s
ĠSomal i
h ot
let cher
ĠValent ine
Ġir re
Ġ umb
Ġp ays
ĠP il
ham ed
Ġnorth west
Ġrob ust
Ġrebu ild
ĠT ah
Ġad ap
ĠIs a
ĠBul ger
Ġindic ates
ĠC ome
av an
ĠSh in
ĠBar ca
Ġaff ection
Ġnon profit
ĠFo ley
Ġb ands
Ġpl ates
ĠWind sor
o vers
Ġl ucrative
st op
Ġcollect ive
ĠWal ter
Ġreact ions
Ġsec rets
Ġhome own
oph ob
emb led
L ondon
ĠH at
Ġsee ks
ĠIndones ian
EA L
Ġp istol
ĠK abul
ĠSer ie
igg ins
Ġcours es
ĠF ast
Ġup stairs
Ġblock ing
h usband
Ġp owder
Ġst ating
Ġ@ @
as ant
Ġm ounted
om o
Ġfr ank
inc ere
Ġ198 3
ĠKenn eth
ĠEvent ually
ess a
O ver
n est
z o
ĠE cc
Ġwork place
Ġwar ns
ĠRSP CA
ĠBourn emouth
Ġl oun
Ġpr incess
ĠJ ub
ĠPipp a
ĠC art
Ġch ip
f ted
cl aimed
man uel
Ġcontract or
Ġv ib
ĠK am
Ġoper ates
Ġlo vers
Ġr ans
Ġinvest ed
ro b
ĠK ur
Ġso ap
ĠTr ay
Ġarg ues
Ġneighbour hood
yan mar
Ġsell s
uc ed
Ġident ical
ĠMal i
ĠHall oween
ĠPict ures
Ġtsun ami
9 00
Ġch ased
ĠJohn ny
Ġopp ose
Ġg ambling
Ġact ively
Ġsuperv is
se en
ĠWin ston
ĠCh uck
Ġdeal ers
Ġsem if
Ġsurge ons
Ġauthor ized
Ġocc urs
h ave
er able
Ġlog o
cont rolled
ĠMedic ine
ĠShort ly
Ġastronaut s
f r
ĠH and
ĠW a
ere k
ĠSh ane
ĠBer ks
Ġcom et
ĠBang kok
Ġim per
ron ics
ĠHol y
Ġhun ger
ĠFel ipe
ĠPorts mouth
ĠD ug
Ġlay er
h it
it ig
Ġinter pret
Ġdr owned
Ġv icious
ĠCl ick
Ġaut ism
n ut
Ġc aut
Ġass igned
Ġamong st
Ġl oot
ĠH ave
ill ery
ept ion
Ġanx ious
s ome
Ġmod elling
Ġsens ors
oc ial
ĠTra vis
ĠMag azine
Ġtort ured
ĠD od
Ġm elt
A P
ef in
Ġremind ed
Ġde le
Ġairpl ane
Ġaw kward
lus coni
ugg age
ĠElement ary
Ġsim pl
Ġdevelop er
Ġexpand ing
Ġadv isers
Ġvisit or
ung le
O C
Ġg ains
ĠJan et
ĠBoy le
art ing
Ġqu ake
Ġ197 8
y ers
Ġa isle
ie u
ile e
ĠCong o
ĠL av
Ġsh attered
ĠW r
Ġprov iders
ĠPal m
ĠÂłĠÂłĠÂłĠÂł ĠÂłĠÂłĠÂłĠÂł
Ġ ugly
ĠM ake
ĠH ut
ĠF itz
Ġsuccess or
Ġpur ple
t ech
Ġb ang
ĠM aking
un s
Ġk m
Ġwor ries
Ġgr at
Ġbull ied
ĠM yanmar
ĠB elf
ĠWork ers
ĠS on
Ġconvent ional
Ġj oking
aren cy
Ġuncertain ty
Ġcontam inated
ĠChes hire
ĠShe ikh
Ġharm ful
Ġmand atory
Ġpupp y
Ġf ict
it ate
un es
Ġass ert
ĠPit ts
ĠSpani ard
ĠDV D
min ed
Ġsol o
back ed
Ġweak ness
Ġtroub les
ĠTrip oli
f eld
ĠE ug
ĠPaul o
Ġtrend s
ĠAnt i
ext reme
ĠMcL aren
ĠSebast ian
Ġref und
ĠPri or
ĠLenn on
ĠZucker berg
Ġst ays
Ġcap abilities
Ġgun fire
he ll
M al
Ġr h
iet ies
Ġtechn ologies
Ġhur ricane
ul ted
Ġsoon er
or gan
Ġ19 30
ĠCommun ist
er ia
ar ity
Ġcred its
Ġinterven e
Ġ196 9
in ness
Ġabs ent
........ ........
ĠOliv ia
ĠPriv ate
M an
N S
qu al
ĠBer lusconi
Ġdep ends
ĠSe oul
Ġrepl acing
Ġd iversity
z ens
ĠM ersey
Ġwh ales
ĠNew town
Ġhapp ier
Ġprem iere
e an
ĠRep ort
Ġn est
ĠD isc
Ġ9 99
Ġfire works
Ġcertific ate
ĠT ommy
ac er
ĠF letcher
Ġsurf aced
Ġric hest
b n
Ġ20 20
og en
EN T
Ġs ights
ĠF u
Ġpr ank
az ines
ĠRuss ians
m el
p ound
he em
ĠB udget
ĠF isher
Ġacc ord
lam m
Ġthr one
ĠFire f
Ġtraum atic
ĠM aid
ĠBl ood
Ġsen ators
ĠC yr
ĠZ e
Ġcycl ist
ĠM ain
Ġimpl ications
Ġroutine ly
b age
ĠB T
ĠB ud
Ġsu ite
Ġ197 6
Ġaband on
writ ten
ot o
Ġplum met
g ame
n ell
ast on
Ġtreat s
Ġident ifying
Ġdocum ented
Ġcrowd ed
ĠM ang
Ġfar ms
ĠT on
ĠD in
ater al
Ġappro aches
ĠCamb od
oll ar
Ġinto x
Ġsustain able
C ar
Ġd ancer
ĠS ay
ĠD im
io x
Ġmem or
Ġfree ze
ĠBerks hire
Ġh iring
Ġpl ug
ĠAmb assador
Ġdistinct ive
Ġb ases
Ġf ond
ion a
ĠCh i
ĠApp eal
ĠStud ies
Ġportray ed
Ġok ay
Ġf ancy
ia z
ov ich
ĠCent ers
ĠSal mond
ĠGP S
Ġfasc inating
g om
Ġrec l
ĠGe off
ai res
ĠVict im
Ġt u
Ġv intage
Ġrep ro
Ġgr ace
Ġdraw s
Ġaddress ing
Ġl y
cent ury
Ġland l
ĠEth iop
c le
ĠD rag
opp ers
ke e
g ically
Ġhy per
ĠS ac
Ġpr isons
Ġbra ins
ĠJess e
ĠS A
ĠD a
che ster
ĠKen yan
or ie
ĠB ible
pr int
ĠCent ury
B E
d ep
Ġgrand daughter
mar ks
ĠBl as
ĠHer t
ĠCat al
Ġbr ick
Ġrid ers
iot ics
Ġinstruct or
it ime
Ġm asc
ĠN ep
Ġlim bs
Ġaccompl ish
Ġf ert
ul u
ug ar
Ġhear ings
Ġexcept ional
Ġm ock
ĠM end
opp y
ĠSpr ings
al id
go ers
Ġa ides
the y
Ġmis deme
le ine
Ġmag azines
ĠRed s
run ning
Ġsid ew
ain ted
und ers
ster dam
Ġbatter ed
ĠJ oint
ay or
Ġy ield
an im
ĠMon ica
Ġ18 0
ĠMcC onnell
ĠBah rain
Ġw ra
Ġfin est
ins p
ĠFl oren
ec hes
h anded
Ġaccess ible
Ġpoll ing
o op
Ġri vers
Ġri ots
Ġwithd rawn
ĠS ue
ĠL ogan
ĠSand ra
Ġacqu itted
Ġc ere
Ġl inger
ra ud
ĠEar l
am my
Ġsp ree
ak u
Ġprof ound
ĠC ay
hab i
Ġemp ire
ri que
ĠSm art
Ġcontroll ing
r ate
eng u
ĠEd en
ĠChe ster
Ġcock pit
Ġincor por
Pol ice
om er
qu et
gu ards
ĠCher yl
b ig
em s
Ġeduc ated
Ġfor b
ĠDe ep
Ġrhetor ic
Y our
Ġd uck
Ġcons p
Ġexpress ing
rae us
ĠCurt is
Th ank
Ġjew el
Ġshow ers
ĠI C
ĠL ance
Ġsuccess ive
yc les
Ġscri pt
he arted
Ġpress ing
Ġboard ed
ĠStand ards
ĠWind ows
step s
Ġdis hes
Ġexch anged
ĠMont gom
Ġcul p
A pp
ĠRich mond
ĠKar zai
Ġembarrass ment
ĠBet ween
Ġf ails
ĠS elf
to o
Ġaut o
Ġacqu ired
ĠT itan
Ġfortun ate
Ġ 00
ĠAber de
Ġp ipe
ur bs
Ġsh ook
Ġint ellect
Ġbelong ings
Ġp ap
Ġl uggage
Ġvict ories
ĠSuper intendent
Ġwithdraw al
v ious
th irds
ĠWil ts
enk amp
Ġd a
ĠSt ri
Ġund ers
ĠDaw son
in is
Ġc her
Ġb ay
Ġconcer ning
Ġreview ing
Ġvolcan o
Ġst icks
ĠP in
bour g
g ue
is k
el i
th is
ĠL ed
ĠBox ing
Ġm ast
ĠSt y
Ġ201 8
ink ed
ĠAm ber
Ġconsum ed
% .
Ġb ump
ĠM ust
ac ious
Ġout raged
ĠNic ola
Ġfoss il
Ġdatab ase
Ġt asks
anc ies
Ġprem ises
Ġcomp are
Ġcard iac
ĠMir ror
girl friend
Ġfam ed
ĠStud ents
Ġcorrespond ent
Ġm ales
ig en
pt ic
Ġevac uation
A m
ong a
Ġpoor ly
ĠColomb ian
ardy ce
h aw
ĠM umb
Ġkn ives
uper t
Ġstuff ed
ĠA IDS
Ġman if
er als
ĠM oney
um an
Ġche ating
ĠCelebr ity
ĠR ams
ag s
Ġsing les
Ġstra w
ĠGene va
Ġorgan ic
ĠRec ords
ĠPet raeus
Ġju ice
ĠS oon
Ġfl our
Ġfl esh
ĠAm sterdam
Ġbow l
ĠRay mond
uct ions
ĠSte enkamp
Ġrecruit ment
Ġn aval
ĠWor ces
ĠMin isters
ĠGriff in
f rey
Ġ3 60
ĠIs le
Ġparticip ating
Ġmotiv ation
oca ust
Ġde er
Ġar ra
Ġinj ection
Ġdiscl osed
ĠGriffith s
Ġsadd ened
ĠM ach
Ġy oga
ĠG round
Ġbr anches
ĠAll ardyce
Ġw ished
ĠDe bor
e ves
Ġp ond
ĠW orth
ĠO d
Ġrespons es
Ġsuper markets
w orld
ĠS ide
ĠHe b
co on
ĠD habi
Ġshe ets
Ġesc ort
Ġexplos ions
ĠM ug
Ġhand bag
ĠB and
Ġv ic
ĠBut ler
Ġdep ressed
ĠCont rovers
ĠMir anda
ĠIs ab
Ġchair s
Ġfrustr ating
Ġsubs id
Ġbuck et
elesc ope
Ġp owered
ĠN orm
ĠN umber
ri x
le en
ver ts
ĠB il
Ġso b
Ġpublish ing
ĠB rent
Ġbuy er
Ġsouth west
Ġf ox
ĠM ath
ct uary
hen ko
Ġ196 3
ĠStand ard
r act
ĠD erek
ĠDem s
mind ed
ed y
is ms
Ġ201 7
ĠSh ould
Ġrun ners
Ġshort age
Ġimplement ed
ĠToy ota
Ġsex y
es y
ĠM ik
ab i
ĠDub lin
ĠMade leine
ĠF ish
ĠK id
Ġform ula
Ġmaintain ing
Ġeld est
Ġfright ened
ĠG add
ĠJ et
Ġint end
Ġ19 40
Ġprescrib ed
Ġh id
Ġbet ray
ĠConst able
Ġunlaw ful
ĠCon vention
Ġproduc es
st ant
Ġhapp ily
Ġcontr ad
ĠHond ur
Ġhom eland
Ġamb itions
ĠDun n
Ġnurs ery
Ġexclus ively
Ġward robe
feed ing
Ġles bian
Ġdep orted
ĠSer ies
Ġhelp ful
Ġski ing
Ġa usterity
ĠIv ory
amp s
Ġfl ats
Ġgr im
min ent
pr ising
ĠAss ange
ĠH ilton
Ġfant asy
Ġcock tail
Ġnot or
Ġrest rain
ĠTim othy
ĠP GA
ĠK end
ific ent
ĠChrist ina
ropri ately
beat en
c asts
Ġt une
Ġinc l
Ġjust ify
Ġreg ain
ĠMiss ion
Ġindepend ently
Ġinnov ation
ĠSut ton
ĠJo han
Ġpartic les
Ġappro ve
Ġd itch
ĠB ird
Ġj unk
Ġpers ons
ĠCat hedral
astro phic
is ure
ĠR ugby
Ġsec uring
ag g
Ġch urches
ĠMoham mad
Ġalt ogether
Jo hn
in ator
ĠB A
ĠL ess
Ġr ides
Ġpock ets
Ġm aid
Ġth ief
op ol
Ġhas ht
ĠCl arks
Ġpack ages
f ig
ĠT u
Ġhealth ier
Ġban ner
Ġt ense
Ġst ead
Ġadd ict
Ġve to
se ek
br aska
Ġsk irt
udd y
ĠBur ton
Ġarchitect ure
ĠSch um
ut or
ĠSh adow
Ġmem orable
ĠCar a
ĠTo o
Ġ196 8
8 8
B ar
Ġhel m
sk irts
ra ham
ĠTw enty
ĠBry ant
Ġjuven ile
at ers
Ġm ole
Ġst icking
ĠBrand on
ĠEt ihad
f light
in ces
ĠD anger
ĠMu ham
Ġt ide
ĠC able
Ġas pir
Ġcons ol
Ġmar gin
Ġalle ge
Ġenh ance
fund ed
g el
he ro
Ġbar red
Ġlegisl ative
ĠLyn ch
ĠImm igration
r ation
Ġper ception
ĠWilts hire
ĠP ret
Ġper mitted
Ġdiscl ose
W here
Ġl ighter
ĠW W
ell ar
ĠGreg ory
ĠBever ly
Ġpaedoph ile
Ġr ider
ĠY outh
Ġsacrif ice
e ah
Ġg host
ĠR al
Ġret al
Ġmain land
ĠMersey side
ĠDian e
ĠM ia
Ġ3 50
Ġcar n
v ision
re hend
ĠSm all
ĠPet e
ĠStra uss
ĠDebor ah
h ome
Ġev ident
ĠLo han
Shab aab
an ium
ĠL or
reat ment
Ġmed ics
Ġsk etch
Ġlo ad
Ġlab elled
ĠM ol
ĠB att
Ġun le
Ġfinanc ially
H A
ĠS aid
ri ved
Ġr ated
Ġcl utch
Ġmin ing
Ġparticip ation
Ġd il
ĠH os
Ġdis gu
ĠV ogue
Ġlist ened
Ġimm ense
Ġsurprising ly
Ġas hamed
Ġsp ine
Ġcar riers
Ġrob bed
t ry
Ġw are
Ġn asty
ĠFor bes
Ġbook ing
Ġrank ing
W orld
ĠS usp
ĠD ad
Ġmark ing
ri or
old ing
ah o
resp ect
Ġbarr ister
Ġcontrib utions
Ġnut rition
Ġn ic
Ġj ealous
Ġor al
ĠV o
Ġcred ibility
ĠDo zens
Ġnarrow ly
Ġdisg usting
ĠC ad
Ġapp et
Ob viously
ĠM aster
ĠW A
Ġ197 4
F P
Ġwhere ver
ett i
Ġhaz ard
ĠL ily
Ġnation als
greg ation
d id
er man
Ġc ra
ĠN atural
ĠK il
ick ers
ĠHop kins
ĠJ ur
Ġper m
ĠFrench man
Ġdiscover ing
ĠGlouces tershire
Ġbox er
Ġpsych iat
Ġswe ep
Ġt iger
Ġm un
Ġd rain
Ġha un
ĠD om
Ġbene fic
ĠCamer oon
Ġdecl ar
ĠI M
Ġforeign ers
Ġinter pre
Ġfem ales
ĠBund es
ĠP ly
ative ly
F i
Ġh ind
ine jad
ĠM ak
Ġ' '
Ġkn ocking
Ġbel l
Ġpan els
Ġout skirts
Ġbar riers
ĠMcC art
ic on
S ometimes
ĠS id
ĠC ah
ĠSuper ior
ĠArn old
Ġb other
Ġprocess ing
Ġillness es
ĠLat ino
Ġperpet r
ĠOcc up
T C
Ġg rieving
ĠNew ton
Ġposs essing
Ġ197 7
Ġlay ing
Ġquarter back
w art
Ġr am
Ġsu ic
ĠK enny
ĠPr inc
Ġinst ructed
Ġden ying
Ġfort night
s ection
Ġare na
Ġab duction
Ġunder gone
Ġexpl oring
stit utional
Ġover look
Ġart work
ĠCon c
f am
Ġsc ans
Ġro pe
Ġmod e
ĠMumb ai
ĠE SP
ĠHass an
ch ard
ĠHer o
Ġ16 0
ĠC reek
Ġac ute
ific ance
Ġcast le
Ġembr aced
Ġpredecess or
Ġpros per
Ġformer ly
Ġint rig
rib ly
Ġang le
Ġmut ual
Ġsa uce
Ġpar ach
Ġvot er
Ġsad ly
Ġneighborhood s
ĠRa heem
Ġd ose
ĠF ut
ĠK irst
ĠSchum acher
ch ief
aun ch
ĠAlexand ra
umb ria
Ġsuffer ers
ĠArch bishop
f aced
and als
Ġer r
Ġdiplom ats
Ġmem oir
Ġcrit ically
ĠPat ricia
Ġamb ition
Ġrac ially
Ġrecru ited
c at
es a
ĠEl sewhere
Ġir rit
on gh
Ġso fa
Ġmar g
Ġ197 2
ĠCam illa
uer to
Ġmotorc ycle
ĠMors y
ĠBangl adesh
Ġn ail
ĠHel p
Ġcolour ful
ĠPS G
b one
h unt
t heless
Ġprev ention
Ġpast or
Ġsuper star
Ġsurvey ed
Ġtack ling
Ġinev itable
ĠR ather
ĠR iley
ĠF inn
Ġdis ruption
ĠSh ir
ĠTe a
Ġdrop s
Ġuniform s
Ġtatto os
Ġsty lish
Ġc ens
ast rous
Ġshow c
ĠNe braska
ĠEconom ic
ĠSw ift
Ġlay ers
c ation
Ġprivile ge
Ġantib iotics
Ġc attle
Ġg aming
ĠR upert
Ġmin im
Ġimprison ed
m aid
Ġs incere
ĠA er
Ġfract ured
ĠC ut
ĠAl ison
ĠRe b
ca ution
f ive
Ġbe ard
ĠT ogether
ĠM ata
ĠFr aser
Ġbo asted
Ġwrit ers
Ġwond ering
ĠKat y
Ġp und
as ia
lud ing
Ġsur re
ĠBl atter
ĠX i
Un fortunately
Ġpol y
ĠPol icy
Ġcor rid
Ġprocess es
Ġsupposed ly
IC E
Ġinnov ative
ĠCh loe
ach i
Ġplay ground
ĠCor on
ĠBu ilding
Ġp ier
Ġsub urbs
Ġpar alys
sp ace
air y
ric ts
Ġramp age
ĠB alls
Ġcont acts
Ġapp lying
for cement
Ġdestro ying
ĠH uss
ĠL ist
Ġpl ag
Ġapart ments
Ġavo iding
Ġpip eline
Ġtem ple
lig a
Ġcosmet ic
N P
Ġc ute
Ġmon ster
Ġinj uring
Ġeng ulf
Ġmag istrates
ĠPat riots
St ar
ĠT ab
Ġle ap
Ġsurger ies
Ġconscious ness
Ġcart el
Ġind ex
Ġcontem porary
m ill
Ġg orge
Ġhe s
ĠC owell
Ġacc ent
Ġimportant ly
ĠLyn n
t rick
st ick
Ġrad i
ĠGlob e
ĠMedic are
p a
Ġst ew
sh ots
ĠEmp ire
ĠMe h
Ġemotion ally
n ow
ĠRep orts
ĠQu inn
ĠBurn s
ĠHag el
ĠT ol
oc c
Ġdist ingu
Ġprosp ects
Ġtransp arent
Gen eral
ĠBlas io
ĠPly mouth
Ġc raf
Ġcomp iled
Ġdeploy ment
boy s
ĠB ak
ĠU C
Ġab d
Ġgu ided
Ġ9 2
ĠMe gan
d ec
ĠA D
Ġsh aken
ale y
ĠCar lo
Ġi OS
6 8
ĠP uerto
Ġnickn ame
ĠOz il
Ġrespons ibilities
Ġexam ining
pher d
ub a
ĠSc ots
Ġ196 4
Ġbankrupt cy
ur bed
str ing
Ġdist ant
Ġdecl aring
al ion
Ġear liest
Ġorder ing
Ġc ripp
Ġhe d
ĠN ico
Ġparticip ated
Ġneighbour ing
ĠAhmad inejad
Ġs ore
Ġst air
ias m
Ġsmugg ling
ĠG ing
Ġsc ra
Ġ8 9
ĠTray von
ne ider
Ġtro op
ĠHol ocaust
Ġs ang
est hetic
Ġmount ing
Ġdisgr ace
ĠChamp ion
ĠB ody
uff le
Ġcreat or
ĠDon na
Ġattrib uted
w ed
u cc
ĠWe iner
ĠLut her
Ġm asks
ĠM ann
Ġintro ducing
ĠSur v
hum an
ĠBundes liga
v an
ĠJ as
Ġhead line
Ġoper ational
Ġdesign ated
ĠSim ilar
Ġreleg ation
Ġcost umes
Ġdefin ition
Ġpurch ases
ĠTer ror
Ġnot ion
Ġgri ev
Ġf iction
Ġc ough
ĠB ren
Ġbru ises
Ġdis orders
Ġfather s
Ġexecut ions
Ġintr ud
ress ive
Ġhalf way
ĠProv ince
ĠPie ters
Ġch illing
gg y
Ġathlet ic
b ecause
c ap
Ġs ections
Ġch op
Ġind efin
Ġloc ally
co very
Ġdecl are
Ġcoin s
Ġd orm
Ġre iter
ĠP rom
ane y
Ġoverd ose
M ore
ĠF iona
Ġsign ificance
com plete
Ġprepar ations
ic able
Ġsu ck
Ġin hab
Ġcollabor ation
ph oon
Ġgen es
ĠArab ic
Ġbrut ally
Ġvom iting
b et
r ot
Ġch ol
Ġrep ay
Ġfl ank
Ġsm ash
gr own
Ġbattle field
T ON
c ore
om i
Ġsur rog
ĠPop ular
ĠESP N
l ia
it ic
ĠC ob
ĠL ot
ĠO t
Ġphys ician
Ġorganiz ers
Ġeleg ant
Ġneut ral
Ġ âĤ¬
Ġbl unt
inc ing
on te
Ġexc av
ĠFern andez
b ot
Ġpl ight
Ġdirect ions
ĠCl aud
Ġgra ves
Ġyouth s
sh irts
Ġweekend s
l estone
n is
at ics
ul ates
Ġsu e
Ġinv ented
Ġcontract ors
Ġflag ship
cel otti
ur u
Ġcompan ion
Ġcrop s
Ġdeport ation
c ard
g or
ft y
Ġ11 0
rew s
ian cÃ©
ĠGo ing
ade qu
,' "
Ġspe eches
Q aeda
ĠA br
Ġexam iner
Ġconfirm ation
m ails
ĠS ources
ĠH ood
og g
Ġcas ino
ĠCru ise
Ġencoun tered
Ġder by
Ġserv ic
3 50
D S
e very
h art
Ġp irates
Ġsa ke
ĠF ow
Ġcapt ivity
Ġow ed
ĠCL ICK
Ġcount ies
Ġbic ycle
M art
ĠL ag
Ġeye br
ĠHM S
ĠCirc uit
ĠTunis ia
ĠS ak
Ġr aced
ott o
ĠTr acy
b ucks
e ur
ur ers
ĠPark inson
Ġpo et
ĠOak land
w r
Ġb unk
Ġback yard
Ġresc uers
ĠChallen ge
ĠRig by
ĠT at
Ġover c
Ġwrong ly
New s
zb ollah
ĠS ign
Ġ9 00
Ġrest ing
Ġmurder er
Ġcapt ive
Ġpray ing
Ġrequire ment
âĢ ĺ
ri ver
ĠF ellow
Ġout s
Ġtreat y
Ġtelev ised
ĠProt esters
Ġf ren
Ġd awn
ĠB i
ul um
ĠN olan
Ġsp ared
Ch rist
] ,
ĠRe view
b rough
le igh
ĠI N
ir k
oin ts
Ġviol ating
Ġpred omin
7 7
m ort
s chool
ĠAn celotti
ene y
Ġagre es
f illed
ĠSh ield
Ġachieve ments
ĠRepresent atives
ĠR oth
ĠCh ase
ĠRec ord
E d
Ġfor um
ĠAmb ulance
oll en
Ġur ine
Ġp ale
ĠP erson
ĠN y
ĠUn ivers
Ġdr ank
ĠM is
anc ers
Ġconf isc
Ġsad ness
ĠBent ley
Ġsolic itor
at re
ic hel
Ġhe al
ĠO wn
lic ts
ĠAr rest
cl osed
Ġ197 5
Ġbid ding
he y
Ġloc ate
Ġd re
ĠTra gedy
Ġguarant eed
Ġdele ted
er ving
ap ova
Ġbre eding
Ġdeb ates
Ġproceed s
Ġconsult ation
Ġun beaten
Ġim minent
Ġam put
Ġconsid ers
ĠUS S
Ġquar ant
ĠSub s
n ered
Ġl ens
ĠAr ts
ĠNot hing
Ġ196 7
ĠM ove
Ġcr owned
Ġcontain er
ĠS EAL
ĠD oes
Ġro ver
ĠCl are
ĠTem ple
Ġtransp arency
i ott
ber to
Ġsc attered
ĠAl t
Ġeconom ies
Ġz ones
Ġaim ing
ĠN ature
Ġex ternal
ĠMon te
Ġdr ill
Ġhar vest
Ġpur se
ĠKat rina
health y
ĠL oc
Ġcons c
Ġmigr ation
Ġs ank
ĠK ind
Ġrep ly
Ġallow ance
Ġcoun cillor
Ġlux urious
ĠPass engers
Ġal ike
Ġcour thouse
e lect
om ous
Ġprov oc
op ular
Ġinc on
ott om
keep ing
Ġimpl ants
Ġindic ating
Ġl ining
ĠG iggs
pr us
Ġcontrib uting
ĠH ew
Ġch art
D P
Ġd ys
.' "
ĠMar ks
pro v
Ġmotor b
Ġinstrum ents
Ġinflu enced
Ġmix ture
v iol
Ġpsych ologist
Ġbatter ies
Ġvolunt ary
m aster
Ġso ared
ĠAn a
Ġhy dro
war f
ĠJ ade
ĠX box
ĠLord s
Ġdismiss al
ĠShar apova
Ġscre amed
Ġconcentr ate
col m
an ie
Ġexch anges
En g
Ġcost ly
Ġclean er
Ġshut tle
Ġimag ined
ĠBeat les
Ġthe ories
Ġpat ron
ĠTrib une
mod el
f ried
Ġb ung
od ox
Ġev olved
roll ing
ĠMet ro
ĠKn ow
ĠId aho
ĠBoy s
Ġb er
th ink
Ġref ers
Ġall iance
Ġpersu aded
ĠG B
ĠEn rique
ĠSh are
ÂłÂł Âł
ĠPitts burgh
Ġl ions
oot s
ĠSant os
Ġbon uses
ĠAlger ia
Ġn uts
Ġmar ched
ĠCurrent ly
w ould
Ġaccident al
so le
Ġm itig
wh at
st ra
ĠBl anc
ĠCy prus
Ġeditor ial
Ġrum ors
Ġprol ong
Ġs outheast
Ġro ot
ĠLan za
p ress
Ġheart breaking
Ġexha usted
Ġecho ed
G od
ĠT as
ĠHe zbollah
Ġclass mates
Ġminor ities
ĠEvery thing
ĠObs ervatory
May be
at em
ĠK ro
Ġcap ability
ann ers
Ġadv ise
Ġgrow s
M S
ĠB h
ĠN i
Ġann ually
Ġb ubb
Ġbet ting
Ġhum ble
Ġrob ots
ĠEll ie
ĠSa o
ĠHert fordshire
1 20
Q u
ff iti
Ġdis astrous
Ġpres um
Ġhol y
Ġtweet ing
ĠGood man
Ġscr atch
ĠPrim ary
Ġfavour ites
Ġcollect ions
Ġtreas ure
b ear
Ġgra vity
Ġpun ct
Ġh ats
ĠBeyon ce
ĠH ollow
ind y
ett el
Ġbom bers
A re
P resident
ĠDoct or
ĠClarks on
Ġjust ified
ĠVis it
Ġsum s
ĠRob son
ĠTown s
e ze
ĠC ulture
Ġfree ly
bo ards
han i
Ġsh apes
ĠSt ars
Ġrel iable
Ġcompon ents
" .'
ĠA Z
ul ously
og ging
ĠCust oms
D ay
ĠH ous
ign ant
Ġtrans cript
Ġtrans gender
Ġsub stances
Ġpod ium
Ġb ans
Ġsh orter
ail ing
ocum ented
Ġwithd rew
Ġmand ate
Ġref lection
ĠVeter ans
ĠMontgom ery
l ive
Ġunder mine
ĠAb raham
at al
ĠB ast
ure a
Ġcor rupt
Ġlab els
Ġintens ity
ĠLie utenant
Dav id
p in
ĠF ah
Ġrepl ica
Ġsuppl ied
ac ies
ear t
ĠG ross
ĠNov ak
Ġwip ed
ĠCov entry
v it
Ġb its
Ġhe aling
over ing
ĠBrit s
Ġjoin s
Ġsimilar ly
Ġobs erv
oub ted
Ġpave ment
ĠM A
ĠG av
Ġins ects
ik ed
Ġdrive way
ĠKier an
Ġ( "
ĠAd ela
Ġcirc les
Ġphilosoph y
h ma
Ġor che
Ġcr ude
gr aded
Ġobs essed
Ġeth ics
ĠHor se
ĠCah ill
Ġb ury
ĠP sych
Ġcat al
ĠWend y
ĠGadd afi
gr ad
ĠAt hens
ĠSe v
l ane
Ġdr illing
ĠBe ing
ĠFiref ighters
ĠGing rich
iss ance
ĠAir bus
Ġpun ching
Ġ197 3
m ic
ou st
ou ch
ĠF ell
Ġw rap
ĠMad onna
Ġoutrage ous
Ġstrang led
Ġ Ã¢
ra its
ĠFred er
ĠIn it
ons ense
Ġident ities
A A
A b
d ist
u ke
Ġst int
ĠD est
Ġenthus iasm
Ġun st
Ġman ages
Ġinv itation
Ġmagn itude
Ġgrocer y
b ands
Ġp ensions
Ġsp inal
Ġopp osing
Ġlangu ages
Ġkil omet
Ġam p
Ġloc ks
ĠAgain st
Ġre he
ĠW ade
ĠAs da
Ġtrain ers
ĠComm ander
Ġjud ged
ĠMal colm
fl ix
ĠL ah
ĠJ a
Ġhost ile
Ġumb rell
ĠH uff
Ġab uses
Ġam azed
Ġmanif est
ĠRal ph
p rom
Ġcorrect ly
ĠBul gar
inh ua
or mer
ĠW HO
ip h
Ġmin imal
k ers
ĠV iv
Ġ9 3
ĠEl vis
ĠOr der
ĠK os
ĠLu iz
Ġneed ing
Ġpage ant
Ġblog ger
Ġbelong s
ĠMarc us
Ġp uzz
ĠSh annon
Ġinsp iring
Ġt ang
ĠA ur
ĠD ays
og y
Ġcur ious
Ġwond ered
Ġcommand ers
ĠUg anda
Ġbip art
Ġc rystal
al t
ĠT ech
ill i
ĠP oul
P lease
p se
ad ise
Ġk icks
ĠCh or
Ġback drop
Ġpre jud
Ġwar r
ĠZ ara
mark ed
ĠSport ing
ĠGard ens
ĠDale y
Ġwas ted
Ġj am
Ġdown load
Ġbra very
Ġjihad ist
Ġconf ession
ĠWal ters
Ġfiance e
lass es
ĠS ou
ĠB ach
Ġtop s
Ġton nes
Ġsuperv ision
ĠMcCart ney
s enal
Ġex isted
Ġ19 45
Ġv oy
Ġout er
ĠHas an
ĠT amer
ĠD rog
Ġsp a
oun ce
Ġcred ible
Ġintent ions
ĠGabri el
N BC
ĠL uck
Ġnot ably
Ġbo ards
Ġprotest ing
Ġunsuccess ful
ĠAdela ide
Ġconst ructed
Ġsun ny
Ġspark ing
Ġhe ir
Ġun ity
ĠNew man
Ġbre ached
RE E
Ġr ack
et ing
Ġbus iest
Ġdr own
Ġrecord ings
ĠX inhua
ĠFam ilies
v ine
Ġf its
ĠT ry
st ory
Ġ' [
Ġcr ashes
Ġprior ities
ĠLeban ese
urea ucr
ĠP ayne
Ġpre caution
Ġdiv ide
Ġpaper work
ĠBrother s
9 8
ce pts
Ġatt itudes
Ġfun ctions
c ell
d el
Ġd ash
Ġne arest
Ġtr im
Ġgun ned
ĠStar bucks
Ġdisag ree
le ments
Ġ9 6
Ġtrans it
Ġprohib ited
Ġinher ited
Ġfict ional
Ġw ise
Ġcontr ac
atic ally
Ġroad side
Ġcoll ided
Ġrif les
Ġinf ect
Ġdi ary
Ġstreng the
Ġdis l
Ġhum or
b est
u um
al ia
Ġtr illion
Ġbl aming
Ġbul k
ĠEr d
Ġlabor atory
Ġoff ense
Ġcon j
Ġret iring
Ġrestr ict
ĠMuham mad
ĠS S
ĠO m
Ġreg rets
Ġwom b
Ġass essed
Ġcontr ary
Ġprov oked
Ġattract ing
Ġin fer
Ġret ro
Ġty coon
Ġmagn ificent
ĠMod el
Ġly rics
Ġl ump
Ġn erves
Ġre ver
Ġexp ort
Ġmilit ia
Ġexpert ise
Ġsche mes
Ġbo o
Ġrev ive
ĠJub ilee
ĠCongress ional
writ er
Ġdomin ant
ĠBian ca
Ġsurre nder
Ġa ver
ĠSh aun
Ġproud ly
Ġw aving
ore t
Ġun ited
Ġbus h
Ġpresent ing
F r
y t
Ġo rient
ar ry
Ġg or
ĠE state
ĠV ettel
Ġresp ir
Ġprocess ed
Ġrank ings
G M
G et
G ood
um ble
Ġdesc ended
Ġfail ures
Ġcul min
Ġon look
Ġpat ent
ĠBro oke
Ġperform ers
ĠDen ise
Ġalter cation
ĠR w
ĠR ace
Ġwho ever
Ġinst r
ĠDel aware
Ġven ues
ĠSant or
ĠEnvironment al
ĠPed ro
ĠC S
ĠH oy
Ġfest iv
Ġnegoti ating
Ġfiref ighter
Ġc ottage
Ġlaw n
Ġconf licts
ĠWhite hall
he rent
ĠD ig
ĠD yn
Ġcateg ories
ĠH av
Ġj ersey
ains bury
Ġaccommod ate
Ġlinger ie
Ġinstr ument
Ġex otic
Ġsw elling
Ġsand wich
ais y
ĠMed al
Ġstret ched
ĠMahm oud
in ian
ig ma
Ġpro stitutes
Ġcur b
Ġdisp ers
ĠBart on
enz ie
ĠF ry
Ġsal mon
Ġappoint ments
Ġth res
ĠP hel
ĠJ ak
Ġinst ances
Ġprosecut e
uk a
Ġtransform ation
ĠPieters en
r ons
ĠO w
under ing
Ġmillion aire
ĠBor ussia
Ġm im
il ation
Ġexpl oration
Ġf og
ĠS z
Ġat roc
ĠN air
Ġsal on
Ġelim inate
Ġn anny
ĠEx eter
Ġconc uss
keep ers
ĠHuss ain
Ġp als
Ġint ends
ather s
h is
q q
ĠJ od
ĠGu atem
Ġsal v
Ġpurs ued
Ġbik ini
ol ine
Ġplan ted
Ġdel icate
Ġspecial ists
ĠBroad way
Ġd ental
ĠH ack
Ġrel ent
Ġpolic ing
ĠGib bs
ĠJol ie
6 2
Ġprov ider
Ġcrit eria
Ġsil ly
Ġsurround ings
Ġcontest ants
ĠJav ier
W he
ĠS inger
ĠP od
em ia
Ġsh aped
Ġ10 1
Ġexam s
Ġdig ging
Ġh anged
ĠP ant
ĠP itt
ĠL ear
Ġprot otype
pr ints
uff y
ĠEll en
ĠBeck y
Every thing
ĠLincoln shire
Ġmour ning
Ġab ort
ind a
Ġacc um
Ġfac ilit
Ġsung lasses
t ree
Ġf iancÃ©
Ġun anim
ĠRe illy
n els
ĠS iber
ĠNew ark
Ġchampionship s
ĠCor rect
Ġvers us
ĠHond a
Ġflex ible
Ġp ouring
oc ide
ov an
ĠChe ck
ĠBoy d
Ġs lic
Ġmusic ians
Ġvill agers
Ġdark ness
Ġimag ination
Ġsuppl iers
is dom
The ir
Ġexp ose
ĠSur vey
ĠWal mart
Ġdeliber ate
ĠGil bert
s aving
ĠN ort
ound ing
Ġm ice
Ġout spoken
Ġinc ons
ne x
ĠJoy ce
Ġbound aries
ĠDrog ba
u y
Ġc ement
Ġtre k
Ġrefer ences
ĠU pper
ĠLe gal
Ġmake up
Ġelect oral
ĠJane iro
Ġstream ing
ĠAberde en
Ġp icks
Ġsqu ir
Ġkiss ing
Ġaccompl ished
Ġdiplom at
Ġthorough ly
on line
ar in
ott est
ĠRes erve
ĠW ould
Ġbail out
Ġmask ed
ger y
Ġmotor way
ĠMount ains
w ait
Ġo usted
ress es
Ġacc use
pt ions
Ġsl ashed
Ġindust ries
ĠCal der
Ġrent al
ĠDeb bie
Ġconven ience
Ġhoney moon
l en
Ġinf lamm
Ġdep endent
d ia
um bs
Ġsc ope
esp e
Ġhat red
ĠY ears
Ġdec ides
ĠCol onel
ĠShar p
W ill
Ġcl ashed
uff icient
ĠMy ers
Ġbit ten
ĠGuard iola
Ġgru esome
Ġin equ
ĠCh and
Ġ197 1
Ġappl ause
ĠMatthew s
Ġm ates
ĠW iki
ĠF ed
ĠNet flix
Ġlands l
ou g
pr ot
Ġjournal ism
ĠSupp orters
S em
Ġmem o
ĠHer rera
ĠBol t
ĠRobb en
Ġt aun
ĠC O
Ġart icles
Ġpers istent
Ġexhib it
es ar
ĠA w
Ġhel pless
Ġrel ate
Ġaggress ion
mo il
Ġgenuine ly
b ling
Ġf ug
ĠTh r
Ġsepar ation
lyn n
Ġb ureaucr
ĠY ang
Ġqu ad
ĠMcC ann
ĠEm ploy
ĠYemen i
N C
ĠK ick
Ġrec ipe
ĠGu inness
Ġnet ted
Ġt ally
Ġm ac
el ong
ĠV el
Ġaw esome
Ġic y
Ġalt itude
Ġfrag ile
F K
k ar
rib e
uff ed
Ġnarr ative
ĠBaron ess
ĠS ainsbury
ew itness
ens en
Ġhum our
Ġsal aries
fl oor
Ġplot ting
ĠRel ations
def ense
T r
a hn
Ġd ual
Ġpro x
per ing
Ġmar sh
ris k
boy friend
Ġd up
ĠA id
ĠB apt
ĠF alls
Ġtal ents
Ġdisp at
ĠGP s
Ġsucceed ed
Ġdolph ins
m ain
Ġthres hold
ich ael
s u
est ing
Ġcr acked
ĠFl oyd
for ward
ĠS ach
um my
Ġpl aint
Ġev ol
iz a
Ġutter ly
s qu
Ġj ungle
pl an
ĠSerb ia
Ġpe pper
Ġinvest ments
Ġsl ain
Ġpresent ation
p sy
Ġref usal
ĠCom mer
7 9
s pr
Ġm aj
Ġd ip
Ġbr ink
ut ter
Ġback wards
ĠMon roe
Ġfert ility
H aving
I nd
Ġh ilar
Ġy elling
Ġsal ad
Ġunivers al
igen ous
Ġsp rawling
Ġsw orn
Ġtourn aments
ĠLow e
ĠIV F
ĠHoff man
ĠW es
Ġfoot steps
Ġagree ing
Ġshar ply
ĠStat istics
E l
ĠThe atre
Ġfl owing
Ġdist ressed
Ġarg u
ĠHol iday
her ty
Ġwor s
Ġcl ips
ĠKle in
cl iffe
ĠGo als
Ġscream s
Ġhasht ag
adequ ate
is y
Ġh ockey
ĠSt ory
Ġencoura ges
ĠWin frey
ĠGre ene
Ġappet ite
ed uc
ĠD rive
Ġrece ip
att led
Ġspeak ers
os i
Ġ9 8
Ġ196 6
ĠDis covery
Ġequal iser
ĠBudd h
it ivity
ro ft
ĠN ike
Ġ9 1
Ġdesc ent
ĠCr icket
ĠW ait
Ġmisdeme anor
Ġt ents
ri et
ĠBut ton
Ġjihad ists
ĠIsa ac
Ġb ubble
ic ke
Ġdef ine
Ġrisk y
O K
od ka
Ġar son
Ġbl essed
Ġheart broken
ĠMal ala
Ġmonit ors
hy th
Le aks
Ġglam our
I G
Ġb und
ri ft
ĠP oy
Ġpain s
ĠAre a
g ov
Ġb iting
Ġl aughter
Ġr ats
Ġsp ider
ey ed
Ġcook ed
in j
Ġb aff
im ents
Ġup side
ĠTh ird
Ġmon key
ĠMiss ing
Ġenfor ce
Ġobject ive
w he
ĠP ars
Ġshoot out
Ġhon ored
ĠDomin ic
M us
rem lin
oz ni
37 0
Ġexperim ents
Ġconf ined
L ike
re z
Ġd ump
Ġse af
oll s
Ġjust ices
mond s
ĠL er
Ġfar ming
ĠBl ind
ĠIsrael is
ĠNaz is
ĠE W
Ġmourn ers
Ġb un
Ġm og
ic io
Ġhe m
ĠM ead
ĠL all
ak y
bel ief
ĠT el
ĠM ous
Ġwar mer
Ġtem pt
ĠKe ep
ĠP orter
og o
ph is
Ġind ul
Ġhard ware
Ġclear ing
Ġcoun ted
ĠPlay er
ĠErd ogan
ch anging
Ġro de
ĠGem ma
ick er
ĠLe x
Ġshel ters
ĠPhot ographer
Ġdeclar ation
Ġn aming
Ġoff shore
istr ate
Ġsp erm
Ġbl ows
ĠRob bie
Ġmeant ime
Ġsty les
ĠBelf ast
ĠC PR
ĠG or
Ġsh ipped
Ġpres erved
Ġster oid
ĠN aval
ĠG ur
Ġchar ts
Ġmeas uring
Ġwhere as
com be
Ġrib s
Ġhorm one
ĠMiddles brough
7 50
ĠAbb as
ch a
Ġout c
ĠLe o
quir y
respons ible
e ven
ar ound
Ġsk ipper
Ġdesc end
Ġvo iced
Ġpig s
% ,
ĠM obile
Ġanim ated
Ġclin ics
Ġsymp ath
ĠIvan ovic
b ull
Ġl anes
ĠT rou
ĠDu ell
H ING
Ã ±
Ġf etch
Ġlink ing
Ġdoub les
ĠCons umer
he ard
ĠT ara
ig s
ĠCar son
Ġhous ed
Ġdre amed
D uring
ĠD escrib
**** **
Ġfright ening
ic ular
ĠM ig
ĠCl ifford
Ġadvoc acy
L E
Ġw aved
Ġp and
ĠG C
ĠK ill
Ġint act
ĠLib rary
ĠAct or
Ġmeaning ful
Ġneck l
Ġfundra iser
an z
ĠB ass
Ġins ider
ĠMin i
ĠOut side
ĠFloren ce
g ical
ir us
te es
Ġsl ot
e em
Ġh ated
Ġsur gical
Ġlaun ches
Ġtom b
ĠEll iott
Ġtur moil
ĠLt d
Ġsubmar ine
oubted ly
Ġc alf
ur ry
av our
Ġelement ary
8 9
c am
f elt
ĠP ur
ĠRoman ian
Ġargu ably
f ew
ass ed
Ġteam ed
Ġpass ports
Ġang ered
ustr ated
Ġtow ers
Ġpro ves
Ġdisp utes
Ġcat walk
ĠLau rent
ĠLeon ard
ĠWrit ing
Ġadequ ate
ĠAthlet ic
ĠOccup y
C O
Ġal arming
Ġse gment
the med
ĠSan ford
Ġpool s
bro ok
Ġburn t
S ec
ph ies
ĠNorth ampton
Ġstation ed
Ġf ru
Ġse eds
ath ing
ĠRiver a
ens itive
Ġunder age
Ġsatisf action
Ġdish on
ĠD oyle
the m
Ġprost hetic
Ġinternation ally
Ġ19 20
ĠJud y
Ġcalc ulated
Ġd warf
ov ak
Ġend less
Ġconv incing
Ġpair s
Ġcat astrophic
Ġtoile ts
oty pes
m ia
ĠR ange
ĠLind sey
d ings
i ary
Ġde af
ĠâĢ ¦
Ġple ad
ĠPre vious
el ia
ĠW ozni
arm a
ĠTe en
ĠStan ford
ĠTele vision
ot ional
Ġdetail ing
6 9
Ġdis abilities
Ġspect rum
Ġtoler ance
ĠS ound
Ġal ley
Ġfl oral
Ġinv ite
ĠBen z
Ġlod ged
extreme ly
M P
ve z
st y
Ġv andal
od ing
ĠK ris
Ġrep airs
oot er
Ġsm ashing
Ġstab il
c ount
Ġst ing
ĠP ink
ĠL izz
Ġref uses
ĠWiki Leaks
il ateral
uc us
cent er
ĠStr ong
ĠJun ior
at ra
Ġb orough
Ġcon sole
Ġne at
alf ord
Ġqual ities
ĠL ad
Ġwound ing
Ġrecon cil
Ġseiz ure
pp ers
Ġrespond ents
ĠMos ul
Ġloun ge
os aur
Ġcontem pt
Ġseparat ists
is d
Ġmed ications
Ġrepresent ation
Ġconstitu ency
Ġcrocod ile
Ġs inking
ra k
Ġro d
ĠAust rian
ĠKim ber
ĠGro ves
Ġbl owing
Ġsm oked
Ġsent iment
Ġbi ography
Ġtouc hes
Ġregistr ation
Ġf ury
ev a
inc ial
gen er
Ġhal ted
Ġexped ition
I R
] .
Ġn iece
Ġhe ating
Ġad verts
ĠR ol
Ġunder lying
Ġgl ac
af ia
ĠLall ana
Ġ Ã
Ġgra ffiti
ĠRes ort
ĠReg iment
Ġentertain ing
Ġqualif ier
Ġunw anted
L ast
Ġha ird
os ity
au er
bl ack
on ial
st orey
ge on
cl air
Ġheav en
p y
ĠR id
ition ally
Ġdec isive
ĠGold man
Ġgym n
Ġelev ator
ĠSalv ador
Ġint ake
ne um
Ġnew est
qu iao
Ġout lined
Ġun born
Ġass embly
Ġsepar ately
Ġoccas ional
Ġcaps ule
n al
Ġd ear
Ġover head
Ġdist ricts
ĠSte in
Ġcoll ar
Ġbank er
Ġconst ruct
ĠSchool s
Ġpers ecut
Ġgorge ous
ĠI p
Ġle aks
ĠSh ip
Ġgra bs
Ġaut obi
ĠReg ional
Ġle aking
iers hip
Ġround ed
Ġ196 5
Ġdism ant
a very
ĠS of
um mer
ĠRed d
Ġbeg ged
Ġmechan ical
Ġbipart isan
e er
man ned
Ġshel ling
ĠDev ast
F irst
ĠD rew
ĠWest wood
Ġmis ery
Ġsan ction
Ġfor ming
ell s
Ġstr ongh
ĠPort o
Ġbal anced
Ġpen is
ĠRub io
Ġlad der
o oney
en ko
ĠS ag
ĠY aya
lin son
ĠLi u
c ts
Ġc ogn
le m
ĠP un
Ġaccess ories
Ġaccept ance
D r
Ġthe r
Ġtr icks
Ġfact ories
Ġpick up
ĠMic he
P h
ĠCh amber
ĠIn j
ĠT ina
ĠS r
ĠS add
Ġreop ened
ĠBrew er
ĠN ative
Ġso aring
ane ously
Ġiniti atives
ĠCraw ford
ou ver
ĠL ud
Ġkill s
ĠBrit on
Ġsign ings
ĠMem phis
ĠSqu ad
Ġsque ez
Ġvit amin
ar is
ĠG az
Ġrep ublic
Ġaut on
Ġmater nity
ĠJac qu
ĠS P
Ġcol ors
red it
any e
ĠTr acey
uls ion
Ġec st
ĠTamer lan
espe are
ĠW ag
Ġag ony
Ġcount ing
Ġcourt esy
Ġadministr ator
Ġspell s
Ġmole c
ĠCharl ton
ĠAri as
Ġast hma
Ġinterrog ation
Ġsupervis or
Ġ /
Ġto re
ĠKath leen
sign ificant
Ġv end
Ġbr idges
ici ary
w ark
ĠEr in
Ġsculpt ure
Ġrit ual
ĠBapt ist
Ġc ries
ĠN CA
ĠG os
Ġback pack
Ġmisc ar
Ġtrick y
Ġpubl isher
ĠN on
F O
ir it
ĠD aisy
ĠL ate
iv ated
ĠD ana
ĠW elling
Ġcur tain
Ġfootball ers
Ġsuit case
ĠLes lie
Ġswift ly
Ġware house
r ams
w ic
ĠM ult
Ġtr aced
Ġtro phies
u v
ĠC esc
ĠR ap
ĠK or
ĠTre v
ag ged
ĠF REE
Ġnot able
Ġter rain
Ġpull s
Ġdeleg ation
Ġincor rect
ĠMoroc co
ĠC ash
Ġser ge
S outh
p ine
Ġc ans
all ah
so ever
Ġsc orer
ĠEn t
Ġprot ester
Ġmen ing
Ġworth y
Ġrock ed
âĤ¬ âĢĿ
w atch
Ġd ense
Ġex ter
Ġup held
Ġover th
Ġtra p
ĠAn aly
Ġche ering
Ġmob ility
Ġ196 2
ĠVer mont
Ġovers ight
Ġh ills
el ve
Ġattend ant
ĠAbd el
Ġbathroom s
Ġsail ors
ĠBald win
ĠV ald
Ġcar riage
Ġend uring
Ġorgan isers
ding ton
ĠAct ress
Ġlic ensed
Ġhonest ly
rend ous
Ġgovern ors
Ġb og
ĠC ond
ter bury
Ġsu cc
Ġad ul
ĠV anc
az er
Ġextra v
tr ack
Ġske leton
Ġdyn amic
6 7
ab il
Ġfr action
Ġunf olded
ĠHondur as
ĠH il
ĠMar cel
Ġsign atures
lin er
Ġvill a
Ġcontain ers
ym ph
ĠKo eman
Ġdispos al
Ġsc ars
Ġche ered
ĠSouth west
Ġemb ry
ĠNeighb ours
Ġvib rant
g s
Ġsp ying
ĠK in
Ġimp osing
Ġinj ections
Ġfocus es
Ġliter ature
Ġcar ved
Ġsick ness
Ġshall ow
ĠAlf red
f il
Ġp anc
ĠP ack
ĠJ ob
ĠO tt
br id
ĠKn ights
in ery
Ġp ic
ĠM ort
ĠR av
ĠLe igh
Ġobs ession
Ġd iox
ĠB un
ĠHam mers
Ġdemonstr ates
Ġtrib e
Ġcart els
Ġwal let
ĠCop y
ĠQuest ions
Ġo ught
sh ow
row s
ĠRef ere
ĠAj ax
r at
ĠH app
ore st
Ġam endment
ters on
Ġins ult
ĠHum ph
ĠJeff erson
ĠS W
ĠF ein
oc ate
Ġbr ides
Ġend ure
Ġmo ist
K A
ĠP roud
Ġhead aches
Ġinst inct
s burg
ĠW oman
op y
duc es
Ġoff ended
ĠY ous
Ġcard i
ĠR ico
ĠE C
Ġsc or
Ġwhat soever
Ġhands et
Ġvac uum
ĠSa unders
Ġmet re
Ġtun nels
ĠSantor um
ĠPac quiao
Ġmart ial
ĠBeaut y
ĠCambod ia
mort em
M anchester
ome z
Ġcapt uring
d uty
Ġch ic
Ġres il
ric ulum
ential s
Ġrespir atory
ĠS ed
Ġbeh ave
Ġcheck point
ĠK remlin
Ġph oned
Ġcomm uters
Ġlaws uits
ĠJohan nes
R ight
Â °
Ġl amb
Ġsl ogan
aff er
ĠF ear
ĠN obody
book s
Ġhur ting
ĠBol iv
Ġtex ting
Ġcontem pl
Ġho ax
Ġorient ation
Q ue
be it
Ġpress ures
Ġeconom ist
Ġlow ered
Ġp neum
ĠW ing
Ġv est
ĠU pton
ĠEn forcement
ĠZ ar
Ġcre ep
Ġgrab bing
Ġrevolution ary
ĠShak espeare
s upp
em bl
ily n
ual a
Ġgen ocide
ed e
Ġf t
Ġch ick
Ġkn ot
lo ading
ĠKore ans
ĠRand y
t or
ĠC any
Ġdoll s
zh ok
ĠFut ure
s uper
Ã ĥ
ĠW id
ie val
ĠSt arr
Ġsmall est
ĠMod ern
ĠMull er
ĠVanc ouver
D espite
ent h
and ro
ĠR emy
Ġmis leading
Every body
Ġcanc ell
Ġvolunt arily
P al
Ġl ob
Ġst ap
Ġle an
Ġoff ending
ĠSp ot
Ġpil gr
Ġconclus ions
ĠLis bon
Ġmin ers
br ance
Ġcommit ments
ĠFar rell
Ġpo ised
Ġhistor ian
c ourse
Ġs idelines
ĠN ou
Ġcom r
Ġfl ame
te gr
ĠGer ard
Ġpen et
Be fore
Ġres erves
aim s
ĠKel ley
Ġdisc ount
Ġp ard
as se
ĠC ord
op ic
te acher
Ġball oons
ĠSer ena
ĠDew ani
ĠConc ord
ĠHollow ay
I E
Ġhe n
Ġagre ements
Ġoblig ation
ĠJama ica
ol fer
th ird
Ġres emb
Ġinc omp
Ġinvest ing
Ġsl ave
Ġsexual ity
Ġroll er
ĠKer cher
Ġjewel ry
e u
ĠC ock
em ade
ĠUs ers
Pr ince
ĠBurg ess
he id
ĠL aud
ĠV ince
Ġadministr ators
Ġimpro per
Ġpredomin antly
ĠC umbria
ra vel
Ġtr aces
Ġsw ollen
Ġfear ing
Ġreven ues
Ġd ancers
Ġun related
Ġmin ors
off icial
Ġachie ving
Ġcounter part
Ġrecomm ends
Ġloyal ty
Ġque ue
u ire
ĠM eth
Ġassist ing
Ġcab les
Ġsan ctuary
ĠVis itors
ĠMack ay
ĠGlouces ter
Ġseiz ures
Ġrehe ars
Ġal tered
ĠW onder
Ġsh ifts
Ġfl ip
Ġport raits
ĠArab ian
ON D
ĠLeon ardo
z ek
Ġgar bage
ĠGall ery
G u
im ated
Ġby pass
Ġpat ience
ĠWhit ney
ĠFre eman
Ġexha ust
Ġab und
Ġen abled
Ġro omm
Ġarrang ement
Ġcomp elling
Ġbl asts
Ġshoot s
ĠBark ley
h ans
u ously
br and
ĠZ oe
Ġelect ronics
Ġded ication
Ġhilar ious
oss ip
ĠSp ect
Ġsit uated
Ġprin ts
Ġcub s
Ġsponsors hip
ĠB rett
ud ding
Ġ19 44
duct ive
Ġadvert is
Ġforg ive
f ol
Ġcont ing
Ġsur pass
Ġgra ph
Ġmis erable
Ġfalse ly
b ad
ĠD zhok
ĠF ame
Ġhabit at
ĠAlb ion
re ported
ĠY ellow
Ġair space
Ġthank ful
Ġhed ge
d ated
Ġcl ay
Ġshow down
Ġsm ok
Ġemer g
Ġtor ch
ĠColumb us
Ġbik es
p aid
Ġto e
ĠS ep
Ġsn atched
Ġadm ir
Ġut ility
Ġneglig ence
b ach
ĠF aith
ass ing
ĠSh ocking
sw ich
ĠVict ims
Ġexplo itation
eart hed
en er
ĠF uk
ĠSt re
ĠBr anson
Ġless er
ĠCan terbury
Ġfrank ly
qual ified
ro d
Ġwor ship
ĠV II
ĠBar rett
Ġver bal
Ġrain fall
bl ood
Ġgrad uation
ĠBet ter
ĠN ice
Ġsil k
bu ilt
Ġadap ted
ĠSt ore
ane ous
Ġbow el
Ġforth coming
ĠSc iences
Ġspons or
acc ur
Ġprecise ly
c os
r ine
Ġbe gging
Ġout look
ail able
Ġsc andals
Ġinter act
Ġmagn etic
Ġsque eze
eli hood
ri ans
Ġpro state
Ġrep eal
ves on
ĠDown ton
Ġheight ened
Ġru in
Ġtheat ers
Ġinher it
l ove
Ġc ove
Ġp engu
ĠS ource
ag her
ĠV ic
br idges
Ġlist ing
Ġimm unity
ĠHol t
ĠEcc lestone
ĠPars ons
f ires
ab lo
se at
ov y
Ġjud gement
Ġsum mon
Ġcast ing
Ġextrem ism
insp ired
ĠChor ley
B erry
ĠA ub
ĠM itch
ĠL ower
ĠF ay
Ġv odka
et heless
ud a
Ġalle ging
Ġdevast ation
lec ito
gi ene
l it
ĠT ian
red ict
Ġmar rying
t ake
Ġover looking
ĠNew port
Ġrest raining
Ġsn akes
Ġcross es
Ġcand le
Ġcongress man
il ty
Ġham string
ĠOrgan isation
ĠSin clair
ĠHans en
L ook
ĠF em
Ġsl avery
Ġposs ess
Ġnovel s
m iss
ĠC ould
Ġmid st
ĠInc red
Ġp add
Ġd aring
Ġsw ord
Ġtack led
bu ilding
AS HING
6 4
Ġrele ases
Ġart istic
t able
ĠC ec
Ġst yl
Ġinter action
Ġboy cott
ĠPlay ers
Ġcler k
ĠCarn ival
in stein
Ġc ows
ĠG ut
ĠK anye
Ġman hunt
Ġperf ormer
omp any
ĠGC SE
ĠF ind
Ġpr iced
ĠV IP
ĠDam ien
i ya
Ġh ike
Ġden ial
Ġstret ches
icip al
Ġconce aled
Ġseas ide
Ġdiox ide
Ġout going
Ġbl essing
Ġclos et
1 30
U Z
Ġh ottest
Ġre ef
ust ers
Ġres ource
Ġbr ig
ĠRe ady
abs olutely
ĠC inc
ĠV ine
ĠSky pe
ĠS em
ĠG omez
Ġstar ing
Ġcorn ers
ĠMug abe
ASHING TON
ar ts
ab ling
Ġparen ting
Ġfore head
Ġval ley
Ġanalys ed
Ġrecommend ation
ĠKo h
Ġdisgr aced
Ġprol ific
Ġeval uation
t urned
Ġdam ning
arent ly
Ġrelax ing
Ġwire less
mid t
Ġred und
Ġsuper ior
ĠCom pl
ĠStand ing
ĠTh ings
Ġtouch down
Ġintention ally
ĠPier re
ĠFow ler
ĠS ne
ĠU A
Ġcand y
Ġang el
ĠProt est
Ġsovereign ty
od a
Ġdef ault
ĠBar r
ĠPart ners
Ġmath s
Ġst iff
ĠP ra
ĠD ixon
th ood
Ġout let
Ġschool boy
Ġiss uing
reg ular
Ġconclud e
ĠSale h
Ġcon vey
ĠF ant
ĠE ye
Ġse ize
Ġpl ac
ah an
Ġplatform s
Ġdeleg ates
b at
it ans
ĠD h
ĠN ar
ĠN ass
Ġcamp ing
ĠSch neider
ĠKu wait
Ġhomosexual ity
ĠEx change
ĠSol lecito
ĠBark er
ĠCopy right
Ġsl ice
ĠDet ails
Ġwilling ness
ĠDerby shire
as a
ĠH ell
be h
Ġhar bour
Ġspons ored
ĠCany on
ĠM ental
ĠP ain
ĠD iet
Ġpart ial
Ġcar c
sh op
Ġdet ection
ĠSouth wark
pe ople
Ġregul ators
Ġdiver ted
ĠP ub
ĠE y
Ġ12 5
Ġlik elihood
Ġbackground s
Ġemp ower
ĠB ene
Ġpro stitute
ĠLe ah
Ġart illery
Ġbot ched
Ġment or
Ġcooper ate
Ġreun ion
Ġadminister ed
Ġwh ites
Ġpro jected
Ġpack aging
Ġjur isd
ĠWat kins
Ġgest ures
ĠI ain
ĠRe y
Ġhold er
ĠWork ing
ĠIp swich
Ġf ist
th am
ĠCare y
8 7
en os
ĠV ery
Ġimp acts
Ġdep icted
Ġserge ant
ĠT oni
ĠR other
Ġeduc ate
Ġswim mer
ĠBos nia
Ġs wo
ĠM anc
ĠH ir
Ġgr in
Ġtrans mission
Ġpar alle
ĠMarc os
Ġcolumn ist
Ġautobi ography
f ood
ĠH oms
ĠJ agu
Ġapp le
cept ions
Ġbar ric
Ġcomment ator
Ġbreast feeding
ĠNep al
6 3
Ġ :
ĠS alford
ĠP or
Ġra ins
ĠZ ach
Ġthreat ens
ĠCur iosity
ĠLy on
ĠLev y
Ġshell s
Ġpure ly
Ġl aps
Ġg y
ĠC itiz
ĠR iv
hol m
Ġfre ak
Ġrecru iting
ĠB od
Ġlif ts
Ġund oubtedly
ĠTan z
S mith
b uster
c ourt
Ġd od
Ġpar ish
Ġmod ified
Ġhold ers
ĠDomin ican
c ould
ĠG ifford
Ġsupp lement
ĠWil kinson
Ġemb ro
Ġexperim ental
I F
ĠShe pherd
Ġhy ster
Ġun earthed
Ġinf licted
ins ky
ĠGe a
Ġcapt ures
Ġoccup ation
k h
l ifting
Ġp iano
ĠR at
ib i
Ġret ained
Ġsever ed
ĠSch oles
Ġcup s
ĠHard y
ĠPear ce
ĠStef an
U R
s ocial
ĠL ough
Ġsur rend
olog ically
ĠFor um
ĠMy ster
Ġpret ending
ĠEth an
Ġcycl ists
ĠUl t
ĠS kin
Ġglob ally
ĠStr at
al ke
ĠS aw
Ġch anting
Ġcan al
Ġsun light
Ġlearn t
ĠFall on
am il
Ġexp orts
ĠBl u
Ġhandcuff s
d isc
f ix
Ġh obby
ĠB ac
ĠK ids
Ġprin ting
ĠAut umn
Ġserv ants
is i
Ġl ads
ĠP i
ĠJ orge
ĠSy ndrome
do ors
Ġat op
Ġconn ecting
Ġroll s
Ġunp opular
Ġdiscl osure
ĠIbrahim ovic
Ġkilomet res
h ou
ĠD A
Ġres umed
Ġgr ay
Ġtop ics
ĠChe ney
ĠPan ama
ĠCyr us
ĠAZ UZ
ĠRefere e
Ġab normal
Ġday light
ield ing
Ġdra gging
ĠClin ic
Ġsurf ing
ĠAud i
N obody
Ġc af
Ġp iled
im an
Ġse ated
Ġind oor
ĠTr ad
Ġtur key
squ are
r ays
re ement
Ġn ails
Ġwork force
Ġsm iled
Ġrock y
Ġchat ting
Ġenh anced
on ge
ĠG ang
ens ing
Ġey el
ĠSer bian
Ġbur ger
Ġevac uate
Ġsect arian
N D
ĠM orm
ud dle
Ġpart isan
Ġext ending
Ġ9 7
con n
Ġcred entials
Ġpur ported
inn ati
Ġsatell ites
ĠDzhok har
Ġw isdom
Ġl oses
ĠC H
Ġte aches
ĠHar riet
ĠK em
Ġwork out
Ġcol oured
ĠCl ooney
Ġed ited
Ġten ure
Ġbudget s
ser ious
er k
ĠB le
Ġtra gically
Ġchar itable
ĠCl ive
Ġlack ed
Ġhandcuff ed
Ġencl osure
c ross
f irst
u i
ĠJ agger
ĠSt ones
Ġcampaign er
Ġcru c
Ġobs erve
ĠSand ers
ĠDes ert
f in
l ade
re ason
Ġmil estone
ĠCam bridges
ĠIndepend ence
Ġlone ly
H ere
ĠT ests
ĠG ear
Ġdis asters
Ġfe ud
ene g
ĠZ ah
Ġeff iciency
ĠBo at
iffer ent
Ġgradu ates
l oss
le ader
ĠS afe
th an
ered ith
ĠPar ish
ĠIndian apolis
Ġwel coming
ĠDutch man
ĠPhel ps
ĠD w
ĠD ancing
Ġr ows
Ġshow case
ĠBr ight
ĠHer oes
ĠAtt ack
ĠOsc ars
f ashion
t ures
Ġb isc
ĠLe y
Ġtrad itions
Ġsens ible
Ġpo orest
Ġru ins
ĠFalk lands
p en
ĠS or
Ġsp at
ber y
Ġno on
Ġquick er
ĠKar im
ĠOxford shire
H ope
Ġab ilities
iec es
ĠTy son
Ġp enny
ur rent
Ġout bur
Ġacc l
ĠBron x
Ġgren ade
Ġcaut ious
d ev
ĠS ure
ĠH ig
ĠF lying
Ġsuccess ion
ĠSyri ans
Ġexpect ation
Ġhomeown ers
Ġsh ine
Ġ9 4
Ġens ured
Ġtoug hest
Ġgadget s
Ġeyebr ows
ar at
Ġg olfer
ĠW ake
Ġfin ale
ĠSe vent
Ġver ify
Ġappl ies
Ġpension ers
Ġescal ated
Ġh inted
ĠC T
ĠB it
Ġpred ators
Ġmist ress
angu age
ĠRh ode
D e
p oints
or ity
ar ter
Ġm ouse
ĠN urs
Ġad am
ĠAn ger
Ġfound ing
Ġholiday makers
Ġbol ster
Ġtu ition
K ahn
Ġcomp aring
Ġinvestig ative
Ġsn ack
ĠOver all
S B
Ġatt ach
Ġcur few
Ġmag ical
ĠGir oud
m ay
ain i
ast ically
Ġposs essions
Ġobs ervation
Ġwrest ling
ĠS we
Ġex agger
Ġign oring
ĠBet ty
Ġgentle man
b ol
g ay
âĢ ĵ
sh aring
Ġdra fted
Ġp ear
Ġm ant
Ġconsequ ence
ĠRem ember
ĠMaur icio
in ental
Ġw ool
Ġm ocked
ĠL ost
ret ion
Ġgen ius
ĠMin utes
Ġaltern atives
Ġmechan ism
Ġsequ ence
Ġdi arr
Ġund ocumented
ĠAg ric
Ġm ature
Ġsupp lier
az y
ĠNap oli
Ġpostp oned
l oved
Ġb rawl
ĠC D
ĠC ala
ĠH ost
ĠL ip
ĠF a
ber ger
ish ment
ĠLaw yers
Ġregul ator
ĠP ors
Ġtact ical
Ġtab lo
l at
ĠG and
ĠG ore
Ġsp ite
Ġqu ote
Ġmon ument
ĠDaniel le
ĠC omb
Ġst akes
end o
act ory
ĠCinc innati
ĠM oor
ĠJ FK
Ġeconom ics
B oth
B eing
Ġt ill
ĠBur ke
Ġpin ned
Ġcounsel ing
Ġrecru its
ĠConf eder
h s
ĠS ugar
ce ans
Ġcl ue
ĠFred die
Ġres id
ang le
Ġsl aying
Ġcanc ers
ĠPoul ter
Ġb acon
Ġe ve
ĠB our
os henko
ĠMar ilyn
is se
ol son
ĠF ighting
ĠG ul
ould er
head ed
Ġhom emade
Ġstrik ers
Ġrespond ers
Ġansw ering
Ġsetting s
Ġcomprom ised
W ASHINGTON
ĠQ ual
quir ies
ĠGav in
m ary
Ġha v
ĠE ston
Ġor b
Ġcler ic
, âĢĿ
ĠAll an
Ġpen insula
Ġinfect ious
Ġonlook ers
Ġb ailed
Ġm att
ĠB uch
ĠL oren
ĠAnd er
ĠMore no
ĠBlack Berry
n ock
ĠT ru
ĠR BS
Ġde hydr
ian ces
ire z
Ġfr on
ĠZ el
ĠCup s
gen eral
Ġkidn app
Ġengulf ed
Ġg ust
ag ine
Ġex em
Ġj elly
out ing
Ġtrans mitted
ĠBulgar ia
th odox
ĠF ew
Ġgr ades
Ġem bed
ck er
ĠNews night
Ġstep father
Ġbid s
ĠOffic ial
Ġelim inated
ĠFif ty
m i
m ist
ĠB og
ĠN ina
ĠCon nor
Ġbot hered
Ġfaith ful
char ge
ĠSant iago
ĠPoy et
ĠS ave
ĠS eth
Ġal beit
ul ances
Ġgl oss
cl ock
Ġstim ulus
ĠF resh
Ġoff enses
Ġage ing
ome ter
Ġmess aging
Ġconfir ming
Ġplag ued
Ġmotorb ike
ĠK um
Ġmass age
ĠMil es
Ġstra pped
Ġapplic ants
Ġencoun ters
ĠHy de
ĠAur ora
Ġt am
Ġc udd
ĠT O
ut ical
Ġpl ots
Ġwar fare
ĠRo ch
Ġgoals c
ĠDar win
ĠAcc used
Ġsens or
ig ation
ĠL ucky
ru gg
ĠVenezuel an
Ġrevers ed
Ġsou p
ĠO val
Ġun manned
Ġdis respect
Ġsim ult
Ġtrib es
Ġprotest ed
ĠPhot os
ĠWelling ton
Ġembro iled
ig o
Ġevent ual
Ġdist urbed
Ġuns ure
ĠKaz akh
m l
ar cer
ĠM iley
her ic
Ġtr unk
Ġcons ulting
Ġfr aternity
Ġtrans actions
Ġdisp atched
ĠRick y
ĠRub y
ĠIss a
f at
ĠM eredith
ĠG aga
og s
ĠLe veson
eff ective
ĠCu omo
ĠT alk
ĠA FP
Ġprov isions
ĠHel mand
unning ham
Ġmerch and
em ics
Ġr ushing
Ġinc umb
ys c
ĠFl owers
Ġpsychiat rist
Ġ vert
Ġf olk
or ient
ĠC out
ard i
oc us
ĠWy oming
Ġl am
am y
Ġst al
ish ops
Ġdec lining
Ġbel ly
Ġpop ulated
ĠNo ah
ĠAngel ina
GB T
C R
L os
Ġwh oles
Ġup s
ĠCl int
Ġsusp end
pe ace
Ġhom ophob
Ġcreat ivity
Ġhar ness
ĠLuk aku
ing o
ĠAl berto
Ġcolle ges
ograph s
c overed
ĠU ber
Ġself ies
ĠBer cow
Ġphys ics
Ġwed dings
Ġhun ters
Ġbru ising
us ch
Ġcar er
Ġform at
Ġfat igue
ĠSpe ed
Ġsand wic
ĠLy dia
ĠRel ief
ĠYan uk
n ame
an iel
ab ilia
Ġpeace fully
Ġcontroll er
Ġenthusi asts
Ġretal iation
ĠF ac
Ġup ro
Ġchar ter
ĠMar ina
Ġsl og
hold er
ĠNair obi
it ably
ĠR as
ĠR aul
rit is
Ġlack ing
ĠSav annah
cont rol
ĠOpp osition
ĠTowns end
b ottom
g reen
ur ous
act ic
ĠClass ic
at able
an throp
ag in
Ġout law
Ġprot ocol
ĠProsecut ion
Ġtoler ate
ĠBrun o
Ġoutc ry
Ġg reed
Ġr uth
Ġcont ention
ash i
Ġsub mer
ĠMor ales
ĠNe g
Ġphys i
Ġinfl ux
bor o
Ġintellect ual
Ġth read
ad der
ĠB oss
th y
ag ging
Ġr ug
um ption
qu in
ĠDan i
Ġalbum s
v ic
Ġass et
room s
Ġcand les
Ġur anium
OR E
Ġarr ange
ĠViol ence
Ġpneum onia
ple x
Ġsw ap
Ġran ch
S te
ĠA fford
ĠF E
Ġposs ibilities
ĠCor respond
Ġprolong ed
Ġsquir rel
Ġt ender
Ġr ash
Ġab ol
ace utical
per ial
ult y
ĠZ ur
Ġpop ped
Ġstret ching
9 7
Ġ âĢĻ
Ġby stand
Ġcult ures
Ġairl ifted
Ġtraum at
? âĢĿ
Ġn a
Ġr hyth
ĠAl leg
ten ham
com es
Ġlo ads
ĠPeters burg
Ġvigil ant
Ġb ored
Ġv ibr
Ġpart ying
Ġclean ed
F ar
l io
Ġsub tle
Ġmat hem
ĠStr ict
Ġfrequ ency
b ank
ĠD iaz
ond a
aw ays
ĠSh op
Ġasp iring
Ġcha otic
ĠGay le
Ġadvis ory
a que
ack i
Ġsp ear
Ġpr one
aj o
Ġhor rendous
ĠPrem iership
Ġabd omen
Ġrel ied
ĠWh atever
ĠMail online
p ost
es are
ĠL ov
Ġpri ests
ĠTer min
Ġlength s
ĠThrough out
ĠKas em
Ġmog ul
Ġt ends
ĠH anc
ĠD art
Ġass embled
Ġcommun ist
Ġpri zes
Ġcerem onies
Ġremark ably
Ġdiamond s
ĠC umm
Ġan a
ric ate
Ġtechn ically
Ġtw isted
Ġvol atile
ĠWat ts
worth y
ĠCorpor al
prising ly
Ġg ast
Ġsa ves
ĠG ate
ĠFor rest
Ġcou ch
Ġlif elong
Ġinequ ality
Ġprev al
ĠSher wood
Ġswitch ing
Ġemphas is
Ġt elescope
as ar
ĠP ensions
ĠR um
Ġtake over
re ach
Ġdom inate
ĠSn ap
t ails
as ive
Ġsh ifted
ĠK ompany
Ġend anger
Ġprom in
Ġqual ification
ĠBeh ind
Ġintox icated
ĠSadd am
un ks
Ġinter active
Ġgl ow
Ġfore sts
ĠSu ccess
Ġpictures que
amb led
Ġver ge
Ġbrut ality
Ġstro kes
Ġenthusi astic
ĠUnivers al
l ake
er ting
ĠC ly
lo ving
ĠMid west
ĠRad amel
Ġeth ical
Ġhook ed
Ġst umbled
us k
ist ically
ĠPat terson
ĠiP od
Ġoccur ring
Ġbroadcast ing
Ġdeterior ated
Ġl ending
ĠMont real
ĠCoul son
ĠF ury
ĠBut t
ĠSc he
Ġcons ulate
omm on
Ġfix tures
Ġpal m
ĠOliv ier
Ġun healthy
ĠTom as
ĠHun ting
Ġsidew alk
e ve
Ġs upreme
ĠShe ll
Ġexplo it
ĠDid ier
ĠPlan et
ĠP ont
per fect
let te
Ġintimid ation
Ġst all
Ġste ering
ĠHung ary
P er
g art
r h
Ġt ed
Ġp int
el in
ĠH ours
ĠG am
Ġac cepts
Ġpar aly
Ġport ions
Ġinterpret ation
Ġo we
ur able
Ġsl apped
Ġremain der
Ġconcer ts
ĠTr ue
umber land
Ġadj our
ĠMig uel
ul in
Ġcons ists
ĠGr ade
ĠBren nan
ĠAfford able
Ġin k
ĠT ul
ĠM um
ĠH ab
Ġres usc
Ġconsider ably
Ġslow ed
Ġaccur acy
Ġdepos it
Ġdies el
at hetic
Ġp enc
Ġl in
Ġad verse
Ġad orable
Ġcar p
app ointed
ĠWar ning
ĠPat erson
Ġsafe guard
Ġlaugh s
Ġinsurg ency
Ġprov incial
raw led
Ġattend s
iest a
Ġforg ot
Ġenv oy
Ġun av
oll o
Ġget away
Ġra ft
Ġsub d
ĠFl ores
Ġhor rifying
Ġentreprene urs
n on
ĠR ot
ĠR aw
Ġinc arcer
ĠV ers
Ġinter cepted
ĠJohn s
Ġcompet ed
ĠVen ice
ĠC PS
we iler
ĠDe e
ĠMin ne
ĠChan el
Ġorph an
Ġd oses
us ions
ĠF i
Ġr ational
Ġcustom s
Ġmotor ist
ĠDou ble
Bl ack
b les
ir ational
ĠY ale
fore st
Ġinter rupted
Ġesc aping
U T
ĠP ablo
Ġsh am
iz ard
ĠGu ang
Ġpolic emen
ĠThom son
Ġadvert ised
Ġsight ings
Ġwhistle bl
Ġreiter ated
Ġservic emen
iv est
Ġpat ri
ĠTer esa
Ġattract ions
Ġking dom
Ġfisher men
Ġaccompany ing
ĠHeb do
E E
b ably
Ġas hes
ain ing
Ġinj ust
Ġbro ker
clus ive
Ġcongrat ulated
Ġagric ultural
t aker
w ords
ĠV ent
Ġcons ensus
ĠPl aza
Ġshare holders
Ġcollect or
tr ue
ĠTon ight
Ġd azz
Ġwe pt
Ġ20 22
ĠBur ger
Ġrum oured
at ri
Ġcon cess
ĠK ee
Ġent ers
Ġcomb ine
Ġmigr ant
ĠCommun ications
Ġmos qu
p resident
v ia
Ġ iv
Ġp ork
ĠA ires
ĠR acing
Ġafter ward
Ġapp rehend
Ġsn acks
ĠRos en
Ġsuspic ions
Ġfortun es
Ġto uring
ĠC aught
ĠSt op
Ġpot ato
ĠChel tenham
Ġgreen house
Ġcaution ed
ĠUr ban
C ap
Ġc akes
Ġm ush
Ġl ured
ri o
Ġv on
ting u
for man
inc ome
ĠVal erie
Ġstre ak
Ġreass ure
Ġlun ar
Ġo ath
ct ional
Ġcool ing
ĠLuk as
ĠParalymp ic
V I
d et
Ġt in
Ġr ude
Ġbed side
Ġuns afe
Ġign or
Ġaggress ively
ĠC unningham
Ġj umper
ant i
Ġdis ad
Ġbeing s
Ġinter f
ĠLe go
ah aw
uth an
ĠWilliam son
ĠSch alke
ĠEv a
ĠMajor ity
Brit ish
ĠNash ville
Ġmening itis
M ad
Ġprocess ion
for ced
Ġconsum e
ĠOld ham
Ġprosp ective
s es
Ġd airy
Ġre lying
ĠH D
Ġfore casters
Ġrem inis
ĠAnd ers
ĠDavid son
viron ments
Ġunus ually
Ġmort ality
ĠFel ix
is man
ĠS lam
Ġv iable
ian i
per ate
ĠSy lv
Ġsol ved
ĠRh odes
ĠBuckingham shire
Que en
ĠM au
ĠHar bour
Ġborrow ing
Mus lim
ad ic
Ġy elled
Ġdown stairs
ham pton
ĠAd vent
ĠX I
c ock
Ġp ent
ĠB ony
ĠG iants
ĠJ ihad
Ġdis par
Ġaw ake
Ġdiv isions
Ġcorpor ations
Ġfare well
Ġperpetr ators
j e
Ã ¡
Ġb end
Ġl ur
Ġav al
Ġrall ies
z man
ĠTh ink
Ġbl ade
ĠMill ions
ĠDen is
ĠNat o
D onnell
l ights
Ġre ct
ĠA K
ĠH ospitals
ĠPh ys
ĠPar ks
Ġrisk ed
ĠCons ervation
Ġtask ed
Ġscre ened
Ġrans om
g ary
ĠH utch
ili ating
ĠP ew
ĠJ in
Ġen rich
ĠAm ir
ĠInter state
ĠPan etta
ĠBeat rice
Ġinstall ation
er ness
am ework
Ġup grade
Ġall er
ĠHe at
ĠY az
Ġaccount ability
ĠPat el
Ġperform s
ĠOf sted
Ġhistor ically
Ġrap ist
Ġerup tion
Ġdecre ase
ĠCambridges hire
Ġb ureau
Ġin adequate
st ill
Ġg ifted
art a
Ġsl opes
ĠCar ole
Ġlav a
ĠJohannes burg
ĠRother ham
Ġb ark
is closed
it ants
Ġp ie
Ġbe ans
ĠM ald
Ġha il
ch at
Ġbirth s
Ġseek ers
ĠFranc o
Ġfresh man
ĠNa omi
Ġd amp
ri ors
ĠL em
ĠRoll s
lar gest
Ġaccord ance
Ġculp rit
Ġwarr ants
p il
Ġg rain
ĠL il
Ġinf ring
Ġprogress ive
Ġimpl ant
ĠMinne apolis
M ichael
ĠH udd
Ġgen et
Ġprob able
ĠVan essa
ĠElect ric
C ham
Ġf old
Ġbo ast
ĠiPh ones
ĠAnn ie
Ġstress ful
Ġsymb olic
Ġobst acles
ĠClay ton
Ġdeton ated
B ig
ud s
Ġdi ets
Ġpot atoes
lim ited
Ġdefe ats
ĠHod ge
ĠZh ang
ĠGuatem ala
et on
Ġcomp osed
Ġbre w
Ġadv ises
Ġdesp air
Ġsens ational
ĠEgypt ians
ĠFab io
Ġtherap ist
Ġsolid arity
ĠBat man
ĠBreak fast
d riving
Ġin ability
ĠS weet
ock et
ful l
Ġant ics
Ġassoci ates
Ġkidn ap
Ġreconst ruction
d an
Ġc ares
ic ia
am ount
ur ring
Ġcol ony
Ġsoc ks
Ġfatal ities
ĠK C
Ġfr idge
Ġtall est
ĠD ob
ĠR out
Ġfix ing
Ġjack ets
Ġtact ic
abe u
Ġcompat riot
Ġprovoc ative
Ġs idel
pt ons
Ġter ribly
Ġsn aps
ĠKer r
ĠCl imate
ĠDe al
Ġcompet itor
Ġmis under
Ġtrust s
board ing
ĠRam irez
Ġorche str
ĠM az
ĠM olly
iv ik
ect omy
ink a
Ġide ology
ĠRyan air
ĠLar ge
ĠFur ious
Ġneckl ace
N orth
ĠT oul
out heastern
Ġpe an
Ġsec re
Ġmar ching
ĠGu ards
Ġkind ness
Ġchem istry
ĠPear l
ĠDog s
Ġboun ce
ĠNort heast
ĠNCA A
Ġextrav ag
Ġin accur
ĠS asha
ri ven
ĠD ust
Ġup hold
Ġrec ycling
Ġcampaign ed
ush ima
ĠEv idence
ĠT igers
ad ows
Ġcirc us
ĠVict ory
Ġboost ed
ĠM TV
os y
Ġex tingu
ĠAn s
Ġi T
enh agen
ĠPam ela
al p
st rom
Ġvide ot
Ġorig inated
Ġoblig ations
ĠSent encing
Ġrall ied
f ur
w hen
ĠD over
ag han
ĠG erald
iv ic
Ġres on
Ġind igenous
Ġsk ysc
Ġoper a
ocr acy
Wh ite
m n
Ġl ure
Ġbl end
Ġfilm maker
Ġbi as
Ġupset ting
ien ne
ĠBu enos
Ġextr act
ĠNob le
Ġconfisc ated
A ust
ĠM ov
Ġab duct
Ġdeep est
ĠFoot age
Ġkiss ed
p ies
Ġw aking
ĠC reat
Ġher s
Ġsc rapped
Ġen roll
Ġen vironments
Ġcor ps
ĠRo ose
Ġz omb
Ġflu ids
Ġla undering
ĠFell aini
ĠBenz ema
re ally
am ation
ĠG wyn
raz y
Ġpack s
ĠS ina
ĠC ell
Ġsh ores
Ġcomp uls
Ġalcohol ic
Ġbow ling
ĠHM RC
pol it
ĠControvers ial
l ast
ou fl
ĠW ine
Ġle isure
ast air
Ġdis belief
Ġstud ios
Ġspl ash
Ġtast es
ĠBern abeu
Not hing
9 2
Ġt aped
ir ky
ĠD ol
ĠHar old
Ġground ed
Ġoptim ism
Ġd oping
Ġimp orted
ĠCl iff
Ġport fol
Ġkil og
Ġske pt
irm ary
Ġt apes
ĠZ ak
Ġamb ulances
ĠFin land
Ġdistr acted
ĠEug en
ar us
st ated
ĠB ates
ĠP esh
ĠAt kinson
ĠJohn ston
work ers
-- --
i ations
j ah
in el
Ġl iability
Ġre j
Ġsa us
und ry
ins ki
Ġbre aching
Ġsk illed
ele cted
Ġadv ising
ĠCo ff
Ġpen ned
TS B
ĠWol ver
Ġgal axy
Ġumbrell a
Ġdispat cher
ing le
Ġchild care
Ġviol ently
Ġmedic ines
Ġreward ed
Ġinaug ural
c amp
ĠN iss
ant ically
Ġqu otes
ĠBre ivik
ĠWal ton
ĠIm perial
ĠPors che
m ac
u h
qu is
Ġdri ft
Ġscar f
A M
or ate
ad os
um atic
tain ly
ĠAfric ans
Ġfun ctional
cons cious
Ġexp osing
Ġstand off
Ġdead liest
ĠGr ammy
ĠLy nd
ĠSum mit
Ġcoord inator
Ġancest ors
ĠG ina
ĠK urt
Ġ4 50
atch i
Ġret rieve
Ġmob il
Ġcous ins
Ġlabel ed
Ġfault y
Ġregul atory
7 2
L ife
ren al
Ġaccount ing
ĠHen ri
f al
ed ia
ry s
Ġsomet ime
Ġsw earing
Ġer ected
Ġpred ictions
w right
et e
ĠR udd
Ġorig ins
ĠPel osi
ĠLizz ie
ir med
ĠN ut
Ġch in
ign e
ble m
Ġlit ter
ĠSlo ven
4 50
s hed
Ġl ig
ĠB ased
ĠP att
ine es
Ġcr ush
Ġass ure
ĠTom linson
Ġweak ened
Ġc rem
Ġf rog
Ġl ia
ĠA R
ĠP ater
ct ica
oc ese
ĠDem p
Ġplun ge
Ġ" (
ĠSt rip
Ġsur real
Ġdep arted
Ġsuper model
ĠNat asha
ĠD und
ĠRe ver
Ġax e
Ġmemor abilia
Ġhe ights
est ab
ber ra
Ġinj ected
Ġhy giene
Ġconce al
â Ħ
at isf
ĠL GBT
ĠG us
ren ched
Ġar bit
che ck
Ġbarrel s
c oin
ĠD ata
ĠN am
Ġdis rupted
Ġdec omp
ĠWill is
ĠRo vers
Ġabs urd
Ġt ires
Ġb ent
Ġp ant
own er
Ġcr ater
ĠArch ae
ĠBook ed
Ġstrateg ies
Ġpedest rian
ĠAbr am
ĠV ern
Ġmed ieval
less ness
Ġwa its
Ġund isclosed
ĠHot sp
Ġintrud er
âĦ ¢
r ament
ol ics
Ġro oft
Ġnation ally
Ġer ad
gen eration
Ġincent ive
Cham ber
op en
Ġun author
ood y
Ġmon keys
Ġsl umped
Ġdep icting
Ġtrans fers
Ġunp redict
Ġgren ades
forman ce
A D
I ON
f old
ĠL ith
ĠG one
ab a
Ġres orts
rop he
Ġhur ts
ĠHor izon
Ġdemol ished
ĠFull er
os lav
Ġag on
Ġrest oration
ĠMag ic
h ouses
Ġw ary
ĠK w
Ġear ns
Ġsupp lying
Ġworld s
Ġinf ants
Ġ11 1
aun ting
ĠEm manuel
ĠKe eping
ĠFle et
ĠBuff alo
U p
u ity
Ġsp ike
Ġstr ay
ĠEv an
ĠGreen wich
Ġfuel ed
Ġcontest ant
ĠAntar ctica
g ged
on ica
Ġb io
ĠG iving
qu ality
ry n
ĠSt acey
Ġchar m
w icks
Ġb ore
Ġch im
ĠK ap
ĠPresident ial
Ġestablish ing
Ġreact or
Ġfor ged
ĠF it
Ġab rupt
ens ity
Ġskin ny
Ġfab ulous
Ġparach ute
Ġl akes
qu est
ĠRe eves
Ġext inction
Ġprogram ming
Ġhon oured
Ġten ants
Ġrecip ient
ĠShir ley
ur r
Ġunder est
Ġins ec
Ġche ers
ĠSy m
Ġprof iles
ĠGu ests
Ġturn out
Ġreb ell
Ġcharacter istics
Ġut il
Ġlandl ord
Ġperm its
8 6
Ġh int
Ġdis reg
Ġmerc y
ĠEthiop ia
ĠWozni acki
Ġcogn itive
ĠA qu
Ġhead ache
Ġjud ging
ĠHam id
Ġnom inations
**** *
ĠHard ing
Ġindefin itely
Ġadam ant
ic he
Ġsh ade
Ġcl ause
Ġdef iant
Ġpers ist
ĠHuff ington
Ġfug itive
B M
u ating
im on
ĠD I
ĠHe avy
ors hip
Ġrel ies
ĠDe le
Ġcoast line
ĠFil ip
ar f
ĠT rain
ĠN ear
Ġimag ery
ĠWeb ster
ĠOx lade
Ġtim eline
Ġveget able
Chamber lain
ĠC indy
ĠL ump
ĠE ff
Ġsc ales
ĠDe ila
Ġbad ge
Ġan nex
Ġsh akes
oy a
ĠCle ment
ĠHay ley
Ġmicro sc
ĠFuk ushima
Ġr ant
ĠE agle
Ġcont ender
ĠBr an
ĠIraq is
ĠCop enhagen
Ġendors ed
Ġstead ily
Ġter r
Ġdraw ings
yc led
Ġsup rem
Ġreconcil iation
ĠG DP
Ġinter section
ĠUn ite
irl ing
ĠSe lect
ĠGr im
Ġri p
Ġsurf aces
Ġdig est
Ġinstit ute
EA D
Ġtur f
ĠPo ole
ĠLuck ily
ĠC ul
ro ots
Ġout doors
Ġte e
ĠCar rie
Ġsn iper
Ġblack s
har med
ic ity
le man
ĠK athy
ham s
ex per
Ġve ts
Ġcontroll ers
Ġpatrol s
ĠLatin os
ĠCala is
Ġ195 3
ĠFern and
Ġmal icious
Ġlock er
ĠGat wick
Ġinvest or
He y
ĠVen us
Ġmamm oth
ent e
ĠJ oin
Ġsupp ose
ĠChief s
Ġcomfort ably
Ġacqu is
Ġflo at
ĠTanz ania
Ġto es
ĠT ell
ĠB C
ĠW earing
ĠR if
ib a
ĠCan berra
Ġsun k
Ġdischar ge
Ġnavig ate
G r
i ates
Ġcon fer
ĠNick y
Ġcommand ing
f u
p res
Ġl ymph
ch y
ĠF aw
Ġsupp lements
ĠJo ey
pro portion
ĠJon ny
Ġextrad ited
Ġvolcan ic
ĠHS BC
Ġobserv ations
ĠS NP
Ġle ase
ab al
Ġsl aves
Ġthr ill
Ġdisplay ing
ĠMel anie
Ġadm issions
ĠFam ous
Ġtroub ling
Ġblank ets
Ġp iv
us ra
Ġlik ened
Ġobtain ing
ĠKur ds
ĠM og
ĠC roy
Ġher d
Ġun well
Ġingred ient
Ġid ol
ĠCoron ation
Ġincon ven
V ER
m ember
Ġn onsense
Ġsp illed
ov o
ĠChr on
Ġ196 1
ĠSl ovak
Ġfulf ill
Ġcorrid or
J ack
Ġf eder
Ġlo op
lo ads
ĠAT P
f ax
m ass
w y
oot ing
ĠMar ion
Ġins ect
ĠGo al
met re
ĠAp ollo
Ġmamm als
ĠE agles
ĠSp irit
ĠEurope ans
ĠSte el
ĠBu zz
Ġcooper ating
ĠPhilipp e
Ġundert aken
ĠEri ks
wicks hire
Ġd are
ĠS ah
ro ke
Ġcar avan
Ġinter ference
Ġcr unch
Ġgra pp
ĠMo D
weet ed
Ġpred ator
ĠWood ward
ĠNich olson
rank ing
ra v
ĠW ik
ĠR onnie
ist on
Ġsc rew
Ġinv is
Ġright ly
ple asant
Ġcre ations
Ġpresent ers
ĠFar ah
Ġcrack s
ĠVi enna
s ix
he a
ĠA EG
ĠP ole
Ġseason al
ĠBes ides
Ġwand ering
ĠH BO
ch t
aren ce
Ġviol ate
ester ol
Ġcompon ent
Ġinaug uration
ĠWait rose
C o
ĠM ong
ĠC oc
Ġchar ming
Ġinf ilt
Ġprov inces
Ġpsych ology
Ġbond s
Ġfunction ing
Ġfer til
ĠRest aur
Ġsubmer ged
ĠO pt
Ġgl orious
Ġdel ivers
Ġadj acent
Ġn ap
ĠS lim
ment ed
Ġfl ock
illion aire
Ġaccess ed
Ġcat hedral
Ġattr acts
Ġswe ets
Ġgall ons
ĠFal con
ĠAntar ctic
ĠDrag on
Ġc av
Ġinc omes
ĠMil ton
ĠNe ed
Ġpun ches
Ġlimit ations
ĠAl astair
ĠHar bor
me ter
Ġcop per
ĠProfess ional
ĠGib ral
Ġspray ed
ĠBatt alion
ĠiT unes
Ġl ace
Ġind o
Ġpar as
ĠIr vine
Ġposition ed
Ġfier y
P aul
c lear
d ollar
o os
ĠA x
ĠM ap
ink y
Ġpass ers
Ġbre aches
Ġcell phone
Ġdangerous ly
Ġthrow s
Ġhik ing
E ST
e ating
z el
Ġl ashed
ĠS ig
Ġe ats
ur ances
ĠC ode
Ġdri ed
Ġcontact ing
Ġske let
Ġslog ans
M c
v ian
lud e
Ġter race
ĠMon k
ĠHam burg
ĠSad ly
Ġ vel
Ġc otton
or us
Ġre wards
Ġcr icke
Ġset back
Ġsw at
deep ly
Ġamput ated
ĠGifford s
Ġhe fty
Ġex h
Ġrel ay
Ġtechn ological
ĠKo ch
Ġhug s
ĠRw anda
ĠM ist
ĠN orton
Ġacc ounted
Ġen rolled
Ġass ail
ĠJo anne
wit z
bu ild
ĠMedic aid
ĠTam ara
i ren
ĠC emetery
ĠI RA
ĠO g
ĠGall agher
Ġpleas ant
ĠSudan ese
ĠP A
ĠW ick
ĠCourt ois
ter man
ill es
ĠG rove
Ġsp ed
ie ve
man i
ĠLe ading
Ġill icit
Ġaud it
Ġpresum ably
N L
ĠH icks
ĠW iggins
Ġcont enders
Ġrec ounted
ĠIslam ists
Ġsurve ys
ĠEver est
Ġhun ter
Ġpromot ional
ĠMcD onnell
sm ith
cript ions
osa urs
Ġsemif inal
Ġaller gic
Ġth umb
ĠC orey
Ġapp ropriately
Ġ17 0
Ġfig ured
Ġprompt ly
ĠDescrib ing
E ur
b ons
Ġc apped
ĠU nd
Ġbenef ited
Ġmental ity
ĠG ian
Ġv oc
ist ical
Ġso ber
ĠMc In
Ġhar med
Ġenter prise
Ġtight ly
Ġaccompl ice
Ġcomple tion
Ġdest ined
Ġtow el
âĤ¬ âĦ¢
Ġnort heastern
b ra
d ig
Ġst aging
ĠN TSB
Ġsp ouse
ĠK ass
vel t
ĠMay fair
ĠiP ads
comm un
ĠSty les
ĠStrict ly
ol er
em i
ĠCh in
Ġres ur
Ġser vant
ĠSu k
Ġproduct ive
x x
ke ley
Ġrecip es
ĠHotsp ur
ĠCroy don
s omething
ent on
ans w
ĠSh ades
amed ic
ĠIran ians
Ġunc ommon
Ġsal ute
Ġbag gage
Ġpret end
het amine
Ġfraud ulent
ĠPre viously
Ġclutch ing
an ity
Ġal umin
Ġab us
Ġcont end
ty pe
enn ium
Ġbrief ed
Ġaccus ation
Ġcolor ful
ĠH ann
ĠF ifth
Ġv ag
ĠV augh
Ġbl o
any a
Ġdep rived
Ġtrans mit
Ġmilit ias
ĠKir by
ĠInf irmary
fig ure
complete ly
I m
c igaret
Ġto ast
ad oes
ĠW anted
ĠE to
ĠMo ving
ĠMcC l
Ġheavy weight
Ġremote ly
Ġgro in
kill ers
ĠTitan ic
Ġe uthan
th on
io let
Ġrein force
embl ance
z uk
ĠF ortunately
Ġsh ifting
ĠV inc
ĠMil ner
Con nor
ĠMiche le
ĠA A
ĠE ss
Ġqu izz
Ġra v
Ġstr icken
Ġread er
ĠSa atchi
Ġurg ently
ĠSat urn
l ength
im ity
ter ies
Ġvis ibly
Ch ar
Ġunve iling
Ġdistr action
ĠIM F
ĠRol and
ĠCorrespond ent
ĠDemp sey
8 1
st aking
Ġst alking
Ġlit re
form ed
Ġsens itivity
Ġexerc ising
Ġtum or
Ġmini ature
ĠHanc ock
Ġv ou
Ġar rog
ĠLe aders
Ġsimilar ities
Ġpract icing
Ġhar rowing
Ġagric ulture
ĠKind le
Ġf uss
os ures
and an
ĠShe n
Ġbar n
ĠPl at
ĠMo z
ĠSch midt
On ly
Ġrob otic
ĠObs er
Ġchol esterol
b in
g ressed
Ġth riving
Ġdisc retion
Ġnegoti ated
Ġhall way
C he
ĠC B
im et
ul ator
gh ans
Ġen abling
ĠSh ore
Ġmar itime
ĠRo jo
Ġroy als
Ġspect acle
ĠSac rament
OND ON
Ġh us
Ġre acts
Ġro gue
Ġinv iting
ov sky
ĠBlack s
ĠRick ie
Ġdiplom acy
Ġcease fire
Ġadjour ned
Ġc yn
Ġe cl
ĠK yr
Ġad vers
Ġclear ance
ĠÂł Ġ
Ġcalm ly
Ġsett ling
ĠAld i
ĠM ind
ĠL ay
ĠGer ry
ĠDem onstr
ĠTre k
Ġbaff led
ĠM ush
Ġwh opping
ĠSt okes
Ġco ats
Ġsl ipping
Ġpan icked
Ġvac ant
ĠAc ross
ĠReg ister
ĠPict ure
Ġarchae ologists
Ġtub es
Ġmarg inal
Ġw ax
ĠW en
Ġch imp
Ġfr amework
Ġpub s
Ġcam oufl
ĠB ag
Ġpl aster
ĠSl oot
Ġknock out
Ġapplaud ed
Ġcove ted
ar ians
ĠK ou
Ġour s
ĠCl arence
ĠAct iv
Ġb ou
an as
Ġch anted
Ġtake away
ĠGra eme
Ġir responsible
Ġtoss ed
Mal iki
Ġsubsid ies
Ġrestrain t
ĠNiss an
ĠS ales
ut ting
Ġsec ular
Ġadd icted
ĠAs hes
Ġsk ate
Ġhum iliating
ĠCourt ney
Ġsecret ive
ĠWal t
Ġliber ty
ĠJournal ist
lu ent
Ġbunk er
Ġquarant ine
ĠT raining
ĠA be
Ġar rivals
ĠAs cot
Ġey ewitness
Ġball ots
Ġthr ust
Ġbra kes
ĠWat ford
Ġb oring
ĠTh irty
Ġdown loaded
Ġsever ity
Ġjourney s
ĠBu y
ĠBarb ie
Ġmicro phone
Ġn ause
ĠMon is
ĠGu ild
ĠBul g
Ġapprec iation
Ġnut rit
ĠMaj esty
ĠMove ment
ĠCalder on
c ost
ĠC az
ĠSt ella
Ġbill ed
Ġmir ac
Ġflex ibility
Ġendors ement
Ġl id
ime ter
Ġstat s
ev il
Ġlunch time
ĠJac obs
Ġburgl ar
Ġcheap est
Ġsib ling
ĠLabor atory
ĠBarn ett
ĠInit ially
Ġportfol io
n ames
Ġb ins
ĠC ool
ab el
Ġag ing
ĠAf ghans
go al
ĠGl oria
Ġmanufact ured
Ġathlet ics
ĠMyster y
6 1
it ives
Ġd ared
om on
Ġle opard
Ġout ing
Ġlaw maker
ĠCl ippers
Ġref urb
Ġatroc ities
Ġsecre cy
ĠPater no
Ġg ossip
Ġmin es
Ġf a
ĠO F
Ġmar ble
ĠHar ley
ey e
Ġvacc ines
Ġn it
ĠS outheast
Ġout put
Ġsc o
Ġins ulting
Ġent ries
Ġdet ached
ĠIslam abad
ĠBrown e
Ġfeed s
Ġtor rent
Ġfer oc
Ġtablo id
" )
ke es
Ġr ust
iz able
ĠAn onymous
ĠMur der
ĠSil icon
ga ard
ĠSev illa
ĠMorm on
ĠS tern
pl ing
Ġexp elled
ĠMag gie
Ġexplo ited
ĠGibral tar
p our
Ġexp ired
t orn
ch urch
Ġpublic ist
Ġconsum ing
Ġrival ry
affe ine
e als
Ġo un
Ġv ain
Ġv ivid
Ġapp alled
ĠMay er
ĠMos es
ĠComp et
Ġped iatric
Ġdisg usted
ĠL oss
em er
Ġgr ants
Ġmin us
Ġblood shed
ĠKing ston
Ġsubs crib
Ġnotor iously
ĠRedd it
ovy ch
Ġt ales
ĠT ate
ol ley
Ġwh ip
ist ing
ĠSt yle
Ġcr acking
ĠBur berry
Ġdefin itive
Ġoverse eing
Ġunw illing
Ġacc uses
ĠUp on
Ġmuseum s
ĠBrom wich
ĠFle ming
Ġcontam ination
L ou
Ġal ight
Ġj ar
ĠK on
gr owing
Ġemploy s
Ġfail ings
Ġfre el
Ġet c
Ġembark ed
f ighting
Ġd umb
ĠT ucker
Ġg el
ĠA ly
Ġk its
Ġcr ane
ĠDirect ion
Ġjack pot
Ġpredict ing
ĠRoose velt
Ġc ents
Ġo ceans
Ġto pless
ĠP ric
ĠHe ights
Ġrob bers
Ġmaster mind
ĠKro os
Ġp orts
ĠCh ang
ĠV as
Ġfl ick
Ġdest ructive
ĠCle ver
Ġadm ired
Ġterrit orial
arch y
Ġstrict ly
Ġbru ised
Ġabort ions
Ġs ack
ĠC ress
ĠW er
Ġun harmed
Ġres emblance
ĠY oun
Ġins ufficient
ĠBor ough
Ġaccur ately
Ġflaw ed
f ess
Ġst itches
Ġinc oming
Ġsl ower
ĠWar wickshire
Ġvoy age
educ ated
ĠZur ich
ĠRever end
ĠSacrament o
ĠThe o
Ġun sc
Ġhigh s
Ġinsp irational
ĠPat ients
ĠOf com
Ġring ing
ĠHistor ic
Ġdys f
Ġsu ited
Ġhum id
Ġdev il
ĠEven ing
ER S
ĠHey wood
s n
ĠT rier
Ġex empt
Ġinv ention
Ġdel icious
reg n
Ġcirc ulated
Ġsun set
ĠMors i
Ġmistaken ly
Ġscholar ship
spr ing
o gh
ĠL odge
Ġcon gest
ib e
orm ack
ĠZ am
ĠPro per
ĠAng ry
ĠEx am
icken ham
Ġchef s
Ġbenefic ial
ĠUA E
ro gen
Ġfin ishes
Ġsing led
ĠSim mons
Ġspir al
ĠTer rit
ĠVo ice
d ate
ĠP E
Ġsp iders
ĠSc outs
ĠFl ower
head s
Ġpreced ent
Ġdrown ing
Ġprox imity
ĠRoch dale
ĠLump ur
G O
Ġin und
ĠO il
ft en
." '
Ġstaff ers
Ġeffect iveness
Ġpedest rians
ĠR ac
Ġch ill
Ġsp ar
Ġdo omed
aut ions
ĠBeaut iful
Ġtopp led
ĠEston ia
Ġincumb ent
ut ches
ĠC pl
Ġche ated
Ġrig orous
Ġcheek y
Ġreop en
Ġinev itably
Ġsuic idal
Ġroomm ate
Ġr ays
ĠK uala
ord in
Ġprev iew
Ġsit com
play ed
Ġpurch asing
Ġdiscipl ined
Ġgroom ing
ĠTob y
en y
Ġbe e
Ġg aps
Ġst ocks
ĠE asy
Ġpr ow
the tic
ĠPenn y
Ġtear ful
Ġrebu ilding
Ġg inger
ĠW u
Ġport able
ĠJagu ar
Ġsandwic hes
s i
Ġbe ast
Ġpro gressed
Ġgu ides
ĠAll ison
Ġcompl iment
Ġsettle ments
ĠLeg end
Ġstrongh old
L ONDON
M ag
Ġm alf
uss en
ĠMcC ull
izz y
ĠNottingham shire
Ġgrat itude
ĠSof ia
Ġmerchand ise
G iven
ĠL if
ĠE ld
ong o
ied ad
Ġprev ents
ari os
Ġradio active
Ġw itch
as so
Ġun int
Ġres emble
ĠBer t
Ġrelent less
Ġw icket
ĠP ow
ĠMar l
Ġview er
Ġbal let
fe it
tar io
storm s
g ard
ad r
ur an
ec es
ĠD O
Ġout comes
ĠCath olics
ĠCas illas
Brit ain
im ming
Ġcon gregation
Ġres ent
Ġreg ards
ĠHam m
Ġinsp ect
achel or
Ġbreath taking
Ġcasual ty
L U
Ġh ipp
es is
Ġl ing
Ġbe ats
ĠB atter
ĠR ene
ĠSh ab
ĠCo ach
ĠHam za
Ġtum ours
Ġdisag reed
Ġauthentic ity
Ġcomr ades
Ġembed ded
Ġin ad
ĠT ough
ĠK ash
Ġover sh
ĠOn tario
ĠCol bert
sp ot
Ġcounter terrorism
Ġaffil iated
ĠIns urance
ĠBritt any
Ġinjust ice
ĠDund ee
8 2
Ġf ares
Ġcan vas
Ġdisc ont
Ġinsp ections
Ġill um
ĠSoc cer
Ġpione ering
9 4
b enc
ĠT ac
ĠT ree
ĠT uc
ell ers
Ġcompl iance
ĠDanger ous
Ġin nings
ĠO sw
ell ini
ĠBern ie
Ġintegr ated
Ġlegit im
Ġseparat ist
ĠTrev or
Ġreminis cent
Ġc rawl
ic ism
ot hes
ad an
Th ree
Ġexc uses
Ġavail ability
Ġcock tails
Ġbutt ons
9 6
ĠS pl
ĠM EP
ĠD mit
Ġex ile
Ġref r
ĠChe v
ĠChap el
Ġconsp iring
Ġiv ory
Ġhus bands
D id
P art
m or
Ġj azz
Ġme g
In stead
Ġmelt down
ĠAgric ulture
Ġt ended
Ġc erv
Ġm aul
Ġg ently
Ġe co
ĠB R
est ation
Ġacknowled ges
ĠFig ures
reason able
Ġgun shots
ĠCan al
Ġsac red
Ġdict ators
ĠChile an
ĠKrist ina
Ġplummet ed
/ /
Ġc ush
Ġha uled
ĠN RA
oy ds
Ġcall er
Ġcare taker
ĠBe g
Ġconfir ms
Ġslow ing
Ġcool er
ĠTw ickenham
ĠRoc hester
Ġlandsl ide
C ol
C hel
K e
U K
ĠD orn
Ġsuper hero
erg ies
id as
Ġst alled
ĠY as
Ġche at
ots w
Ġtrad ed
Ġdiss ent
Ġspin ning
L P
g rove
t ub
v ised
rou ch
ĠK au
Ġland marks
Ġhor izon
ĠBer keley
Ġsav age
ĠWool wich
Ġfisher man
Ġgradu ating
M iss
en o
an qu
un ned
Ġcomp r
ĠRe fer
af a
ĠSch war
ĠRec ent
Ġdent ist
ĠWorces ter
Ġincl usion
ĠSurv iv
Ġaval anche
ĠS ikh
Ġon board
ĠL ED
ĠJ ailed
Ġcl aw
Ġcontrib utor
Ġtouch line
Ġshel f
star ter
Ġcraz e
Ġhug ged
Ġpund it
Ġinvis ible
ĠB ella
Ġinc ap
ĠEm my
unt ary
ĠHart ley
Ġt resp
Ġvolunte ered
ĠYanuk ovych
C all
o ise
ĠS ene
Ġlim b
Is rael
Ġbarr acks
ĠBach mann
Ġcont ra
ild a
Ġcor pse
ald o
ĠOper ations
Ġsurrend ered
ic z
ur ities
ĠSp a
Ġexc luded
Ġwild ly
ĠWhe eler
ĠSot om
b irth
j ar
Ġw oes
ĠM uk
Ġan them
ĠG lam
ĠLe ad
Ġsl ap
Ġsol itary
Ġexpect ancy
ĠStep h
Ġimplement ation
Ġfor wards
ĠR i
ĠG y
Ġbit es
ols ki
ĠRel atives
Ġharass ed
Ġphil anthrop
ĠT roy
st ars
ĠN est
Ġint est
ha ired
Ġtex ted
Ġconcuss ion
ĠSotom ayor
d irect
ĠT ennis
ir able
ĠN O
ĠN ord
ĠSp ears
Ġfr antic
Ġattend ees
ĠSocial ist
Ġla undry
ĠBuddh ist
R ed
im ens
ĠP aren
ant on
Ġres isted
ĠMay a
Ġel bow
Ġdomin ance
Ġoverc row
ĠMeth od
Ġt ucked
Ġre ne
Ġg ays
Ġst alk
iz oph
Ġste ak
Ġpract ically
Ġsick ening
Ġ195 9
M s
Ġra ging
Ġmar vel
lo o
Ġhero ic
Ġpump s
m ines
ĠH ak
ĠL one
ĠF lynn
Ġv ows
Ġgr asp
Ġind ications
Ġvar ied
Ġcollect ors
writ ing
in ous
in ting
br al
Ġreal ising
ĠS ears
Ġqu irky
Ġimp acted
ĠAr lington
Ġpain ter
Ġtorn adoes
izoph ren
z or
Ġl odge
ĠM ell
ag ain
Ġus age
Ġam assed
Ġcor on
ĠDaniel s
ĠFro ch
Ġconsc ience
Ġhaird ress
ĠM LS
Ġman eu
Ġchallen ger
Ġmeas les
asc ular
Ġunfair ly
ĠNever theless
ĠBrig ade
Ġp ony
ĠH ast
ount ain
Ġshort ages
ĠSoc iedad
Ġow ning
ĠWal cott
ĠHay den
ĠRock y
Ġconcentr ated
col oured
spec ified
is ly
Ġd umping
ĠF an
ĠN OT
Ġ19 14
Ġpar an
Ġfear ful
Ġir regular
Ġembr acing
Ġpig e
Ġdolph in
Eng land
Ġc odes
Ġl asts
ĠC oca
im i
ame ter
Ġtr actor
au kee
ĠAm id
ĠDar ling
ĠQuest ion
ĠHav ana
is able
ĠB end
Ġprot ects
ik t
Ġpain killers
Ġconven ient
ĠSuz anne
ĠT rent
ĠA stron
Ġar th
ĠSc out
Ġcard board
ĠEll iot
ĠNeighb ors
Ġd ough
ic ulous
Ġext ortion
ĠCon v
Ġdetermin ing
Ġrefere es
h istor
ĠH oney
Ġj ockey
Ġad renal
Ġthem es
Ġprop ose
ĠSch ult
Ġelev ated
ĠLux em
h on
i q
r ill
Ġth ugs
ĠB aines
ĠL id
ant as
Ġcl amp
Ġen listed
ĠBe ast
ĠInd ians
ĠJu arez
Ġfront line
Ġdeliver ies
ĠGre ig
ĠLo ch
isp here
Ġfru its
H D
ĠM ut
Ġcr ushing
Ġchar ism
ĠAll ah
Ġcal orie
Ġreflect ing
ĠSak ho
Ġno ises
att a
ĠMan ila
ĠFour th
ĠLl oyds
Ġtent h
Ġaspir ations
in ement
ĠV ie
Ġgl owing
Ġbank ers
âĢĿ .âĢĻ
ĠKn own
ĠShar pton
Ġadvent ures
Ġcoord inated
Ġfract ures
Ġ77 7
Ġrecre ational
Ġconstitu ents
Ġbe am
ĠT iff
ĠH ul
Ġsp ont
Ġpred icts
Ġhy d
ĠBra ve
Ġsimult aneously
u ber
Ġun expl
ĠV az
Ġbr icks
ull en
Ġcontin ually
Ġob l
Ġblock buster
Ġcondemn ation
ĠPul is
Ġbats man
W omen
w ere
er get
Ġe agle
ĠJ ed
Ġcomment ing
: //
Ġb ounced
Ġto ured
ĠA uss
ĠK ell
ick y
gr ading
uck land
Ġtrad ers
ĠDon caster
Ġconvers ion
ĠJordan ian
Ġcollaps ing
Ġburg ers
Ġearthqu akes
P C
S y
d oes
id able
ĠWe ir
ĠCr is
rie ved
Ġgar nered
Ġrat io
ĠWars aw
ĠCow boys
ĠWr ite
rec ord
Ġgymn ast
Chel sea
ĠC afe
ĠH aven
Ġsl iding
Ġsw apped
Ġlight ly
Ġpath s
ĠNas ri
Ġpoison ed
ĠHon or
Ġpupp ies
Ġgovern ance
y en
Ġt ut
Ġc od
ok ia
Ġen quiries
ob le
Ġtra ils
ĠMar r
Ġsk et
Ġgas oline
Ġsurrog ate
Ġjurisd iction
t el
Ġsa ga
Ġup market
ft ime
ang ling
Ġhand written
Ġarrest ing
rag ue
Ġhighlight ing
osy stem
ĠDele ving
U D
ĠS omething
ĠD ressed
ang o
ĠWe ight
Ġbo oming
Ġaff luent
Ġinst ability
ĠSe ahaw
aid a
For mer
ĠWalk ing
ĠDam on
Ġtransl ated
fashion ed
C E
k us
en i
st art
ĠC esar
ĠP av
ĠF is
ens ual
Ġro ok
Ġem ailed
Ġcur riculum
Ġmid term
ĠBah amas
ĠRef uge
abul ary
Aust ral
ĠA man
12 5
erm ain
ĠLut on
Ġparalys ed
n ik
ro ved
ĠD uck
ĠTh ur
ĠJo anna
ball s
Ġwear able
Ġlic enses
Ġscr ambled
Ġconce ived
ĠCall um
ĠKit chen
occ up
viol ent
ĠSene gal
or ne
Ġg ir
Ġst igma
Ġ' (
Ġch unk
Ġlit igation
ĠInd ex
ĠAd mir
Ġarch ive
Ġdistrib ute
Ġsuperv ised
r ir
Ġto uted
ar ling
ĠC in
ĠH in
ri ott
ĠJ up
ib o
ĠSome one
Ġmeasure ments
Ġterrit ories
Ġapprec iated
Ġhazard ous
Ġhydro gen
ĠC ain
ĠH ers
ĠR ita
Ġam end
ĠWel come
ent ric
Ġcoun selling
Ġmer it
ĠPolit ics
ĠManc ini
b c
Ġh alls
id is
ĠL ima
Ġconf using
Ġmiss es
Ġrespond s
Ġspread s
Ġintens ified
Ġbog us
t ank
Ġw ickets
Ġun pleasant
Ġend e
Ġfront man
Ġcomment ators
sex ual
ĠLo ft
Ġoverwhelming ly
Ġsne ak
Ġarra ignment
Ġsummon ed
7 6
R oy
l ies
Ġcl oth
Ġclass ical
ĠRom ero
Ġdoor step
Ġencoura gement
Ġlegisl ators
Ġcin em
p riv
Ġhy brid
Americ a
Ġstret cher
sec urity
Ġastron omers
ĠEp stein
ĠHast ings
ĠDeleving ne
ul ing
ount y
Ġpain staking
ĠJeff s
ĠEugen ie
om enal
Ġn ets
ad ona
Ġab dom
ĠY ates
Ġfl are
ĠAl ps
Ġbuild er
Ġpersonal ities
Ġenc ry
ĠDay ton
ĠBre aking
Ġfu elled
el come
ib el
Ġpay out
Ġtar mac
Ġbrand ing
ĠTown ship
Ġborrow ed
ĠEri k
Ġprosper ity
Ġsmok ers
ĠKazakh stan
g ments
Ġth umbs
ĠM aps
Ġsp ate
ie gel
Ġbl ames
ĠCar rick
Ġhom ework
Ġadm ire
Ġinterven ed
ĠDra ke
Ġstere otypes
Whe ther
Ġw ishing
ĠC ory
Ġaw ait
ĠYork ers
Ġspr int
Ġextravag ant
om as
ĠA uckland
Ġfor k
ra pe
Ġpar amedic
Ġbar bec
Ġm ould
ĠR ound
Ġsh ades
Ġint ricate
ĠÂ Ń
ier i
osp ice
Ġmar row
Ġdemonstr ating
ĠChristian ity
ĠTy phoon
E M
ĠG up
ĠIn quiry
ier ry
Ġtechn ician
Ġhistor ians
Ġwood land
Ġcontest ed
ĠAN D
Ġbung al
Ġcarc ass
ivest ock
g ral
Ġw ipe
Ġpol ite
ĠAn im
ĠAs k
Ġquant ities
Ġw olf
ĠG ren
Ġper il
Ġfl ashing
Ġins erted
Ġcons ulted
ĠSh ock
Ġbo asting
Ġdr ills
Ġimm ers
oren t
ĠStock holm
Ġt ick
ĠG ior
ĠG orman
Ġrec ons
Ġbl oc
ink le
Ġext ends
Ġvis ibility
ĠSer ious
amb ia
ĠLeg ion
Ġmanifest o
Ġsteroid s
ĠLuxem bourg
d riven
Ġf res
ol t
ĠMar quez
Ġdesign ing
ĠSam i
Ġself ish
Ġenfor ced
At l
Ġcopy right
Ġoverlook ed
on ents
or f
ĠD olph
art ime
Ġun just
ĠEm otional
Ġpack ing
ĠCle an
ĠWeb ber
m ake
ĠC el
us ement
Ġcomm ands
med itated
ĠMon th
ator ial
ĠHam pton
St ation
Ġqual ifications
Ġunst able
Ġsp urred
Ġvis as
rent ice
Ġden ounced
Ġneg lected
Ġparent al
t ile
Ġf ried
Ġn ec
ĠP ath
ist air
Ġun specified
Ġadv ancing
ĠVal le
Ġfreed oms
Ġhal ftime
Ġbull ies
Ġcolon ial
respons ive
Ġf art
Ġth rive
Ġcl own
Ġtr olley
ĠAl cohol
Ġcommun icating
Ġscen arios
ĠPlay boy
greg ate
Ġuncon stitutional
Ġunpredict able
w aukee
ast rophe
Ġsc ent
ĠBel le
Ġpil es
Ġbul ld
Ġroyal ty
Ġstruct ural
Ġp aired
Ġre duces
and ra
Ġrem anded
Ġstat ute
aff ected
Ġuns ett
Ġurg ency
ĠOper a
Ġc asket
Ġo live
Ġsex ist
ĠCol lection
ĠStat en
Ġvary ing
ĠIndust ry
A w
Ġc ensus
ĠB ri
ear y
oun cing
ost al
Ġun ravel
ĠLe ver
Ġsoc ially
Ġswim s
ĠRec ently
ĠFin ance
ĠNich ols
ĠCrow ley
ĠHind u
in ley
ou f
ĠC A
ch anged
ĠV it
Ġimp erson
Ġsw am
ĠOr t
Ġlim iting
ĠDon ovan
Ġrequest ing
ĠKy i
% )
E ach
U I
Ġconn ects
ĠStud y
Ġhumil iation
ĠMath ieu
Ġexter ior
Ġruth less
ĠJer ome
alys is
Ġfren zy
G eor
G ermain
r acted
w ild
ĠP addy
ĠW are
ĠL ille
ĠK ep
rit z
ah i
Ġbuild s
Ġheart felt
ĠApp eals
Ġforg iven
Ġstock p
N ever
Ã Ń
Ġg raz
Ġam ounted
air d
Ġpat ches
ĠSe pp
Ġtraff ickers
Ġpositive ly
With out
ĠPast or
ĠCay lee
Ġprejud ice
ĠAnaly sts
in to
ĠHe in
ĠAn ch
Ġcur ved
Ġspec ulated
Ġguarant ees
7 8
a a
Ġc affeine
ĠM ert
ĠK ut
Ġinter fer
ll a
Ġcontent ious
tt p
ĠGup ta
ĠS ens
am on
ĠW ess
ĠK ham
ĠMar adona
sh ould
Ġhands ome
lev ard
Ġmel ting
ĠCommer ce
ĠSeahaw ks
Ġl iner
Ġind uced
Ġpast a
Ġmot ors
yl ie
ĠSur ve
Ġdark er
ĠShar ia
ĠRoss i
ĠRou hani
ĠBh ut
i enced
os itive
Ġres h
Ġneed le
Ġpan or
ĠAri el
Ġmort ar
ĠParliament ary
Ġprec autions
Ġdistress ing
Ġpip es
Ġhij acked
ĠJup iter
l ost
ĠP og
Ġman ual
ru ck
Ġfl ipped
Ġgr ams
Ġhand y
Ġdr astic
Ġdem ise
ocr atic
Ġsch izophren
ĠBot ox
Ġmun icipal
Ġparaly zed
k ov
ed ge
Ġc ad
Ġch oked
Ġk ay
Ġdef raud
ĠStephen s
Ġcommemor ate
ĠJur ors
M ex
id an
ĠK an
br inging
ĠZ one
Ġfashion able
ĠGood ison
Ġproceed ed
ĠTem per
Ġrab bit
ĠTrier weiler
U nder
f alls
Ġl iable
ĠA gent
ĠG ig
Ġtow ed
Ġoutbreak s
ĠTas man
ĠD ue
ĠR aid
Ġbel ls
hel p
Ġprotect ions
e at
f ight
ar go
ĠC oming
ĠAd m
ĠPet ro
ĠCath y
Ġha irc
od ies
Ġ7 50
str icken
Ġkey board
Ġ37 0
Ġpill ow
Ġreign ing
Ġannoy ed
qq a
n ian
Ġthe fts
Ġn ud
ĠT reatment
ĠM oody
ĠV a
Ġen erget
Ġdirect ing
ĠBe yond
Ġsuccess es
form ing
ĠCard inal
Ġauction ed
ĠRub en
Ġhorm ones
Ġb rib
Ġbe es
ĠI CC
Ġmar ital
Ġfall out
ĠGeorg ian
ĠSent inel
ĠCust omers
ĠPod olski
1 60
st ore
im er
ĠE D
Ġimp aired
den ly
Ġinterview ing
Ġavoid ance
ĠTal ent
Ġsac rific
wa ite
Ġash ore
L iverpool
l ob
Ġv ine
ĠO S
Ġcont ag
Ġdef ied
Ġyour s
ex am
port ant
mans hip
ĠThorn ton
fam ily
ĠChron icle
ad ish
Ġdis proportion
ult an
ph a
Ġdi ameter
ĠSu u
hol es
Ġsell er
quar ium
Ġremind s
ww w
Bl ue
ĠLer ner
ĠH ale
aw r
Ġreg ulate
Ġsy nd
Ġfav oured
ĠNe ander
Ġapolog ies
Ġsymb ols
Ġcert ified
Ġec osystem
Ġcoinc idence
ĠS it
ĠS ul
ĠC ats
ĠB ec
ĠB omb
ĠP rague
res ist
ĠCh a
ĠV ale
ĠAd olf
Ġinsp ected
Ġboost ing
Ġinund ated
E m
J esus
R eal
n atural
o ist
ure en
Ġdes erted
ĠAl istair
ĠMar riage
Ġsky d
Ġsatisf y
Ġunexpected ly
ĠKob ane
ĠEngine ers
P I
l if
or ously
ĠH ogan
Ġcr am
Ġaccount ant
Ġhur led
Ġresist ing
Ġfinger prints
ĠPep e
Ġp ause
Ġg uru
ts man
Ġmed ically
Ġfra il
Ġliter ary
ĠCraig s
Ġhack er
Ġrecip ients
l ived
om fort
Ġl enders
reat h
Ġback stage
Ġdisc arded
ĠPro duc
Ġthird s
Ġunc ont
ĠIP CC
ĠTibet an
Ġinterf ere
9 3
A cc
ĠA bs
ĠM atic
ĠC yn
Ġv ile
Ġout right
Ġ19 39
Ġav id
Ġconst able
ĠOp ening
Ġdefe ating
ĠEr nest
Ġstamp s
ĠRah man
Ġoutp ouring
M on
Ġe ch
Ġle agues
ĠFl ood
ĠCon rad
ĠTe achers
ĠMill ie
Ġpo ignant
ĠSach s
7 4
i ens
w ishers
ĠM ob
ro ads
Ġover ly
ĠLe ighton
ĠAm azing
ĠTra il
Ġvir uses
ĠUnder ground
Ġanonym ously
Ġinflamm ation
Ġg ases
ĠM ile
ĠB ooth
ĠG ust
Ġse am
com p
Ġkiss es
Ġcatal ogue
Ġg igg
ĠP asc
ĠL akes
ĠN okia
aw ar
Ġdom ain
Ġassist ants
Ġbeautiful ly
Ġlobby ing
ĠYan kees
O ut
W atch
Ġch ambers
Ġspec ulate
ĠBe e
Ġob jected
Ġste er
Ġattend ants
Ġmir rors
Ġstrateg ist
ĠCraigs list
f ounded
Ġt igers
ch ant
ĠN ile
aw ned
ek ah
ĠBl ock
Ġfore casts
Ġdist ances
Ġfair ness
ĠTou ch
acer b
Ġgast ric
j ev
ĠT otal
ĠE gg
Ġass urances
Ġinit iated
Ġscr ub
Ġsmugg led
Ġbout ique
ĠHew itt
O ther
Ġup wards
az ir
ĠBo o
ĠQu ick
Ġb ald
ĠT aj
ĠW I
ĠG rowing
Ġim aging
Ġbl ister
Ġinv aded
ĠMar ian
ĠBro ck
Ġwild erness
Ġtor so
w ent
Ġt ant
re a
Ġhe y
Ġco ached
Ġjoin ts
Ġwond ers
Ġsight ing
usch witz
Ġen ables
Ġbl ess
Ġgl it
Ġcust od
Ġform idable
Ġwear er
ĠArgent inian
Ġguard ed
Ġfrag ments
U s
Ġp ushes
ĠS amp
Ġdown ed
Ġsl ides
cl ad
Ġactiv ated
ĠMil waukee
Ġsyn thetic
orent ina
b ay
ĠI rene
ĠP oppy
ĠE is
Ġhand les
Ġfr ames
Ġhon ours
Ġthr illing
ĠCarol yn
ĠChe m
ĠHor ror
ĠGeoff rey
ĠKirst y
names e
i i
s im
ol ajo
ĠC V
Ġle mon
Ġnot ices
ĠY u
ĠSh o
ĠMes ut
Ġw it
ĠT it
ĠL ama
per or
Ġsum mary
Ġserious ness
reg or
Ġvir gin
ĠMu eller
ĠGill ard
Ġclar ify
ĠLine ker
Ġrhyth m
ĠM am
ĠP AC
ĠK iss
ib al
Ġmake over
ax ies
Ġcou pled
Ġstand ings
ĠBer ah
ĠGar ry
ĠInter est
Ġrobber ies
ĠMax well
ĠRams ay
Ġskept ical
3 80
C ont
O p
ĠW ins
ul ative
Ġsc ooter
are a
Ġsw ear
ĠPar amedics
Ġequ ity
Ġmult im
Ġtail ored
ĠMas sey
Ġdepos its
d ers
l uck
w d
ol ves
ĠC ann
ĠR EAD
Ġch oking
Ġpass er
Ġpass word
gr ily
ĠMot ors
l anguage
Ġs outheastern
Ġe cc
im o
ĠP iers
Ġbr ass
ĠGra ves
Ġess ence
Ġanticip ation
ĠGi ul
Hope fully
ĠRestaur ant
n ation
Ġb atch
Ġan al
Ġan gu
ign o
ĠTh ierry
Ġfl ows
Ġbehav ed
Ġstraight forward
ĠInter view
Ġforg iveness
count ry
m is
en za
ĠA uschwitz
Ġch ancellor
Ġpre acher
Ġdown turn
Ġsk irts
ator ium
Ġcondem ning
Ġplaint iffs
ĠWes ley
esare an
R es
Ġg rop
ĠD ud
Ġch oke
Ġimp ending
Ġgl ance
mar ried
Ġcris ps
ĠNig ella
Ġtoler ated
Ġcow ard
ĠOw ens
r us
ĠV I
ath lon
ĠWed ding
ung ing
Ġdin osaurs
Ġforb idden
Ġstew ard
Ġwas ting
ĠL ans
ĠMc Queen
ĠHer bert
ĠWar nock
ĠHealth care
ĠNor ris
Ġbath tub
Ġbrig ade
Ġparalle l
or gh
Ġreg ained
ĠWill ie
eck er
ĠMal aga
ĠRec overy
Ġhav oc
h u
at ches
ĠH P
ĠP oor
op les
Ġar c
Ġpol o
Ġbright ly
ĠMick elson
ĠAdeb olajo
Ġindo ors
Ġp anda
ollow ing
Ġ24 0
amb a
Ġrev ised
Ġinte gral
ĠHope fully
Ġswall owed
Ġhumil iated
M o
M en
c ity
Ġhe ck
ist ine
art en
ong s
ĠTra ffic
ĠIm ages
Ġsymp athetic
spe aking
Ġfo am
Ġgru elling
Ġreceip t
ĠWag ner
ĠTiff any
d est
ĠC ech
ĠB irth
ĠL ara
ĠF ey
ĠO c
ĠBar row
fic a
Ġfavor ites
ĠDim it
ĠJ P
Ġsp ies
ĠY OU
Ġrest rained
Ġgen ital
Ġcover t
ĠMad off
Ġreact ors
Ġerup t
ĠBed ford
ol ars
ĠStr ate
ĠHills borough
Ġescal ating
ĠClaud ia
Ġbisc uits
Ġunav ailable
8 3
p hing
Ġw ig
ac as
ĠC ody
ĠF ly
Ġtr am
Ġam nesty
Ġconf inement
Ġsk ip
Ġmid day
ĠNA S
cot ics
Eur ope
ĠBulg arian
v ict
re b
ĠJ ude
Ġplay maker
Ġfe athers
inc luding
Ġcreat ors
azz i
Ġabdom inal
r ings
Ġb inge
ĠT ube
Ġins ane
Ġins ulin
Ġinj unction
Ġheav ier
ĠDor othy
Ġrecre ate
ĠGas co
Ġoverth row
ĠTuc son
m il
gu ided
ĠFrank ie
ĠAv iv
Any one
Ġsculpt ures
ĠLaud er
Ġarth ritis
ĠH R
ĠK and
Ġcl uster
old en
Ġme ga
Ġfil ter
ĠNorth umberland
Ġreason ably
Ġcateg or
ĠViet namese
Ġfasc inated
ĠMey er
ĠKend all
Ġdisgu ise
M C
c re
p rop
ĠS ang
ri ous
ĠW H
ĠW ear
ĠG ol
ĠSt art
ass ies
Ġplay ful
Ġver ified
tr ans
ĠPlay Station
ĠSher man
ĠSold iers
Ġdisreg ard
ĠBerah ino
G H
as ers
ĠR ing
end ant
Ġbel ts
Ġdisc omfort
ĠChar ity
Ġmag istrate
ĠEar nest
Ġprivile ged
Ġreserv oir
L N
Ġcl ergy
ĠShe ila
Ġass ists
Ġconf ess
isl av
rec ogn
ĠHait ian
Ġpump ing
Ġ78 7
Ġpharm aceutical
ĠChi ellini
Ġted dy
c roft
Ġp aus
ĠT ask
ĠI A
Ġcontin uous
ĠOr te
Ġclos ures
Ġheav iest
Ġimpl icated
Ġexpress ions
ser ving
ĠSloven ia
8 4
S uper
ar er
oc aly
Ġcar ers
ĠWest on
ma res
Ġcompar able
ĠProp het
Ġbehead ing
Ġsemif inals
J et
m atic
ĠN an
Ġne on
ĠY o
de ath
Ġmum s
Ġacad emics
ĠCatal an
Ġchick ens
f urt
Ġc ites
ot hel
Ġan grily
Ġsh ining
Ġv oid
ort ing
ĠRe venue
Ġsuper intendent
Ġclos es
ament ally
Ġrelie ve
Ġt apped
Ġin put
Ġex acerb
ite z
Ġfact ions
ush i
ĠBro s
ĠPer kins
ĠRa qqa
h un
Ġp ine
ĠL ap
Ġme ter
Ġdef ect
hip s
Ġpot ent
Ġcondition ing
Ġmix ing
ĠPalest ine
Ġaband oning
Ġdecor ations
Ġcourage ous
n eck
ion age
ĠG ive
Ġpre fers
Ġsat ir
ĠHaw kins
Ġchat ted
Ġcontrac eption
Ġinad vert
O ffic
y ne
Ġoff spring
ĠAl ready
ĠRe form
ĠHar rington
Ġbab ys
ĠNe uer
ĠCorn ell
ĠFrances ca
ĠAdmir al
h ne
in ers
Ġw artime
Ġl ivestock
ĠW yn
ĠF en
Ġins urers
ĠMc A
ĠAm elia
Ġstadium s
Ġoccup ants
Ġhang s
tra umatic
Sem itic
Ġs ar
ĠH uck
ĠMar se
Ġpres umed
ĠHar lem
Ġquestion able
Ġice berg
Ġsalv age
Ġenerget ic
k iss
l aki
Ġs ectors
id o
ĠB ord
ĠD ot
ĠSp ider
ĠNorth west
ĠAll ied
Ġje opard
ĠRet ired
ĠTermin al
Ġpenc il
k ara
p ublic
Ġm ish
Ġg au
ĠÂ ¿
ĠOb viously
Ġdrug ged
Ġemphas ized
l off
Ġd uration
ĠAl ves
uch y
ĠMom ents
B o
Ġl end
Ġcomp ounds
ek ing
Ġins iders
ĠPhil p
Ġswim mers
Ġconclud es
Ġ195 7
ĠKrist en
Ġsod a
ĠP f
ne eded
Ġve il
ator ies
ĠMus k
ĠMa ureen
Ġovert urn
Ġmeteor ologist
Ġdimin ished
Ġd y
Ġre jection
ag ra
Ġwe ights
Ġpass words
ex c
Ġconv ict
ĠMal ia
Ġlapt ops
Ġgal axies
spec ial
n umber
ĠT ut
ĠR idge
ĠJ ab
Ġtheir s
ĠHe idi
ĠShe en
Ġrun off
Ġcor al
ĠMor an
ĠRich ie
Ġresearch ing
bus iness
ĠRav ens
ĠConcord ia
ĠWolver hampton
ĠOrte ga
1 10
7 3
Â ½
Ġrem n
rib ution
Ġmin erals
ĠHer man
ĠAv on
Ġdepth s
Ġc ryst
Ġb anners
Ġin h
as is
os ion
Ġv ague
ess e
ord ination
Ġser vers
ĠMar riott
Ġow es
Ġacqu ire
Ġpir ate
Ġmaid en
Ġhaun ted
ĠChand ler
ĠSchult z
Ġd ess
Ġal erts
Ġr anges
iv o
ĠSt ap
Ġall ied
Ġev angel
Ġaccess ory
ĠMal ta
Ġphys icians
Ġpul se
Ġlack s
Ġep ile
Ġobject ions
Ġadapt ation
Ġcripp ling
Ġsqueez ed
Ġb aked
ĠN aj
Ġle aning
av or
Ġsw inging
Ġart if
Ġclass ed
ĠReg ard
ilit ating
Ġbehead ed
ĠFant asy
Ġp umped
ĠU d
Ġfr amed
ĠMan or
icks on
ĠRos a
ĠMull en
ĠReb ekah
ĠCumm ings
D onald
et ed
Ġst ellar
Ġun responsive
Ġstart ling
Ġprof iling
ĠKe ys
ĠStud ios
Ġpromot er
Af ee
Ġdemol ition
Ġdread ful
Ġb ree
or ers
Ġp oo
ĠS out
ĠM RI
ĠW hel
ĠR anch
Ġ2 20
Ġsh ack
Ġ" [
Ġtr anqu
amp hetamine
Ġoper atives
Ġworks hop
Ġharm less
Ġtattoo ed
histor ic
Ġa we
Ġw oken
Ġst rained
ĠB B
ĠP ry
ĠJ eb
Ġad or
Ġ11 5
Ġgener ating
urt les
oper ation
Ġcann on
Ġcurren ts
Ġenthusi ast
.. .'
ĠCo ch
ĠMad d
ĠMal ik
Ġkidney s
Ġbrows er
zek o
ĠL ac
Ġde fer
ap est
Ġup right
Ġed ges
Ġlo oming
Ġcapt ors
Ġdin osaur
l os
Ġpl unging
au ff
Ġret rial
AT CH
Ġread ily
Ġpray ed
ĠResp onse
Ġresemb les
J ones
ic ist
ĠH ang
ale b
ĠBen itez
Ġdin ers
ĠGood win
Ġchap el
ĠVeter an
Ġflank ed
g ia
ut o
et z
Ġ19 48
ĠBr at
Ġrest oring
Ġdist inction
ĠSm oke
Ġcontract ing
Ġunve il
Ġloud ly
Ġcere bral
ĠJacqu eline
Ġkilog rams
Ġpiv otal
f eller
ot ive
ĠP on
Ġbefore hand
ĠPr act
Ġhon ors
Ġbroad band
Ġthr iller
Ġpoor er
ĠGre ens
Ġwealth iest
ĠFre in
Ġexceed ed
w ives
Ġo ven
ĠA part
th ia
ĠJ ag
Ġar tery
Ġjust ification
vel ope
Ġter rific
ĠGu ide
Ġportray al
b ird
ĠM anson
ir ut
Ġch ats
ĠJ ared
reat ing
Ġdon ating
Ġsl ick
ĠBar low
ĠPh one
Ġfore front
ĠWat ers
ĠRow e
ĠSoph ia
Ġundert ake
Br ide
Ġrh ino
ĠDin ner
ĠFi orentina
m oor
x ia
am ics
ĠB orders
ec on
ĠK ab
Ġsc alp
Ġind isc
Ġur ges
ĠTy r
Ġtend ency
ĠKum ar
m ere
n ard
Ġp est
il ight
ĠN ote
Ġpre ference
Ġcur ve
Ġprotest ors
gor ith
Ġs cept
re ction
Ġf aded
osp ace
aun t
Ġspot ting
ĠBob bi
Ġmax im
ĠLeices tershire
Ġb aking
Ġy eah
ru ly
Ġspec ify
enn ial
ĠSe ason
Ġsing ers
Ġill usion
Ġpoll ed
ĠMic key
Ġfemin ine
ĠSep ar
p ath
in qu
le gal
ac ens
ĠD zeko
ĠSt ay
orn s
ĠPres ley
ĠPar ade
Ġpack et
ĠChen g
ĠExt ra
Ġquizz ed
or la
Ġst ub
ri vers
ĠW awr
ĠN ag
Ġch ron
br other
ĠChar ged
ĠRam adan
Ġacqu aint
ĠCher ry
Ġquant ity
Ġpubl ishers
n ational
Ġt ier
Ġo uster
ĠH alif
ich i
ĠCl aims
Ġorgan izing
Ġstre wn
Ġstair case
ĠMov ie
I O
Ġt earing
op ardy
if ficult
ĠG ru
Ġman ned
Ġsub stit
ĠEm m
ĠWin ner
Ch ina
Ġsky line
Ġrook ie
Y eah
ĠM ORE
ĠC rouch
ĠR an
Ġinter course
Ġcomm ute
Ġrev oked
Ġbi ology
Ġmal aria
Ġphen omenal
ĠRou ge
Ġradi otherapy
Ġhomophob ic
J ames
d led
Ġpro port
ĠRe eva
ĠMon etary
ĠMc Afee
ĠWil fried
Ġoverse es
pat rick
zh ou
ĠPick les
Ġoutbur st
Ġfreel ance
7 1
Ġinter cept
Ġext inct
Th anks
Ġpat rons
Ġdel ic
ĠMe et
Ġfra gr
Ġwild fire
run ner
ĠVer onica
Ġstem ming
Ġtransl ates
B ron
Ã ¨
ĠT all
ĠU V
Ġtra its
Ġsol icit
Ġbra ke
Ġclim bers
ĠCass idy
ĠRic ci
ĠC ros
el man
Ġfound ations
Ġpar adise
Ġtw enty
Ġhor rors
Ġdin ners
Ġmach inery
Ġfant as
Ġham pered
Ġjun ction
ĠBase ball
Ġapprehend ed
Ġher ald
ĠV aux
Ġsl ated
aul ts
ĠGr ac
Ġmot ives
Ġwrong ful
Ġoverse e
Ġassert ion
Ġarra igned
Ġrefr iger
adish u
ĠHalif ax
Ġf ung
ĠR us
Ġsh rug
ĠK illed
Ġcomm uter
Ġmed ian
lev ant
ĠTe vez
Ġkit ten
Ġlegisl ature
Ġ195 5
Ġlie utenant
ĠCop eland
Ġimplement ing
Ġsin ister
ĠH es
ĠL ing
ĠL acey
ĠUn iverse
Ġdep icts
ĠBen fica
ĠDam ian
ĠThor pe
Ġunl ucky
Ġinhab itants
Ã ¶
if iable
Ġun in
Ġall ig
ĠMc Le
ĠAd vis
not hing
ĠEx c
Ġsnow fall
ĠOs lo
Ġtow ering
ĠOrt iz
T H
w aves
en ary
ĠM orton
if ty
ust omed
Ġem ulate
Ġhands ets
Ġindivid ually
play ing
sec ret
ĠBou levard
Islam ic
w ave
ĠF ocus
Ġadop ting
Ġnom inees
Ġpromot es
Ġdisorder ly
Ġintegr ation
ĠLor raine
ad ays
am ins
Ġcent ered
Ġbu ys
ĠSh awn
Ġblack mail
Ġdeb ated
Ġpra ising
ĠFro zen
Ġhorn s
ĠWhel an
U SA
ut ory
ĠM D
Ġsc i
Ġ19 42
Ġsw ine
ny der
Ġemb assies
Ġrespect ful
Ġcompar isons
ĠDy ke
ĠSamar itans
Ġmasc ot
Ġbetray ed
s kin
Ġf aint
ĠP end
ĠR IS
Ġdon ned
ĠWe eks
Ġmet ab
Ġcat astrophe
ĠCam den
ĠLet terman
ĠBall on
ĠSystem s
ĠGwyn eth
Ġnause a
fess ional
at hed
ĠB eng
Ġal gorith
ĠJ enson
ok s
Ġor n
Ġdis qualified
ip her
Ġbul ly
Ġrenew able
Ġintrig uing
ĠMush ar
P at
T e
ĠR ising
ous ed
Ġbl adder
ĠBur ma
ĠDes perate
ĠSol o
ĠChamp agne
ĠCitiz ens
t ax
Ġb esp
ĠC ot
ĠC learly
Ġas c
ber ries
Ġad rift
Ġ19 41
Ġdec eption
ĠRe vel
ĠJenn a
Ġbull s
ĠPhilipp ine
ĠIb iza
ĠLux ury
Ġunle ashed
ĠDig ital
Ġpersecut ion
1 40
h ours
ĠT alking
ad owed
im ental
ĠE ly
Ġup bringing
Ġinter actions
ĠLe vel
Ġsl ash
Ġpost c
ĠGu zman
Ġban ana
ĠIS S
Ġaud ition
ĠComp an
ĠLov ren
ĠVern on
s ided
ier rez
Ġeconom ically
Ġgener osity
ĠCan nes
gra ve
Ġprin ter
Ġadopt ive
Ob ama
ĠPret oria
ĠLoft us
j en
Ġt ying
ac ist
ime e
ĠPr ide
Ġinst ruction
ĠCol chester
Ġsocial ite
rup ting
Ġshut ting
Ġtransport ing
ĠIsab ella
Ġecc entric
ou m
ĠS ime
ĠC otton
ĠN ish
Ġsc aled
over ished
ĠQ antas
eng ine
Ġcomb ines
Ġlisten ers
ĠLamb orgh
ĠWorces tershire
ĠKick starter
Ġh oard
Ġe ased
ow itz
ĠF ears
Ġpr icing
oy ant
Ġra zor
raz en
par able
ĠSw ind
Ġcharacter ized
Ġpo em
Ġhy dr
Ġtrend y
Ġmort g
ĠHun ger
Ġpor ch
ĠHous ing
ĠSina i
ĠCaz orla
s aid
he v
Ġs us
ox ide
Ġflav our
Ġbrace let
ĠOsw ald
ĠWawr inka
H ar
l ittle
Ġin herent
ro ph
ip se
ĠFl an
Ġbar rage
Ġrepe ating
Ġsail or
ĠPier ce
Ġcamoufl age
d rug
ĠT owers
Ġsa iled
ĠH ello
ra red
ĠG iles
ĠV all
Ġen velope
augh lin
ĠZ en
Ġed itors
Ġbom bed
Ġess ay
b as
f lying
Ġsh adows
Ġany time
Ġass uming
ĠRe yes
ĠDe en
att i
Ġexecut e
ĠOr thodox
Ġmass es
umb l
ĠRet ail
Ġcater ing
ĠSimilar ly
ĠObser ver
ĠL ines
Ġr acked
ĠK T
ĠBr ut
Ġfil ters
aut iful
ĠSm alling
rim inal
ĠBrid g
ĠHos ni
ĠGasco igne
ĠPhilp ott
a ic
cl osure
Ġanim ation
Ġdest abil
Ġbroad ly
ĠCur ry
ĠCop a
ĠNY C
ĠWol ves
Ġreserv ations
Ġupro ar
9 1
c oun
Ġp our
le ased
ain able
Ġdevelop s
Ġentertain er
Ġpartnership s
Ġclar ity
ĠHung arian
Ġg um
Ġpre meditated
ĠAn c
Ġinform ant
Ġtro oper
Ġ195 8
Ġinsurg ent
ĠScar lett
oug hed
w al
on ut
Ġcom for
Ġle apt
red o
Ġatt ire
ll i
Ġcond oms
oe uv
ĠQat ada
ĠId ol
Ġtransl ate
Ġobst acle
Ġmel ted
Ġeval uate
Ġlect urer
Ġswall ow
ĠRevolution ary
ĠM ix
ĠL un
Ġsl ope
Ġref res
Ġclear er
Ġdev ote
ĠBy r
Ġcop ing
ĠSol ar
ĠFE MA
en burg
ĠV id
Ġprot e
iam s
Ġeduc ators
ĠPer fect
Ġyouth ful
bro x
ĠRic ardo
ĠPrinc eton
M E
Ġn urt
Ġfor c
Ġcan ine
Ġbr ighter
ĠPro duct
ĠGu ilty
sw orth
ĠTrib ute
lar ge
ĠNorm andy
Ġwors ened
ĠKep ler
ou ched
am bo
ur istic
ĠC ort
Ġsc athing
ĠV AT
ĠSe ym
Ġart ic
Ġgar ment
Ġinaccur ate
s ight
Ġm apping
Ġd anced
ĠS nyder
ĠL ak
Ġun for
ĠNe al
Ġopt ing
Ġadm iration
ĠPers ian
Ġpione er
ĠKem p
at ical
as ure
ad io
Ġadd icts
Ġass ignment
ĠNo el
Ġcirc ulation
Ġvar ieties
ĠFore nsic
Ġblog s
Ġprofession ally
ĠLen o
Ġgriev ous
ĠGut ierrez
Ġacquis ition
ĠVaux hall
Ġb ugs
ak ov
Ġall ergy
ĠBut ter
Ġhospital ity
aut ical
ĠEl aine
Ġfair y
ĠArt ist
Ġincomp et
Ġsus cept
L a
ĠA head
ĠW is
ĠR ash
Ġv ap
ge ons
Ġfac ulty
ĠMill ennium
stant ial
O D
ĠI brox
us a
ĠE ck
Ġpl aque
Ġcons ensual
Ġmor ph
Ġty res
Ġ26 0
rid den
Ġpregn ancies
ĠKh alid
Ġcraf ted
Ġwholes ale
f man
p op
ed o
Ġd addy
ĠC andy
ĠH Q
ĠRad ar
Ġquit ting
rank ed
uis ance
Ġecst asy
C learly
Ġm ocking
Ġd well
ĠW ald
Ġup graded
Ġro pes
ĠSch wart
Ġtru ce
Ġwarm th
ĠM IT
ĠH ick
Ġch ore
Ġj ugg
ĠO N
ĠIn stitution
Ġunder mined
Ġexp end
ĠSe bel
Ġrepl icate
ĠEvery body
ĠLev i
ĠLim ited
Ġstap le
U C
g re
Ġ1 000
Ġch rist
Ġwe aker
Ġsu ites
ĠSc hettino
Ġcho ir
Ġver b
Ġdefin ing
ĠSl ater
Ġfierce ly
Ġcliff s
ĠJod ie
ĠHil ary
Ġb ak
ĠP red
Ġun real
Ġstat ues
ĠAfter wards
udd in
Ġdisappear ing
ĠIv y
Ġmol ested
Ġmatt ress
ĠAbram ovich
h l
Ġb ask
ĠS ana
ĠB oots
uc as
Ġday time
Ġind irect
ĠEur os
Ġcirc ulating
Ġscr um
ĠVol unte
ĠMS NBC
' '
h man
ĠT eb
ĠA ra
ĠB ain
are l
Ġdown s
ov irus
Ġsn iff
Ġrepl ies
Ġprop osing
Ġcompan ions
ĠGold berg
Ġconsult ants
izz ard
ĠKath ryn
ĠLoren zo
ĠMog adishu
Ġlegitim acy
f ed
y ans
ĠB enson
Ġso f
Ġcr ust
Ġschool children
Ġrece iver
Ġmor ale
Ġsn ip
Ġorgan ize
Ġemb attled
ĠMcD aniel
Ġble ak
Ġintent ional
ĠMcK enzie
ĠfiancÃ© e
ĠSebel ius
ĠG ale
ĠO y
ise xual
Ġmed all
ĠCl aus
ĠWor ks
Ġcertain ty
Ġhun ted
Ġhelm ets
M T
Ġh ay
Ġin hal
om is
ĠW ight
ĠV and
Ġhead teacher
Ġche eks
ĠEd mund
Ġemer ges
ĠPl ant
Ġsle ek
Ġrap es
ĠAssist ance
Ġcord oned
ĠPoll ard
ĠMushar raf
c irc
Ġl azy
ĠF ine
iv able
Ġ10 5
Ġren ting
Ġconflict ing
ĠAle j
Ġcongrat ulate
lat an
he ed
Ġs orrow
ĠR iot
Ġun true
Ġcle ans
ĠBar ber
ĠSch we
ĠCal um
Ġsequ el
ĠSnap chat
in um
Ġs q
ĠB ury
ri ents
Ġpro cl
Ġsp ur
Ġar senal
Ġcomp ares
Ġgr isly
uss ions
Ġtrad er
Ġpret ended
ĠJackson ville
Ġliber ties
Ġfacilit ate
or ig
Ġe ater
ĠC obb
em ate
ag eway
Ġimp art
ĠMc Bride
Ġdem ographic
ĠPaul ine
ij i
ba um
Ġincent ives
Ġsidel ined
answ ered
l inked
Ġw ards
ĠS au
Ġwh ipped
ĠG ent
Ġcomp osition
ĠV idal
ib les
Ġimp overished
Ġlit res
ĠIr win
ĠShar if
idel ity
Ġunanim ously
c ul
Ġb umper
ĠD ance
Ġsh aved
Ġtime ly
Ġnight mares
Ġrisk ing
rid ges
ĠPeter borough
ĠLiber ation
Ġsmugg le
ĠBM I
Ġpir acy
Ġstyl ist
F ace
ic ans
ah ar
ĠBroad cast
ĠLeg isl
ot ally
Ġsh red
Ġover r
Ġpol es
Ġback up
ult on
ĠAl ways
Ġam usement
Ġjud iciary
Ġdeb uted
Ġoffer ings
Ġexplo its
Ġconced e
Ġtrigger ing
Ġdecre ased
ĠBoliv ia
P l
Ġa ven
ers field
Ġwhe at
Ġbl oss
Ġbusiness men
ĠAugust a
ĠGood ell
Ġwood ed
Ġcook ies
Ġtermin ated
Ġclassroom s
" ,'
Ġw re
Ġst acked
ĠH ock
ach o
ath am
ĠMar itime
Ġlight weight
Ġstra ins
Ġdig it
Ġramp ant
k il
ol y
Ġwh it
Ġun im
ook ed
Ġper ver
Ġimp orts
ĠSc reen
Ġhapp iest
ret ched
Ġexpl ode
mit t
ĠCharl eston
ĠFrank furt
18 0
ĠDy er
ĠDevast ated
Ġpean ut
m ot
z an
Ġcomp elled
ick i
ĠBr anch
ĠMin ority
Ġapart heid
ĠTrib utes
quir er
d ead
m ins
ra ved
Ġsh outs
Ġtra iling
ĠEd ge
Ġlevel ed
Ġbomb arded
ĠBra vo
Ġsmugg lers
Ġrebu ilt
ĠVik ings
B aghdad
c ially
Ġc ig
ĠC ed
Ġv ans
Ġnot ify
ĠTh reat
iz ers
Ġdown hill
Ġdec ap
ĠAl tern
ĠSh ay
Ġaccess ing
ĠInter pol
Ġtack les
Ġbow ler
ĠFood s
Ġconfron ting
Ġdeterior ating
ĠLav rov
N T
ĠC aval
ĠP iper
os ur
ĠWel ch
Ġtranspl ants
ĠFro st
Ġslaughter ed
ĠDug gan
Ġrecl aim
ĠRIS K
j ana
t w
work er
Ġspl ashed
Ġcricke ter
he by
Ġst are
ĠB rain
rit ical
Ġ19 47
Ġbr ushed
Ġsoc ieties
ĠMass a
CA R
Ġinstrum ental
ĠSW AT
k owski
Ġd wind
Ġl amp
ĠB ug
and ing
ĠK un
Ġman ic
ang ar
Ġexpl ored
Ġsol ving
Ġtw ent
Ġcat ches
Ġresist ant
Ġobst ruction
Ġfool ish
r ath
ĠBrit ney
sh ocked
ĠMed ved
Ġprior it
Ġflo ated
Ġexception ally
L ove
et ooth
ĠP izza
sw ell
Ġpri zed
Ġvill ain
Ġthank ing
Ġverd icts
Ġax ed
Ġmiscar riage
ikt as
R ob
ĠT LC
Ġse ating
ĠSt arting
ĠCh ong
ĠEl le
Ġalleg iance
Ġarm oured
Ġrein stated
Ġshr ine
ĠS leep
ĠP and
Ġcl ad
te f
ax man
ĠAb ed
Ġlive ly
Ġemb argo
Ġmic row
Ġscrut in
Ġnavig ation
ĠSiber ia
ĠMarse ille
K K
T om
c ond
Ġa ided
Ġd ot
est ly
Ġen acted
ĠMar in
att ack
Ġrul er
ĠTour ism
Ġstream s
Ġarchit ects
ĠSerge y
Ġfu els
ĠMey ers
Ġstrengthe ning
Ġvandal ism
ĠSeym our
C ons
Ġa iling
ow ay
ĠB elt
ĠW it
ĠY am
Ġtest ament
ĠCount ess
Ġcheck points
ĠJen ner
Ġthin ner
vet te
Ġincl usive
urr le
Ġcerv ical
ĠT B
ĠS ung
ol ia
Ġpop ping
Ġdisg ust
Ġw ires
ĠN H
ĠU se
Ġreg ulated
ĠBe irut
Ġmarket place
ĠEnglish man
Ġtom atoes
Ġwreck ed
ĠDisney land
Ġsubstant ially
Russ ia
umbl r
m ott
in atory
Ġc urs
ĠS ic
ra ising
ĠW ord
ul ence
ĠJ al
ne e
ĠV onn
Ġchar red
ĠBr as
Ġinform al
Ġheart beat
Ġz ip
ĠVer izon
Ġtum ble
Ġt uck
it ations
ile m
oll aston
Ġperf ection
Ġinform ing
Ġfav ored
Ġairl iner
dy ch
Ġgam ers
Ġconfer ences
ĠPog ba
l aden
r int
ĠM ash
Ġun h
Ġso ar
Ġbl at
Ġbo ge
Ġfr antically
Ġcerem onial
onna issance
ĠPor oshenko
Ġmortg ages
S am
g em
ĠT aser
Ġfl urry
Ġtem pted
ĠX VI
Ġult ras
eman ja
ĠSav age
ĠHold en
ĠMerc ury
Ġaccl aimed
kus en
p ur
ĠC hed
ĠF O
Ġle wd
um bed
ĠU FO
ang a
ĠHear ts
ĠGill ian
ĠAld er
Ġwhistlebl ower
6 50
Ġc aves
Ġb razen
ĠM ikh
ĠD aly
ĠN uclear
up erv
ĠCh ung
Ġdet rim
Ġstop page
Ġanaly se
Ġconsol id
ĠUlt imately
Ġjelly fish
ĠSchwar z
Ġfart her
ĠSurve illance
Ġb ishops
Ġ" ...
Ġacc ol
Th rough
Ġfinal ists
Ġsouth western
Ġfra gment
Ġacknowled ging
Ġgreet ing
Ġawa its
Ġturb ines
ĠKimber ly
Ġd aunting
ĠA Q
ĠH ib
Ġv ind
Ġacc ustomed
ĠSc ol
ger ald
ik er
ĠAng els
Ġstep mother
Ġaut istic
ĠBer dych
Ġunf old
Ġvo ic
ĠGreen peace
ĠGre gg
ĠBu ild
Ġdisturb ance
ĠGray ling
Ġpard on
ĠKash mir
Ġcontag ious
m issions
re qu
et tle
od d
ĠAr c
Ġblood ied
ĠFar row
Ġder ail
ĠHor rific
Ġtransl ation
CH Q
vol ta
Ġseaf ood
h uge
Ġb ass
ĠC lear
ĠAn alysis
ĠSp itzer
Ġwr ists
ĠLondon ers
Ġgen re
Ġsw ell
Ġinvol untary
ĠWill s
Ġclass mate
Ġmater nal
Ġrain bow
char ged
ĠSot heby
ĠLever kusen
Ġcomfor ted
A L
im en
ter mined
ĠP ill
Ġha zing
che on
ĠBel arus
Ġmeth amphetamine
Ġextensive ly
Ġstem s
Ġassass inated
Ġcorrespond ence
ĠStrat ford
C ola
l as
v i
v ous
Ġo ct
Ġbe ams
Ġan ten
IS IS
Ġannoun ces
ales e
Ġorgan ising
Ġdocument ation
ĠSpace X
Ġintimid ating
m g
re f
ĠT ak
ĠT ud
ĠD ickson
Ġsh iny
ond o
ven ir
Ġred uctions
Ġsell ers
Ġsens eless
ĠWood y
fl ies
ĠVol ks
ĠPeru vian
ĠCompl aints
asar ay
Ġhairdress er
ĠMedved ev
b oth
Ġc uis
Ġl aud
ĠH LN
ĠL um
ĠF rey
um aran
iv iano
og ged
ĠAr men
Ġtrans action
Ġpat rolling
Ġtre ad
Ġver te
itt ens
Ġir ony
Ġdepart ing
aze era
Ġadvent urous
ĠAlv arez
ĠQual ity
ĠCyn thia
m ajor
Ġb ri
st own
ill on
ĠW ither
Ġ2 30
Ġar ist
Ġneed les
Ġsn ub
Ġide ological
Ġpack ets
ĠBook er
ĠDal ai
Ġlip stick
Ġloot ing
Ġpuzz le
ĠHudd ersfield
ĠRefer ring
G C
al in
Ġj aws
Ġrest ed
Ġthought ful
ĠMo ammar
vent ional
Ġcompassion ate
Ġfestiv ities
ĠGior gio
ĠLamborgh ini
ĠC rom
ew ater
Ġfr ig
Ġcompet ent
ĠEl ena
ĠWar wick
ĠGal at
ba o
ĠBanks y
Ġnotor iety
ĠSwind on
n ar
s ch
en es
Ġh ut
Ġh ips
Ġp act
ĠC redit
if ics
Ġse als
ud ent
ool s
ĠAn war
au ld
Ġgen itals
oura ble
ĠSuper man
ĠHaw th
ĠCarl isle
Ġoblig ed
ĠBes iktas
Ġrug ged
A lex
is ky
ĠC oke
im age
un n
ik o
ĠPar ry
ĠMad uro
!! !
ĠBou chard
Ġrebell ion
Ġparan oid
f an
Ġt oned
ĠC alled
ver al
ĠO u
ann i
ĠEd u
ĠNe ur
ĠRem em
ĠLad ies
Ġt ug
ĠT orn
ĠM i
ĠMon ter
ĠFl ash
ĠApp arently
ĠBurn ham
cal iber
ĠAdeb ayor
Ġoutp ost
ĠFitz gerald
Ġcompuls ory
Ġrecons ider
ay ers
ĠP ig
pl aces
ĠV il
Ġdisc onn
be e
Ġcho oses
ĠHigh land
Ġic ons
Ġ195 2
Ġvent il
ĠKit ty
Ġmonarch y
Ġunsuccess fully
Ġbungal ow
re cted
ĠT ensions
res cent
ĠMart ian
ĠEric a
bag s
Ġairpl anes
ĠLoc als
Ġstrengthe ned
Ġabund ance
t rained
pp e
ate au
Ġres idency
Ġbl ades
Ġra ged
ung a
ĠSch urrle
ĠDef ending
ĠJas mine
Ġna ive
es ha
oc ols
Ġout line
ĠCh oud
av ia
Ġdes ired
Ġbr othel
Ġcomm od
Ġcur ator
Ġep it
Ġpath ologist
Ġtim et
Ġfro st
Ġfoss ils
d u
f ired
m oving
ough lin
ĠAl ess
ĠX avi
Ġpract ition
ĠBur k
Ġmeth ane
Ġlog ic
cri pts
inter est
Ġfract ure
Ġcraf ts
Ġfestiv als
Ġvert ical
e i
m ur
at ement
ĠN em
Ġbal ancing
Ġvulner ability
Ġassess ing
ĠTop shop
Ġmechan ic
Ġairstri ke
ĠAlf ie
Ġpals y
Ġauton omous
Ġdazz ling
ĠCris is
m aine
he e
Ġfl ocked
ĠSh rop
its ch
Ġorgan ise
Ġdeb it
Ġball istic
Ġ195 4
Ġhall uc
Ġgri ps
Ġs iren
Ġh ier
ol esc
Ġtra inee
ĠFl ag
Ġfinanc ing
Ġrif e
Ġscar ce
Ġnut rients
Ar senal
ĠProgram me
ĠEC B
Ġgloss y
Ġech oes
G reat
c ases
ĠM ine
Ġy ach
ĠTh under
Ġspec ifics
lin ers
ĠGreen land
ĠRos em
Ġscen ery
Ġporn ographic
ĠMod i
Ġadequ ately
Ġpatri otic
T E
l iving
m os
ĠL und
ass ad
Ġear rings
ll ie
Ġtrans itional
pro fessional
ĠDo ha
ĠGar rett
Ġmos ques
ĠNik ki
Ġpharm acy
J an
W ar
g os
Ġc ull
Ġg rit
ĠR oot
ĠN ug
Ġcl an
Ġcontin uously
usp ecting
Ġcommit tees
che t
Ġveter inary
ĠMet eor
Ġpin point
Ġmart yr
w agen
Ġj ab
Ġhand ler
Ġperf ume
Ġel usive
int endo
Ġdiscover ies
Ġhood ed
ang led
ĠMir iam
Ġca ucus
ĠBrid get
ĠMcM ah
ĠNav ar
Ġabsor b
ĠFem ale
ĠT weet
Ġro oted
ĠSc and
Ġfil thy
Ġdeal ings
Ġhon esty
Ġrev ival
Ġobs ess
Ġsquad s
ĠiRep orter
pat ient
ĠTah rir
Ġadvertis ement
ĠDmit ry
S S
c orn
m oral
ou ble
Ġst ip
Ġwith stand
Ġover l
ĠV oy
ib u
pt oms
Ġphotogra phing
ĠItal ians
ĠMorris ons
ĠRoc ke
ĠVik tor
ĠVick y
ĠC ork
ĠB ae
ĠB irds
ĠH ands
ĠN emanja
um bers
qu ite
Ġwor sh
Ġoff side
Ġall ergies
Ġdes irable
Ġcons ular
Ġair borne
Ġmark er
ĠWar rington
ĠTra volta
ĠTy nes
Ġpoet ry
ĠIncred ibly
Ġgoalsc orer
d ered
l az
t ier
Ġl ent
ro ds
Ġair ing
Ġarm ored
ĠCarl a
Ġprec ision
ĠLes ley
Ġundert aking
Ġcarn age
Ġinterpre ted
Ġsincere ly
Ġinherit ance
F ox
d al
Ġman oeuv
Ġbl u
Ġwin es
Ġsl ay
com pl
Ġbar bar
Ġsuffer er
ĠCal vin
Ġdistrib uting
ĠLA PD
ĠBud apest
ĠShield s
ĠSag na
Ġinadvert ently
U N
Ġt witter
Ġs tern
ĠH iggins
ĠW inc
Ġfe ast
ept ive
Ġmountain ous
ĠEug ene
ĠT il
el p
ĠL it
Ġbl under
Ġcr ad
Ġlaw ful
ĠSe as
Ġcamer aman
ĠRod man
ĠRod ger
ĠAndre as
ĠRh ys
Ġwra pping
c atching
im ps
op ath
Ġplay off
joy ed
ĠSea World
ĠUruguay an
ĠLaz io
ĠFein stein
Ġbak ery
ĠK ol
ach im
aw ah
min ing
Ġviol in
ĠPl ans
uk i
ĠEv ra
Ġcompens ate
Ġharass ing
ĠFair fax
Ġscar red
chair man
ĠShrop shire
Ã ¼
Ġn uisance
ĠB ub
Ġr upt
Ġcom f
Ġmom s
Ġproduct ivity
Ġassoci ations
Ġguard ian
ĠAlv aro
Ġmaneu ver
at ters
Ġb ere
Ġp aces
st aff
ĠG iant
Ġprot ocols
aj a
ĠFor ster
ĠCoun cillor
udd ed
Ġspark ling
Ġtank er
Ġlandsc apes
ĠHispan ics
Ġarchae ological
Ġrevol t
ĠFreder ick
Ġcancell ation
ĠWake field
Ġs atur
ĠT we
ĠT win
oc ating
Ġun answered
ĠCl a
Ġfat ty
ĠPer formance
employ ed
Ġassess ments
ĠRow ling
it ous
ĠA imee
ĠO ften
Ġman us
Ġdism ember
ĠCom edy
Ġsplit ting
AR T
ĠJak arta
D ec
F rank
inc ts
dom inated
Ġhonor ary
Ġsubs idi
Ġtermin ation
IM E
Ġneglig ent
ĠArrest ed
Ġpromin ence
b ath
w ald
qu ins
ĠSt iviano
Ġter rier
Ġsen iors
Ġcell ar
Ġgirlfriend s
Ġbright est
ĠLau er
ĠAut o
Ġbacter ial
Ġguitar ist
Ġdistingu ished
r ador
os em
ĠW ant
Ġch illy
Ġsp un
ĠK ra
Ġlit tered
Ġpress ured
Ġtom ato
Ġhug ging
ĠCas ino
Ġovers aw
Ġpent house
Ġrooft op
Ġglit tering
) ,"
ĠP ix
ag ements
ĠG CHQ
ew s
se ud
ĠK ag
ĠIn iti
ĠAm ish
Ġmot el
ĠVan ity
ĠIm agine
Ġanticip ate
Ġcosmet ics
Ġfib re
dev ast
D ef
b ase
u ly
Ġt urtles
Ġh atch
ĠC rew
ĠW TA
est eem
ĠL ug
ĠR ip
Ġcomp os
ĠV ac
ĠV ital
Ġapp les
Ġtr ump
velop ed
Ġeas ing
Ġcirc ular
Ġvol umes
ĠMag uire
ĠScient ology
ĠOwn er
Ġmolec ules
Ġinconven ience
n bc
it ism
Ġl ashes
Ġwh olly
Ġfound ers
Ġmin eral
Ġlife boat
Ġsw ipe
ĠEl is
20 12
OR K
Ġbound ary
Ġannoy ing
prov oked
ĠBlu etooth
ĠGalat asaray
B re
ĠK iller
ĠSt rugg
ays on
ged ies
Ġcomb ining
ĠSar acens
can o
ĠTim ber
Ġut most
Ġemp athy
Ġrenov ation
ĠCant or
ĠS ax
ĠI con
ĠB ard
ĠP D
ĠR ust
Ġpr ic
ob a
Ġunder grad
Ġemploy ing
int ro
ett es
Ġoppos es
Ġcart oons
Ġliqu or
Ġintimid ated
Ġgre ets
ĠRocke feller
3 20
f ill
Ġal armed
ĠR olf
ach ment
Ġins ults
Ġleg ends
Ġadv ant
ĠMcG regor
Ġtransform ing
Ġfinger print
Ġscan ning
Ġshr ink
G erman
Ġp ac
ĠD ul
ĠD UI
ĠG oth
ak is
Ġdis in
Ġstar ving
Ġsk ating
Ġelect orate
wit ting
Ġens emble
bl ue
ĠCer tainly
Ġturb ulent
ĠBit coin
ĠKham ene
R L
Ġat omic
ĠD eng
ĠK ai
Ġcr us
Ġbeh aving
Ġfore most
Ġdism al
vent ions
Ġmanufact ure
ĠBos nian
ĠThank fully
Ġrend ition
Ġgam ble
................ ................
ĠBil bao
s afe
Ġgr an
ov ascular
Ġhigh ways
Ġeng agements
ĠCoun ter
Ġmum my
foot ed
ĠEr n
ĠArch it
ĠAnim als
Ġ =
ic ates
Ġpro c
ĠLe Bron
gg ie
Ġgun point
Ġmouth s
ĠHu hne
ĠWolf sburg
Ġinvent or
Ġsacrif ices
Ġcorps es
Ġsuscept ible
j ack
Ġb anging
es on
ĠS onia
ec ca
ĠD ed
Ġr anged
ans ki
Ġso aked
month s
ĠKar achi
Ġign ited
Ġplant ing
Ġbarbec ue
Ġangu ish
ĠRemem brance
W A
Ġp ont
ra per
od ied
ĠTh ib
ib l
ys is
ĠNorth am
unt a
ĠSun shine
Ġdistingu ish
Ġmalf unction
ĠT umblr
Ġhe ars
st een
ĠF ulton
Ġun official
ip edia
ĠCar men
Ġwra ps
ĠScol ari
ĠA ce
ĠW C
ĠL iter
Ġbut cher
Ġunderstand ably
Ġpract iced
ĠDar fur
cy cl
[...]
